#version: 0.2 - Trained by `huggingface/tokenizers`
Ġ Ġ
ĠĠ ĠĠ
ĠĠ Ġ
ĠĠĠĠ ĠĠĠ
e l
e r
Ġ '
r e
t e
ĠĠĠĠ ĠĠĠĠĠĠĠ
' :
o n
o r
i n
s e
a n
s t
' ,
d e
i el
iel d
t i
m e
l e
t h
r o
a l
Ġ =
u e
n t
s el
g e
sel f
( '
o d
) ,
a r
s s
od el
ĠĠĠĠ ĠĠĠĠ
Ġ i
c t
a te
m odel
Ġ {
f ield
Ġ "
model s
d b
Ġ ('
a t
Ġ self
Ġ [
Ġ c
Ġ re
m p
ti on
t o
an g
Ġ{ '
field s
u r
] ,
Ġ p
n a
de f
F ield
e ct
u l
T r
) :
j ang
c e
r y
jang o
Tr ue
Ġ a
na me
Ġ f
Ġ[ ],
j ect
s er
d jango
l a
' }
nt ry
Ġ th
a ge
in g
i d
o u
i g
or t
ge t
e y
i l
or m
t a
r i
u p
e n
mp ort
m a
se ntry
o b
c h
'} ),
Ġ s
ro m
l i
v e
u ser
ĠĠĠĠ ĠĠĠĠĠĠĠĠĠĠĠ
Ġth e
# #
Ġ in
q ue
c o
Ġi mport
Ġ def
ul t
l o
f rom
n o
" "
se t
Ġ b
( )
er t
" ,
e x
ob ject
' )
s i
c k
d i
k ey
p e
a tion
a d
Ġ #
Ġ w
u n
v al
ur n
t urn
a ss
a ult
' ]
ĠĠĠĠĠĠĠĠ ĠĠĠĠĠĠĠĠ
Ġi f
Ġ o
t er
q u
o re
s p
v er
Ġ (
de d
p ro
[ '
- -
ig n
Ġre turn
l u
b le
que st
d ate
_ _
c on
ro up
d er
p tion
Ġ to
an d
f i
Ġ" ""
ti me
le n
te st
def ault
v i
ou n
la ss
e d
C h
' ),
g s
t y
x t
Ġf or
ass ert
ore ign
on e
e w
i s
ma x
r a
h o
oun ded
val ue
te xt
ur l
g th
len gth
at a
Ġi s
p p
Ġ m
ul l
= '
## ##
Ġ no
Ġ h
Ġ T
Ch ar
a se
Ġ d
i t
c lass
sp on
i z
e s
ar gs
Ġ }
spon se
n ull
o o
Char Field
i on
p a
ate d
u b
u t
K ey
g roup
date time
a s
Ġ django
lu g
al se
I n
al l
M e
F alse
N one
f orm
t ing
ss ion
R e
F oreign
Foreign Key
object s
g er
pro ject
0 0
Ġ get
p er
t r
Ġ S
m ar
qu al
Ġ st
Ġc on
r el
Ġ e
un i
Ġ A
i th
Ġ P
= "
m b
me nt
x i
h t
u th
E qual
l an
Ġp ro
ty pe
p ri
Ġ test
Ġno t
Ġ ex
Ġ _
m i
) )
Ġo f
si on
re quest
Ġ' s
u to
u s
set ting
Ġ %
re ate
" }
assert Equal
a c
l ate
r or
-- --
i me
p age
fi le
o m
ĠĠĠĠĠĠĠĠ ĠĠĠĠĠĠĠĠĠĠĠ
o ption
a m
Ġ and
il ter
lan k
ble ForeignKey
le xi
ma il
F lexi
Flexi bleForeignKey
ou nt
e st
co de
Ġ 1
( "
c a
setting s
o l
te nt
Me ta
Ġ u
m in
ti ve
mi ssion
Ġ C
te d
Ġ models
Ġ *
mp late
de x
Ġre quest
d ata
Ġ or
B ounded
mar y
Ġ user
k w
Ġ} ,
Ġ value
i le
l s
Ġ t
i st
vi ew
ch e
Ġ n
kw args
h e
el e
an ce
t ri
pa th
e ntry
" )
" :
A uto
mb er
D ate
Ġb e
uni que
Ġ name
P ro
Ġf orm
b ounded
T ime
i al
ss age
Ġ None
Auto Field
Ġ' d
a pp
m s
'] "}
li st
U ser
pri mary
E R
s o
lo g
Date Time
s h
rel ated
t p
th er
te ger
DateTime Field
Ġ -
p o
t le
a ve
no w
b lank
ti c
c ount
e nt
te mplate
en d
lug in
ve nt
or y
st ance
In teger
in dex
m l
#### ####
Integer Field
Ġ I
er y
Ġw ith
Ġp age
d u
Ġ el
u re
a g
p t
at us
mp le
e t
G roup
c tion
c reate
ex t
u st
Ġ D
l in
Ġ= =
b o
f ilter
B ig
m age
w or
i te
iz ation
ce ss
a ck
i p
) .
O N
val id
ad d
a uth
re nt
ub li
me ssage
n der
o c
ar t
Ġ" '
Ġa s
']"} ),
Ġ di
st r
Bounded Big
le an
co m
Ġ se
BoundedBig AutoField
tri b
s c
g an
'} ,
gan ization
re ct
du ct
ob j
Ġ )
Ġre sponse
at tr
ti ls
la y
re sponse
Ġ 2
E S
T est
i mport
li ent
Ġ de
an y
er s
l y
Ġ __
o t
Ġ url
'} )
. _
E r
la ce
p i
Er ror
u tils
Ġf ile
Ġel se
r ation
f oreign
qu ery
M odel
ta il
p y
Ġ' t
foreign key
Ġc o
con tent
Ġa ss
ht ml
s ult
ta ble
Ġth at
o si
Ġth is
< /
d d
Ġ on
Ġ* *
e mail
A T
Ġ ver
ial iz
wor d
ti tle
ge ther
a y
Ġ True
an s
m o
Ġ field
ele te
Ġf rom
ur ce
u m
Ġ +
a ct
Ġ Re
to gether
F orm
Pro ject
Ġd ata
') ),
Ġ" (
---- ----
~ ~
er ror
Ġ model
con text
Ġ l
E N
ver se
) ",
` `
ust om
at ch
ar ch
ou t
Ġ M
S T
Ġ"( ('
i se
er i
an ge
Ġ_ ('
Ġ O
Ġass ert
' ",
up er
Ġ L
Ġ False
c ation
osi tive
ang u
Ġc h
Ġ E
angu age
i ce
p k
re d
" >
P ositive
lo w
Ġ{ }
I N
j s
th od
qu i
o k
Ġi t
O R
co re
Ġ F
V i
u le
sc ri
il d
per mission
Positive IntegerField
er mission
ig ration
Ġ G
in t
Ġ me
ĠĠĠĠĠĠĠĠĠĠĠĠĠĠĠĠ ĠĠĠĠĠĠĠĠĠĠĠĠĠĠĠĠ
d min
'), )",
in stance
'] ",
) ),
B oo
Ġp a
s k
ass word
Ġdef ault
u te
c i
s ave
U R
Ġ settings
Ġ set
Ġ al
f f
re ss
g ist
ate g
c lient
ce pt
Vi ew
Ġu se
e vent
la st
at or
Ġ g
Ġ H
di rect
Ġc lass
"" "
ho l
b el
lo ad
1 2
d elete
ad min
( ),
n d
p ubli
* -
Ġ 0
Ġw h
m and
vi sion
Ġ r
R E
st atus
Ġ ra
Ġ- *-
ĠĠĠĠĠĠĠĠ ĠĠĠĠĠĠĠĠĠĠĠĠĠĠĠ
C on
p lace
la bel
lo ck
p lugin
6 4
i f
up date
il l
T ext
h is
a mple
Ġs ho
Ġ an
u ment
ta g
c al
i a
Ġ[ '
bo se
b ase
ar d
hol der
3 2
el p
y pe
an t
A N
Boo lean
Ġ y
Ġa c
f or
si te
k e
i mage
ser ializ
Boolean Field
Ġh as
c re
] )
o w
" ),
ul d
p ar
Ġst r
Ġs o
r st
S E
= =
Ġcon text
n er
Ġ template
Ġt ry
######## ########
log in
I ON
( ):
0 1
V al
p re
Ġre sult
Ġ @
k en
con trib
m d
Ġ N
Ġ list
C ase
Ġ B
di t
__ (
Ġ un
ption s
str ing
m an
Ġa re
Ġ db
Ġra ise
ĠT he
c ted
D E
s ub
po st
che ck
L E
ĠT est
ert y
or ganization
Ġex cept
p erty
te m
Text Field
c lu
me mber
ateg ory
Ġ key
Ġa pp
p ort
con f
tr ans
h as
de n
/ /
lin e
s lug
c ur
UR L
js on
al s
Ġc an
query set
v id
st ri
ĠT his
ig ht
od ing
tic le
t tp
qui red
b ack
user name
ustom er
i x
id get
: //
ht tp
Ġre nder
Ġ .
se en
ad ded
er e
Ġ at
j o
re s
Ġ ma
st a
M any
Ġs uper
ter n
b y
form at
Ġ kwargs
or der
Ġ W
Ġw e
lay er
I C
Ġn ew
ĠĠĠĠĠĠĠĠ ĠĠĠĠ
ut ure
w ith
te am
Ġb y
Ġin stance
Ġ User
scri ption
n e
Ġ v
re gist
I T
ut f
M E
v en
Ġ group
a re
Ġ object
uni code
() )
s y
Ġpro ject
e am
Ġa dd
a ble
ag tail
so urce
f uture
2 00
lin k
Ġ view
() .
Ġ 3
G E
om mand
4 0
Ġcon tent
U T
te n
u g
Ġ `
A C
u mber
Ġw ill
ĠI f
Ġ :
Ġ obj
jo in
re ad
le d
Ġo s
ac tive
A R
Ġp ar
l anguage
p en
Ġ fields
ver sion
b ar
č Ċ
so lu
in it
' ],
a me
') )
' s
Ġre verse
A L
oc ument
Ġsho uld
[ "
o st
m n
trib ute
re e
Ġpro duct
Ġ lo
Ġ all
Ġb lank
R O
lu mn
Ġ <
o g
= {
f o
p assword
Test Case
Ġp re
T o
a v
ol der
a ger
Ġa b
act ory
form s
e e
di ct
Ġpa th
ar get
Ġ time
Ġc he
igration s
ro ot
Ġver bose
o ice
solu te
mo ve
Ġche ck
P age
Ġver sion
pro duct
vid er
v el
k i
A m
Ġ' m
ca che
Ġ serializ
~~ ~~
o es
Ġ ),
Ġ error
Am eri
a b
me thod
oo tle
Ameri ca
m it
clu de
Ġc ur
ĠP ro
b oo
pp ing
re n
Ġp ermission
'] )
i ty
place holder
Ġc a
Ġc reate
ch ange
fi rst
A P
o ck
o de
I L
f s
t ra
ch ed
ar ticle
Ġs ub
me ta
th on
la tion
U S
Ġ R
5 0
p ut
se s
se d
Ġ utf
t atus
f oo
p h
re nder
Ġ message
b ject
Ġc oding
w are
re vision
re verse
to ken
P O
-------- --------
ta in
a ce
r ganization
Bounded PositiveIntegerField
pro file
I D
Ġ en
ar g
Ġ max
ar i
Ġp lugin
Ġp ri
C H
Ġ valid
1 00
" ]
pe d
Ġ li
ta gs
di r
regist er
Ġh elp
D e
Ġ U
app end
ix in
mar k
Ġ[ ]
Ġ type
or s
ex ample
Ġ( "
f ig
se arch
ti al
re sult
n ia
ch ild
it s
Ġstr ing
ment s
N ot
Re sponse
ac tion
at tern
S er
T ype
i fi
and l
' ^
fi x
Ġform s
Ġo ptions
ro w
Ġm igrations
co mp
Ġ sentry
publi c
m od
ser ver
z ip
e ck
Ġa uth
Ġ unicode
Ġ datetime
st ore
y s
c all
Ġ log
co l
"} ,
Ġb ase
A uth
s pe
' t
Ġ ``
= [
S et
ac count
s ign
attr s
in e
Ġf ilter
c or
l d
n se
Ġh ave
publi sh
A S
M S
ou s
P L
Val ue
Ġ{} ),
oun d
Ch eck
Ġ null
S e
O T
A dmin
Ġ ]
le vel
Ġ ge
M ixin
od y
in d
n ew
. __
option s
Ġ Group
sp lay
i ck
Ġ args
ĠH ttp
Ġi mage
co lumn
li cation
c ri
Ġ >
Ġm od
add ress
']"} )
f un
pa rent
Ġel if
Ġ any
2 5
e mplate
Ġp ubli
d le
} )
se ssion
st ra
Ġget attr
Ġab solute
Ġuse d
url s
o ur
permission s
T T
Ġ title
. .
ce ption
g f
o p
Ġe mail
c cess
x x
pri ce
O bject
Ġc all
ra me
ite ms
C O
U L
li ter
c an
( {
trans lation
Ġme thod
iz e
cre ated
assert True
liter als
Ġp ass
i la
re quired
i es
Ġi d
D I
f t
a pi
E x
i pping
boo k
( *
i ki
Ġc re
Ġpa rent
' ):
T eam
m al
w agtail
c lean
ializ er
s uper
in fo
no t
Ġcur rent
Ġ queryset
U p
z e
ĠĠĠĠĠĠĠĠĠĠĠĠĠĠĠĠ ĠĠĠĠĠĠĠĠ
b u
D i
ou tp
== ==
outp ut
w w
P ermission
ĠĠĠĠ Ġ
PO ST
Ġor der
X X
e ed
z y
Ġs ite
F I
Ġwh en
B ase
m on
' "},
Ġy ou
Ġ rel
li t
andl er
st art
pro perty
Ġl fs
P lugin
i ve
Ser ializer
M A
s ho
id dle
') (
or age
i ch
EN T
ce s
Ġs lug
Val id
a f
Ġ2 00
o s
Ġ text
F actory
Ġs h
l ob
t al
Ġf un
ho ok
Ġ In
Ġe vent
attern s
t ml
re f
ĠRe turn
or g
n c
$ ',
To Many
E D
ti fi
Me mber
12 8
_ (
ms g
ul ti
a p
ĠP age
ĠD jango
y le
Ġh tml
O rganization
r int
me n
ri te
en tic
i tial
test s
ite m
s g
Ġb ut
iddle ware
F ile
A l
w idget
Many ToMany
f older
par am
Ġ len
ac cess
super user
e dit
check s
lace holder
Ġform at
3 0
ManyToMany Field
Ġf i
ES S
y thon
Ġc lient
man age
ci mal
1 1
Q u
f ault
Ġl anguage
h elp
IN G
M O
pro cess
r ight
ĠE x
q s
c ms
ten sion
r on
view s
ĠHttp Response
d el
Ġa dmin
ti es
ch ar
has h
ta sk
all y
1 0
file s
c ial
ĠĠĠĠĠĠĠĠĠĠĠĠĠĠĠĠ ĠĠĠĠĠĠĠĠĠĠĠ
Ġ up
ĠC on
an ager
Ġon ly
sel ect
p l
Ġo ption
Ġ_ ("
( [
E vent
F ilter
ari ant
a k
E mail
c ategory
i ver
Ġc ommand
ig in
V ER
ĠA dd
Ġfile s
ow n
] .
c ustomer
si a
Ġb ack
e b
Ġi tem
Ġ 4
Ġ% }
' .
J S
Ġ Meta
e cted
m y
cur rent
a x
m me
ma in
i de
s u
UT H
group s
Ġch ange
US ER
( ?
Ġ one
Ġs ys
ar y
e ase
Ġp er
E L
A B
sh ip
Ġw or
Ġa ction
md set
Ġca che
T ag
a il
type s
bo x
or ies
Ġp ost
ta ch
zip ped
z one
U N
c y
wor k
C T
Ġco py
message s
ho to
sta tic
ol low
h el
. """
i ven
40 4
Ġst ore
an el
Ġst atus
name s
sp lit
_ ('
de tail
i r
ho me
plugin s
se nd
Ġwh ich
ĠĠĠĠĠĠĠĠĠĠĠĠĠĠĠĠ ĠĠĠĠĠĠĠĠĠĠĠĠ
Ġso urce
ou ch
che ma
Ġ} )
################ ################
page s
value s
A sia
Ġ json
Ġ' re
Ġc ms
c s
g ra
Ġ+ =
Ġ update
Ġ us
co py
Ġch ar
Ġco de
a uto
e c
I S
Ġc ho
Ġ table
Ġa uto
pro vider
an n
id th
tri cal
mme trical
Ġex tra
ou ntry
T E
w rite
Ġn umber
ver ri
ist s
mple te
T Y
res ol
Ġre sp
Ġs u
. "
ĠD e
verri de
Ġpubli sh
Ġ{} )
Ġp assword
pe cted
U n
f la
Ġpro perty
3 4
ĠĠĠĠ ĠĠ
user s
A ME
di a
Ġm atch
file name
u al
Ġre direct
tain s
sy mmetrical
L O
Ġ Check
Ġ' %
Ġdi rect
Ġd ocument
(' /
end s
stri pe
o te
Ġ date
ti ty
ch oice
ck et
he ad
in valid
Ġse arch
Ġ out
ĠA r
el ect
get text
D oes
si ze
Ġh e
S t
ay s
n ing
o urce
y m
Ġy our
'] .
A D
po int
Ġg iven
Di ct
com mand
Ġno de
K E
f rame
ou th
no de
Ġm ore
Ġac cess
Does Not
b e
Ġcre ated
le ction
Ġ query
Ġ output
Ġ' '
AT E
AT ION
ĠG en
xi st
app lication
M igration
JS ON
w iki
eri c
Ġis instance
e na
la s
7 5
E xist
Ġh ere
Ġ !
GE T
A dd
in nia
so cial
UL T
re direct
={ '
H O
i m
Ġin dex
oo l
M L
t s
u mb
DoesNot Exist
p atterns
il er
la zy
Ġ related
Ġs ave
mp ty
t in
Ġp rint
Ġse e
sk i
Ġc om
Ġw idget
las ses
po p
r ule
Ġs pe
d oc
A c
ation s
Ġb lock
Ġ j
ma p
Ġdi ct
u se
Ġt arget
Ġ! =
A GE
r un
Ġw as
S ION
sel ected
Ġh ttp
Me ssage
Ġal low
Ġcho ice
Valid ation
Ġ tr
Ġ unique
Ġ URL
+ )
Ġo ther
Ġun it
Ġre quired
d o
Ġ x
ĠReturn s
Ġma ke
Ġ objects
to ol
Ġ V
/ $',
Ġp laceholder
ard s
al led
ver bose
di s
d a
ext ra
Ġ: :
25 5
Ġm sg
conf ig
M anager
ate s
un it
ho st
Ġr un
O ption
Ġ 5
at ing
Ġto ken
vi ce
tifi cation
Ġ \
Ġc ategory
Ġd o
~~~~ ~~~~
Ġb u
Re direct
ann el
g in
c ls
n um
t arget
se nt
de scription
Ġpermission s
Ġ tag
cri pt
Ġde tail
Ġin clude
pa y
tent Type
Ġpage s
Ġat tribute
= (
Ġm ust
ar k
Ġin t
al ert
user profile
R es
spe nt
image s
to tal
man ager
A r
Ġ ],
Validation Error
Ġm an
e ar
z innia
arg ument
Ġ' {
ug h
p ootle
Ã ¸
L ist
Con fig
Ġmod ule
F A
Ġc ustomer
af e
w o
oc ial
TT P
2 01
z il
pa ck
" ))
C reate
Ġst art
ok up
Ġserializ er
filter s
ro ugh
(* *
N AME
r der
ator s
Ġch ild
Ġfi rst
ag ta
5 6
Ġ attrs
Ġa d
n ext
Ġfor ce
c ss
d s
on g
ĠC o
c ul
li b
co pe
sp ace
ve d
end ing
mo ck
Ġor ganization
ele ted
EN D
AN G
Ġ le
Ġc lean
rel ease
i c
Ġ k
Ġn eed
ag in
error s
w agta
Ġcon fig
c art
ĠS ee
checks um
f ri
u ro
Ġd oes
2 0
g ing
Ġfun ction
di tion
S elect
ure d
Ġhas attr
n umber
Ġ ro
Ġc art
ice nse
Y ou
C o
Email Field
T ML
Ġc ls
Ġa v
M P
Ġ article
Ġ link
lo at
L og
T emplate
ci fi
C ommand
pi ck
ri es
ver s
it le
Ġauth or
m atch
clean ed
Ġus ing
f ace
w it
Ġ' /
Ġc ol
order ing
or ted
KE Y
C ON
P RO
E uro
n ect
u id
xt ure
b lock
i mple
Ġst a
and le
auth or
9 9
s te
per ties
g ro
o ther
w ards
gra m
Euro pe
ge st
Ġpublish ed
Ġ orm
Ġs outh
AC K
Ġ /
mod ule
Se arch
Ġu gettext
). __
ne ction
c oding
if y
FA ULT
I P
c c
b ody
lob al
ti vi
w idth
at tribute
ulti p
un d
st yle
Ġ K
ce nse
ow ner
AP P
Ġge ner
wagta ila
tivi ty
A G
c el
f er
o ad
Ġ root
Ġco mp
ti v
ven nia
t on
. ")
ime s
B lock
R a
Ġp o
Ġde scription
ĠRe quest
C MS
at er
fi r
app s
O ne
up le
Ġ |
} ,
Ġf ollow
ES T
l l
te ms
ise s
ĠGen er
p atch
book mark
al og
ĠL icense
v ert
ar ning
/ ',
Ġ load
st orage
S I
choice s
wagtaila dmin
{ %
na v
Test s
Ġset Up
ouch er
U G
g ion
al low
Ġex pected
e p
n g
ti cket
Ġd el
Ġ label
Ġmessage s
Ġm o
)) )
st ate
Ġin valid
lo cal
Ġso me
c at
stra ct
Ġs ign
Ġchoice s
in put
log ger
ĠTest Case
as k
igin al
I mage
c lasses
te mp
Ġuser name
S lug
sta ff
Ġc ustom
h andler
ĠPro ject
Ġ layer
re source
assert In
N U
Ġp k
Ġdetail s
Ġw agtail
A fri
f ter
Qu ery
Ġs up
Re quest
per m
content types
f ull
re am
Ġpro cess
T he
ww w
Ġse ssion
Afri ca
a th
() ),
Ġd elete
ĠB ase
ĠI t
cre t
ifi ed
ex ists
ra per
sh ipping
lo cation
py thon
Ġ trans
st er
ge d
at ar
Ġre vision
Ġ ta
ateg ories
ultip le
" ):
re port
on ly
Ġp art
id den
in ter
') .
Ġre gist
Pro vider
ĠPro duct
Ġe ntry
Ġme mber
in k
Ġhe ad
li c
A UTH
M PL
Ġ end
/ (?
ĠM igration
tern al
N ode
Ġo per
fun c
ge x
Ġserializ e
Ġdirect ory
di an
e ssage
Ġm ark
Pro file
Con text
Ġsho w
publish ed
on ym
in itial
ca le
8 0
key s
eri es
ff er
Ġre move
Ġvalue s
zil li
iver y
Ġdi splay
AP I
o auth
nt er
Ġ' <
te nd
onym ous
Ġpri mary
tach ment
Ġbe en
Q U
Ġp ython
qui re
- %
C L
_ ("
Ġi tems
frame work
ce ptions
---------------- ----------------
Ġ 6
th ing
Ġa fter
Ġuser s
Ġpar am
A pp
Ġ" %
sta mp
" .
Ġin ter
I tem
Ġn ext
mb da
av n
S tatus
que ue
ĠT emplate
") ),
a u
Ġ last
la mbda
DE L
==== ====
b en
f y
in line
di splay
Ġdata base
zilli ans
P ER
cur ren
param s
AS S
Ġb ody
con nect
Ġe dit
Con tains
read y
Ġ server
vi ron
Ġun der
l at
ign ee
ubli c
Ġse nd
Ġadd ress
call er
Ġc mdset
D O
am ount
sy s
resol vers
r c
ĠA P
ide nt
0 2
A t
E ntry
[ :
a si
a ila
F OR
H el
n u
LE D
Ġcon tain
scri pt
a ch
vi ous
ur i
Ġac tive
m er
. ')
p r
Ġ qs
re move
ur ation
mb ed
Ġtr ue
Slug Field
K Ã¸
h avn
Ġre s
f ore
bo ard
Ġpri ce
aila ble
ben havn
KÃ¸ benhavn
S ub
el ine
P E
pa gin
OR S
Ġac count
DE FAULT
tool bar
c md
ex tension
child ren
le ar
Ġc ount
Ġ qu
Ġa ct
sho w
ĠĠĠĠĠĠĠĠĠĠĠĠĠĠĠĠ ĠĠĠĠĠĠĠĠĠĠĠĠĠĠĠ
ac y
/ ')
de sk
Ġin to
pi c
M ock
c ip
k s
re place
fun ction
ok en
ĠGener al
> >
H E
M iddleware
ĠA N
par se
in x
= _('
Ġ ct
ĠI mage
at s
T I
b ug
th e
pre fix
social account
f iler
as h
form ation
j a
or ity
la uth
ĠU n
P ick
d ocument
v oice
re turn
Ġse nder
ĠE vent
low er
mon th
T his
u ct
back ends
cat alog
Ġ Q
Ġp ootle
ig its
Ġm ock
o pen
ĠĠĠĠĠĠĠĠĠĠĠĠĠĠĠĠ ĠĠĠĠĠ
ay ment
Ġp ack
com ments
Ġparam s
i ss
m iddleware
Ġp agin
Ġo ld
o f
Tr ans
ele ase
ge n
RO OT
R el
sp atch
Ġpro file
MA IL
pick le
Ġin st
assert False
ifi c
ĠS ite
Ġerror s
in ce
Ġ[ "
Ġth ere
url resolvers
ĠO rganization
Ġsta tic
Ġ1 0
po si
ĠH TML
Dict Field
tin ue
ro p
a tive
co mplete
ĠI mport
Ġ --
Ġv ariant
a in
a le
Ġe q
entic ation
Ġin itial
Ġo ver
per ly
ac ific
Value Error
and ard
hel per
P acific
T ER
ĠĠĠĠ Ċ
on ode
Re vision
stri p
zipped DictField
ĠC reate
a ded
en ce
ĠW e
led Object
process ors
Ra ises
Ġ login
ĠA t
sh ort
a ke
ĠP ootle
ledObject Field
Ġs ame
g zipped
and om
ĠP ublic
d own
chema Migration
T ION
c ountry
p hoto
pen den
url patterns
Create Model
en der
Ġlog ging
G zippedDictField
Ġc or
Ġdef in
time zone
Ġfile name
gzipped dict
Ġs ix
Ġit s
site s
DI R
pay ment
Pick ledObjectField
s afe
Ġ ))
a ti
p lay
v ariant
Ġal so
cor d
f act
Ġal ready
IC ES
up load
ST AT
Ġspe cifi
t ry
t ree
su ccess
2 2
n ip
Ġno w
VER SION
i ter
Ġh andle
ap ter
Ġ' _
Ġre st
v ar
di table
Ġex ist
Pro duct
men u
re ce
ut or
In put
asi c
p art
Ġp y
ĠĠĠĠĠĠĠĠĠĠĠĠĠĠĠĠ Ġ
Ġname s
pl at
TE MPL
w eb
assert Raises
osi tion
Ġin formation
ex ceptions
Ġpar ser
Ġpre fix
CH O
nip pe
Ġ 7
Ġst yle
Un i
r f
ĉ ĉ
Ġc ase
xx xx
U B
me dia
ate time
assert Contains
({ '
1 8
f ul
Ġ Ch
a st
ge ner
Ġdi stri
an tity
Ġt ra
Ġview s
Ġ ho
help desk
Ġ Form
plat form
C E
v acy
ĠĠĠĠĠĠĠĠ Ċ
Ġpro gram
assertEqual s
ab solute
Ġli cense
f actory
n ce
id s
ex clude
Ġo w
ĠS e
ĠUser Factory
4 4
> \
o verride
MO DEL
ra ft
word s
regist ration
ĠĠĠĠĠĠĠĠĠĠĠĠĠĠĠĠĠĠĠĠĠĠĠĠ Ġ
ĠCo py
update d
ĠImport Error
T R
Ġ line
Ġ' .
Ġa m
Ġcon tinue
Ġl ater
T h
ma s
Ġwith out
ĠG NU
ia ble
B ACK
N o
p ending
w h
AN T
Ac count
wit ch
Ġf ound
EL D
Ġre ce
Ġ{ "
ĠAdd ing
mi c
do main
ĠAP I
Ġ team
orm al
co ver
http s
H TTP
y ear
Ġ J
con d
com ment
gro und
F loat
Ġdi s
ĠO rder
12 34
pre sent
Ġtime zone
Ġ. .
Ġserializ ers
E MAIL
se nder
ol d
product s
. ',
st in
al i
Ġst ate
Ġ vi
Ġre source
Ġresult s
Ġma y
FI ELD
ul ar
Ġm in
ĠG et
( (
T H
Float Field
> [
D B
Ġ selected
ith er
del ta
de code
ĠT h
Me thod
Ġcon nection
Ġ Model
Ġ ValidationError
ter s
', )
mp ro
00 0
ĠA n
Ġsh ipping
group tag
ci es
p g
men ted
head ers
r an
Ġ' ',
Ġam ount
Ġst ri
OR T
l ang
at ure
ĠAr gs
p s
w e
p ool
s ure
Organization Member
Ġav ailable
APP S
B ack
pack age
Ġs ize
con fir
ke ep
C a
Ġco mplete
01 0
bu ild
I s
ur al
ER R
Ġ argument
Ex ception
CHO ICES
s ce
ti l
Con tentType
De cimal
" ],
E X
O Auth
q l
Ġ' ve
Ġc alled
Ġp osition
ĠT O
Ġd on
lin es
mpro perly
] +)
c ustom
er r
Ġt uple
Ġcall er
y nc
ĠĠĠĠĠĠĠĠ ĠĠ
vi te
i b
utor ial
g o
Ġf older
7 8
sho p
c mdset
l fs
Ġth en
Config ured
c r
de sc
ĠP ermission
s with
Ġp layer
du mp
ant s
Add ress
l and
n et
th rough
ĠA UTH
IC EN
result s
ĠCopy right
" ])
f in
Ġ 8
Ġ ser
ip eline
Ġlog ger
mproperly Configured
/ '
D U
O K
s or
event s
serializ er
V AL
b in
Ġ val
sy nc
ec ute
posi tion
c ase
o ff
Ġf la
Ġs ure
en v
f fix
ĠĠĠĠĠĠĠĠ Ġ
en coding
Ġme ta
sign als
hel lo
P AT
ver y
sub scription
1 6
ĠN ot
ICEN SE
x y
Ġ ValueError
Ġre ad
ri st
Ġe ither
C A
F IL
Ġf in
tri e
ĠDe fault
lo okup
Ġe ach
ĠL ICENSE
ug gest
Back end
w a
Ġ zinnia
Ġproduct s
mp t
ou ched
he ight
Al ert
p anel
Ġ 9
el l
code name
ele ting
load s
li cy
ĠO Auth
Ġal lauth
i den
Ġth an
ĠT ag
fla g
Ġcor rect
c lo
d ar
f ind
ĠP ython
ched ule
start swith
Ġregist er
s ted
le t
ar iable
Ch oice
E nd
Ġ tags
In dex
filter value
C an
Ġ{ %
ĠĠĠĠĠĠĠĠĠĠĠĠ ĠĠ
doc s
W idget
P anel
si mple
Ġe vennia
Boo k
ft ware
i ent
sc raper
back end
ĠEx ception
project s
ac tiv
de cor
Ġc md
per ms
Ġn on
change d
3 9
C RE
Ġtest s
Ġme nu
ĠĠĠĠĠĠĠĠĠĠĠĠ Ġ
ĠAUTH ORS
E CT
n on
Ġ_ (
penden cies
o me
lay ers
umb na
S ite
t c
all back
ĠC ommand
Ġj ust
S ER
Ġs ort
si de
Ġor iginal
join ed
ĠTO DO
Ġbe fore
Ġset up
tra ce
ĠEx ample
Ġad ded
Ġdistri bu
1 4
1 9
A Y
L ANG
` .
p layer
Ġe mpty
py test
`` ``
IT Y
Ġp as
act or
Ġpubli c
entic ated
TY PE
> '
T A
Ġre t
Ġth ey
ĠO bject
col lection
1 3
g re
ĠĠĠĠĠĠĠĠĠĠĠĠĠĠĠĠ ĠĠĠĠĠĠ
Ġ1 2
ĠC MS
Ġlo cal
Ġli ke
rist mas
c ategories
f ail
Ġ setting
li mit
pp er
tr ing
et ch
Ġ2 0
Ġfun c
Ġbu ild
len dar
Ġct x
P AGE
b row
__( *
extension s
G I
U sed
ĠĠĠĠĠĠĠĠĠĠĠĠĠĠĠĠ ĠĠĠĠĠĠĠĠĠĠĠĠĠĠĠĠĠĠĠ
Ġo pen
ut ton
ress or
sign al
Ar ticle
ĠL anguage
wagtail core
C AC
T oken
h er
() [
ex pi
pro vid
5 5
d ay
e fault
Ġ row
Ġ JSON
pt s
ĠN o
Ġbase s
Ġ> >>
dump s
D AT
T able
p lan
r t
Ġlo cation
ive d
Ġpack age
umbna il
h one
m igrations
u ar
ĠC ategory
cal led
Ġ. ..
ĠCon tentType
Ġoption al
C md
e o
Ġ level
to re
ass ignee
all ery
Hel lo
m all
oo ser
mo te
IT E
Al ter
widget s
ĠHttpResponse Redirect
Res ource
gen eric
) ]
S L
d ays
Ġch annel
De fault
Ġup load
Ġoper ations
C ode
s cope
Ġlo ok
Ġdistribu ted
u fact
00 00
sub mit
manage ment
ufact ur
: :
Ġ ).
le ss
Ġo verride
g it
h a
ro le
Re turn
mo de
Ġsho p
Ġlo okup
Ġfi xture
C ategory
ta tion
Ġcheck s
comp ile
( _('
P assword
d j
st ream
en viron
ch ang
PAT H
R elease
d igits
ca st
Ġde pendencies
hook s
w ays
act er
Ġman age
placeholder s
cip ient
End point
S O
ro ad
] [
Bounded IntegerField
serializ ers
trie ve
k a
Ġi den
Ġback wards
Query Set
B UG
Ġo k
ĠS et
ĠF ile
qui res
ste ad
R ule
Ġc al
ble d
ĠS ub
Ġex clude
ĠC ustomer
Big IntegerField
ĠRe sponse
ST AL
stra int
Rel ated
uggest ion
D ER
Ġ lock
Ġe ditable
g lobal
Ġ task
ele tion
ĠL ist
ĠRequest Context
road cast
/ %
g no
li ed
pri t
Ġdefault s
b er
v ouched
que nce
Ġt wo
ĠM ock
sub ject
Ġin put
set ta
ex cept
di v
ĠAt tribute
k es
Ġthe m
lo t
pri vacy
dition al
r ate
Ġ You
Ġl ang
la ble
res ses
ĠĠĠĠĠĠĠĠĠĠĠĠĠĠĠĠĠĠĠĠĠĠĠĠĠĠĠĠ ĠĠ
TI ME
Ġpro vi
B y
t wo
lo aded
per i
ph one
1 5
N umber
Ġf ind
Ġ} }
str uct
Ġd eleted
ĠI mproperlyConfigured
Ġconfig uration
1234 56
Ġpas sed
= _("
t stra
Ġex tension
direct ory
check er
Ġplugin s
Ġsup p
play ground
ERR OR
STAL LED
R Y
ca ched
Ġcommand s
D jango
e mpty
in voice
Ġr ange
ĠN ote
To One
Ġupdate d
tstra p
A SE
J ECT
le ase
ufactur er
li p
pro perties
ĠA uth
Ġco lumn
6 0
G en
M M
el per
iz ed
Ġex p
ĠD eleting
cul prit
G IN
O P
U E
c lear
li ve
si ble
Ġw ant
Ġex ample
action s
4 2
O L
l ated
de bug
Ġreturn s
ĠT eam
rel oad
for ce
Ġhttp s
CL ASS
TEMPL ATE
t utorial
Ġf ull
ĠD i
arning s
T ask
x ml
Ġ arg
Ġi ter
no tification
assert Not
late x
ers on
ten ant
publish er
CAC HE
peri od
* *
R ES
{ }
ex port
Ġapp lication
Ġbu il
se cret
Ġin stead
Ġt ree
CO UN
Template Used
s chema
u ally
Ġs cript
In line
Ġdi ffer
Ġmethod s
pl ural
Ġwor k
A ccess
d raft
o se
s ample
re set
to col
ca bo
ĠF ound
fla gs
Ġ'{ }
Uni code
N ame
[ -
s ort
ta x
late st
r al
t ro
Ġw iki
ING S
U P
d eleted
an e
st ack
Ġp atterns
pri ority
mple mented
Ġdi r
Ġwh ere
De tail
UB L
up lic
Ġr ule
organization member
Ġwor ld
3 3
{ {
Ġa pi
Ġf ail
'] ),
ĠA c
DI A
ENT RY
n i
s on
y na
st d
ex tend
(" %
MA X
################################ ################################
Ġ' --
in st
SE TT
ĠAr ticle
ĠFound ation
: %
D ata
M y
W ith
Ġ ter
de nt
mar t
ca use
Ġfollow ing
uar dian
Ġ keep
Ġa g
Ġex ists
ĠH TTP
Qu eries
ĠĠĠĠĠĠĠĠĠĠĠĠĠĠĠĠĠĠĠĠĠĠĠĠĠĠĠĠ Ġ
Ġsu ccess
ToOne Field
N um
l ar
Ġp ayment
'] :
sp y
is h
place s
Ġback end
JSON Field
Ġ lambda
Ġc ri
Ġimport s
Model Form
Ġ> =
Ġchange d
H andler
s nippe
Ġ translation
Ġpro perties
Ġcol lection
D J
set up
Ġcon trib
"} ),
######## #
ay er
F or
Ġ select
Ġth rough
Ġde cimal
Ġhas h
Ġtemplate s
ANG O
= %
P ar
Ġin clu
fi xture
ra w
Ġge onode
M IS
O rder
i ble
Ġ' ')
assert Num
com mon
Unicode PickledObjectField
assertNum Queries
Ġi mp
Ġto tal
ra pper
Ġm on
ĠD E
Ġpar se
Ġorder ing
XX XX
O n
Q L
r ary
ing le
par ser
av atar
C ESS
s core
Ġs k
Ġto p
ph inx
Ġli mit
ick et
LANG U
M IN
ce p
Ġrel ease
Ġ &
re sh
Ġre port
ĠG eo
################################################################ #########
L I
Ġ" "
Ġfor wards
template s
SE T
One ToOneField
m any
Ġ attr
R ender
re ak
re pr
Ġp ort
ma ke
po licy
dir name
Ġdefin ed
BACK END
Ġ Trans
ĠĠĠĠĠĠĠĠĠĠĠĠĠĠĠĠ ĠĠ
ST R
Ġpagin ator
_ %
c ut
te s
us r
Ġn e
ĠF or
Res ult
R ESS
ti fy
ser ve
Ġbe cause
ĠD ocument
Ġdocument ation
Redirect s
Ġpy test
v ing
od ay
id er
un k
oo k
AR T
l ing
re sp
al ity
at tach
ĠS t
Ġe very
now n
sub scri
URL Field
au dit
A RE
t xt
re gion
ser t
head er
) ):
A d
H ash
] ['
j ax
Ġb o
ex ception
ĠS imple
Ġsys tem
Tag Key
C M
in a
nt ax
Ġs ocial
ut ors
spe c
b a
Ġre present
ta pp
Ġapp s
Ġdoes n
assert Is
ĠS o
min ute
cabo tapp
Ġ Field
Ġre fer
li ce
Ġthe se
ction ary
CRE T
provid ers
( __
S D
i con
Ġ mail
an onymous
ch annel
ĠS er
Ġ% (
um my
inter face
sys tem
e mbed
p rint
Ġex pi
sk ip
ati ble
C ount
U SE
e mber
Ġthe ir
ile d
Ġal i
Ġsup port
Choice Field
9 0
pre vious
row s
call back
Ġfilter s
Ġblock s
Ġmo zillians
COUN T
\ \
Ġ temp
Ġin fo
assert Redirects
es ted
team member
ME DIA
Ġen coding
FI LE
Ġallow ed
1 7
L ink
Ġn ormal
ci ty
Ġrel ative
tifi er
CA DE
C AS
ĠE ntry
cel ery
3 6
en u
qu antity
so le
ĠO pen
link s
} }
nt ries
Ġs p
Ġe ven
RE QU
Ġf lat
user ena
ĠS entry
rel ation
Ġpath s
~~~~~~~~ ~~~~~~~~
N O
S mall
b utton
v oucher
Ġs rc
AN D
attribute s
# !
i e
ig h
assert TemplateUsed
Ġh elper
ent ries
Ġra w
Ġv ariable
wagtail images
yna mic
W eb
re gex
ign ed
Ġh andler
json field
ĠCon text
CAS CADE
> ',
C om
T O
er ate
ge o
la in
Ġhead ers
brow ser
e ature
Ġ err
(' <
ith ub
.. .
copy right
#! /
: `
M B
] ))
de v
di spatch
Ġfla g
= ('
b il
m t
') )",
ĠC a
SE CRET
40 3
Tag Value
( _(
set s
arch ive
ĠĠĠĠĠĠĠĠĠĠĠĠĠĠĠĠĠĠĠĠĠĠĠĠĠĠĠĠĠĠĠĠ ĠĠ
P RE
W OR
d ing
Ġc ountry
Ġrequest s
DE BUG
ine ss
rt ual
C ustom
U D
re quire
member ship
task s
command s
Ġtrans action
li ck
ase s
Ġpar ame
Co lumn
STAT IC
S ENTRY
c ra
ig ation
Ġd oc
Ġres ol
Ġstri pe
r ant
Ġ' -
Ġf actory
ma tic
ĠT ype
ĠA pp
us iness
ĠI N
oc al
sce nd
ti als
Ġf rame
ex p
ĠĠĠĠĠĠĠĠĠĠĠĠĠĠĠĠ ĠĠĠĠ
class method
Decimal Field
Ġ queue
el y
st ats
language s
Ġpre vious
tool s
allow ed
M ultiple
e v
Ġ home
Ġre di
act ers
IN STALLED
lic it
MIS SION
' "}),
s ale
ro setta
il ar
en code
'] ['
d eletion
g ine
In stance
Ġ'{} '}),
, ),
o per
ss ue
Ġi gno
Pro perty
Team Member
ĠĠĠĠĠĠĠĠĠĠĠĠĠĠĠĠĠĠĠĠĠĠĠĠ ĠĠ
confir m
decor ators
I f
P ri
d t
on t
or igin
In dian
ting s
ance st
Ġbe t
OR E
Ġcan not
Ġsave d
Ġcom ment
SETT INGS
M in
P ORT
] ),
Ġ Key
Ġw idth
tr ue
CO MP
Ġaction s
Small IntegerField
F older
in s
un its
version s
i tion
m ing
Ġ ticket
() ))
ra p
Ġm anager
Ġpro vider
Ġy ield
Ġcontrib utors
P ost
or iginal
at tachment
Model Admin
12 3
Ġkey s
E T
W S
b ad
Ġ q
od er
set default
ter ia
es ca
Ġex ception
Ġbe ing
Ġg lobal
load er
part s
Number Field
( _
I mplemented
R un
S chemaMigration
ĠS chemaMigration
Ġde st
Ġattribute s
======== ========
. '),
p tr
Ġre f
Ġw arnings
ĠĠĠĠĠĠĠĠĠĠĠĠĠĠĠĠ ĠĠĠĠĠĠĠĠĠĠĠĠĠĠĠĠĠĠĠĠĠĠĠ
Ġg o
Con tent
cre ation
Ġwe b
201 4
R AN
T ree
c ate
f eed
i ed
r bose
comp atible
C ustomer
il der
ma ster
ex c
group ed
In valid
tic al
Ġal ways
entic ate
im g
Log Entry
de cimal
ma tion
Ġs cope
ĠS ho
Ġex c
ĠE mail
Ġan other
DJ ANGO
> .
h n
i an
(' %
name space
default s
Ġh ref
Ġrender ed
PER MISSION
her it
r ange
u til
Ġ" ('
Ġs ince
lay out
FI X
Ġle t
lip board
Ġdiffer ent
I AL
b log
ing er
con ds
Ġwh ile
ab stract
25 6
Add Field
Ġchild ren
g le
r ing
ex ist
sp an
Ch ooser
=' /
Ġno tification
auth enticated
ff le
chang er
C R
a i
c raper
o ver
u dit
ID D
Log in
curren cy
Ġi mple
ma pping
Ġw ho
sp a
pi ed
PRO JECT
nav igation
ĠNot Implemented
ro u
Ġcon straint
Ġdi spatch
Test Model
Ġsub ject
ces sed
A n
S ocial
j av
Ġ View
Ġre cord
ta ct
si ty
Ġd j
Ġuse ful
DU LE
grouped message
f alse
le ct
ch ristmas
EN AB
RE CT
Ġrel ation
local host
cut s
/ ?
h ipping
p ol
y ntax
Ġ ])
te p
Ġre place
bo sity
MO DULE
Ġlink s
TION S
udit LogEntry
de p
() ]
sp ath
ĠS ource
Ġtime stamp
andl ers
Auth entication
Ġgener ate
Book mark
er sion
Ġ' \
co g
ter min
Ġu tils
sub mission
ĠU p
op le
L a
W ARE
g ithub
u uid
na tive
Ġe ntries
valid ate
Ġimage s
static files
C lass
p ly
Ġ ob
ex act
sign up
ESS ION
short cuts
( \
( _("
Ġs pa
Ġb its
Ġsub scri
Ġbut ton
Ġper m
rule s
Ac tivity
s lot
co ok
ĠA dmin
content type
ĠL og
ĠĠĠĠĠĠĠĠĠĠĠĠĠĠĠĠĠĠĠĠĠĠĠĠĠĠĠĠĠĠĠĠ Ġ
Ġsuper user
Ġ3 02
Ġge n
Ġspecifi ed
Ġexist ing
SER VER
7 0
A ss
B AR
C S
h inx
Ġto ol
Re quired
ĠI s
Alter Field
> <
st andard
sp hinx
ĠP ost
stri ction
Ġgroup s
ĠU se
API View
C re
] :
r andom
ĠI D
Ġv oucher
Ġtime delta
ĠUn it
c ard
Ġs orted
Ġo ur
Re gist
ac tivity
content s
Ġac tiv
USER NAME
Ġhead er
Ġag ain
WOR D
D elete
E nc
x e
Ġa p
Ġf alse
for um
AD D
Ġnode s
Ġmo ve
N OT
S tore
Ġp atch
ce nt
Ġe na
Ġcur sor
meta data
detail s
wit ter
gro ss
Ġow ner
ĠNotImplemented Error
' re
) [
T EST
ar n
Ġ" \
Ġb reak
and id
Ġst orage
den tials
Ġsh ort
Ġcopy right
cs rf
i o
Ġ ti
or ph
ro t
count er
table s
Ġmatch es
LO W
FOR M
ĠSe arch
Return s
" '
4 00
S QL
me d
sel e
__ )
con nection
Ġdi ctionary
Ġab out
block s
mpt t
. ",
8 8
Y Y
Ġp lace
Ġn um
UT F
comp at
board ing
iss ue
ali as
std out
a iled
Ġ[ ])
to p
Ġstore d
ote s
ena bled
Ġow n
A ust
D ocument
M T
in sert
Ġp hoto
li cense
Ġuser ena
sg i
Ġgener ated
clo se
) "
A ction
V E
f ollow
te g
ĠA l
ind ow
Ġro ll
P ASS
S ign
el ist
in vite
Ġi m
Ġthe me
del ay
Ġspecifi c
phone book
ĠSo ftware
H ttp
f r
u sed
Ġb el
Ġw ere
time stamp
able d
boo l
dir s
Ġstring s
Render er
> </
django project
oo gle
du m
Ġr andom
ĠTest s
Up date
del ivery
bil ity
v ouch
serializ e
su ffix
Ġtable s
umb s
iss ing
ember s
IDD LE
p ipeline
w ise
Ġ te
se cond
lo cale
ĠS phinx
Co mp
FOR MS
Ġargument s
PRE FIX
IDDLE WARE
I Z
x f
app en
method s
col or
Ġdocument s
-------------------------------- ----------------
el ery
ul ate
as on
EN A
mod ified
session s
attach ments
H TML
a w
re st
', )",
Ġ" /
li te
Ġco uld
Ġab stract
DI RECT
F F
I O
Ġ zip
'), )
wor ld
out box
ĠE n
ĠG PL
ab spath
Ġmod ify
pagin ation
ĠAttribute Error
= ['
} '.
ex ecute
Ġo pts
__ ,
ra g
form set
mi ss
Ġ1 00
Ġde p
mo zillians
arg v
resol ve
Ġhe ight
node s
Ġauthor ship
Ġpo ss
Ġta x
Ġinter val
dum my
C K
Ġ Message
Ġp anel
ing s
get attr
ta b
Ġs afe
Ġof f
Ġse cond
Ġsign al
G N
e g
Ġr ight
ĠB SD
St orage
E nter
P ath
b stract
o uld
in ja
le ft
es cri
(" /
ĠN ame
LE TE
boo tstrap
Ġbase d
ron g
I M
ig it
path s
Ġwith in
member s
Ġma in
ste p
P hone
m ulti
n s
p ng
el ivery
Ġc ategories
() ):
Ġw ay
as cript
Ġma p
ĠW agtail
ys tem
column s
Ġchar acters
LO G
Ġpo int
ral ia
2 3
2 4
D en
N ew
S H
n ari
s um
Ġ Z
Ġ Char
th umbnail
to m
di gest
ĠP layer
ill ing
spe cifi
Ġsu ch
Ġho w
stin ation
we en
tro l
Ġbo th
p ing
Ġ hook
Ġc lasses
Ġf ree
vi sible
Ġ1 1
ĠW h
ab c
af ter
HO ST
Ġinter face
Ġfixture s
w sgi
Ġre gion
ser vice
oc i
USER ENA
UN IT
ĠAN SI
cep ted
Ġtool bar
. '
Ġre quire
Ġb oo
ĠC md
Ġor g
Ġurl patterns
Ġsign als
ask et
Aust ralia
c m
i mp
p in
q lite
s ld
ge nt
ta tic
Ch ild
he ther
gram ming
AG ES
% (
R I
f time
f ound
Ġp ay
set Up
ad apter
Ġw ould
Ġm er
ĠO n
ĠĠĠĠĠĠĠĠĠĠĠĠĠĠĠĠĠĠĠĠĠĠĠĠĠĠĠĠĠĠĠĠ ĠĠĠĠĠ
ff ect
man ufacturer
Se ssion
CON F
ĠOrder ed
VAL UE
6 1
U M
ge onode
app ing
AT ES
ĠF OR
IL ITY
Ġremove d
Ġcontain ing
ĠOrganization Member
Ġter ms
C UR
F O
l b
z er
Ġo c
Ġreturn ed
Ġ} ))
ĠW AR
Ex tension
Ġrece ived
M on
M enu
e a
che me
Ġse par
ĠRe move
`` .
Ġme dia
Ġvalid ate
UL L
inter val
uplic ate
Ġmon th
Ġsk ip
s witch
se n
ad der
Ġm ultiple
ĠP O
Project Key
ĠM ake
ĠF ilter
Ġg uardian
Ġrender er
Ġinstance s
regist ry
char ge
At tribute
FIL ES
escri ption
e cret
k o
Ġp op
Ġs ide
Ġs imple
ĠC ustom
tra ck
Ġpri ority
CO DE
ool bar
curren ce
panel s
N or
\ .
` ,
o ta
s la
ex pected
key words
Ġm ode
ĠS tring
ER S
so me
call y
host name
Ġshow n
Ġvi a
LANGU AGE
Ad apter
interface s
, )
g h
Ġ Ċ
Ġp attern
ex it
ĠP hoto
Ġwh at
ĠR es
run ner
ĠRequest Factory
N ull
i er
vi tation
") .
Pro gramming
ĠO ptions
manager s
Ġinst all
activ ation
Code Field
B u
h idden
m u
Ġ' ?
Ġc ss
ra ph
XX X
('/ ')
dis count
Ġqu antity
ĠAN Y
land s
boarding Task
A M
A pi
i cal
in clude
an a
al t
00 01
ĠA ll
us h
ĠC om
ĠD ata
Ġsu ffix
Ġdel ivery
rece iver
Ġsp lit
inger print
' '
E dit
I MA
M apping
g allery
j e
j pg
n one
Ġ X
Ġc lear
ĠP RO
-------- ----
Se en
Ġnumber s
pickle field
helper s
ĠKey Error
Ġimple ment
. '))
B ASE
th is
ct ype
Ġd own
Ġcon vert
uni cip
": "
count by
save d
Ġun its
Ġclean ed
Address Field
UBL IC
ENAB LED
countby minute
D own
P Y
W arning
a jax
on ce
Ġst ack
ON E
eri od
ow ski
comp ress
Ġ'' '
Ġwidget s
off set
Ġsupp orted
esca pe
X T
Y our
li sh
ĠS elect
Ġex ecute
message filtervalue
Ġse nt
Ġurl s
ĠĠĠĠĠĠĠĠĠĠĠĠĠĠĠĠĠĠĠĠĠĠĠĠĠĠĠĠĠĠĠĠ ĠĠĠĠ
tag git
base s
cre te
read cr
CH E
ED IT
ym orph
Ġbet ween
ymorph ic
8 2
= _(
f etch
s chedule
st ar
Ġ" {
Ġc s
Ch ange
Ġm any
index es
Ġsub mit
full y
pagin ator
matic ally
miss ing
Ġ lines
Ġs ingle
'] [
Ġst ill
Ġco pied
Ġy ear
Ġv folder
av or
Ġsub mission
ĠCMS Plugin
ĠTrans lation
I E
M IDDLEWARE
ut put
ĠP laceholder
ĠE vennia
ME TA
edit or
the me
g res
r u
ro ss
Ġp ick
si s
project options
po s
OR Y
instance s
Ġal ong
AB ILITY
Ġneed s
Gen eric
/ "
f mt
h andlers
t oday
Ġin di
Ġin line
oun ce
ĠS ign
vel op
Ġca ched
Ġsub scription
"] .
Ġdisplay ed
viron ment
Ġ20 12
U ID
c ated
p ass
al ter
Ġre quires
ang ing
Ġf loat
ĠS E
Project Option
pre view
ĠTest Form
IT HO
render er
cor ds
UL AR
Ġevent s
Hel per
specifi c
ITHO UT
( ['
b lob
to pic
Ġb ar
__ .__
ĠS T
log out
Group Meta
mo ving
IC ATION
ĠUser Profile
Ser ver
stin ct
Ġbuil tin
N ESS
P ES
i re
p lain
w t
Ġ ele
def in
en o
Ġw hether
Ġe tc
ol lection
ĠL a
Ġg ame
trans late
Ġen um
Ġper ms
frame s
Ġallow s
ancest ors
spa tial
5 2
= ""
B O
c ti
e ver
te x
Ġc at
Ġp lan
si ve
der s
end point
oc ation
Ġde cor
Ġuse s
12 7
ph a
AB LE
cc cc
onymous User
Ġresol ve
Enc oder
Den ied
b it
b roadcast
s age
Ġre set
ho p
ĠT ext
project key
ĠA d
Ġpro p
Ġcur ren
ĠCo mp
package s
u a
(' -
"} )
Ġ2 010
ĠPro perty
Ġprovi ded
OP TIONS
ART IC
sole te
S a
b ute
j ob
ue ue
AT ED
Ġkey words
ĠW S
with out
Ġen gine
OT LE
Ġho pe
Ca che
Password Hash
Null BooleanField
avor ite
I den
t d
t uple
in active
Ġs tep
test utils
lin eno
ten ded
Ġact ual
Ġprovi de
Ġposs ible
g ument
p attern
or d
Ġto pic
group meta
type class
ĠĠĠĠĠĠĠĠĠĠĠĠĠĠĠĠĠĠĠĠĠĠĠĠĠĠĠĠĠĠĠĠ ĠĠĠĠĠĠ
team s
ĠGen eric
ĠCommand Error
ĠWAR RAN
ĠWS GI
S imple
T icket
b ound
n ses
o id
', ),
Ġ" _
') ]
ĠT itle
ca lendar
ist ri
com mit
ĠL ayer
ĠĠĠĠĠĠĠĠĠĠĠĠĠĠĠĠĠĠĠĠĠĠĠĠĠĠĠĠĠĠĠĠ ĠĠĠĠĠĠĠĠĠ
PO SE
DIR S
Ġcal lable
COMP RESS
Ġenum erate
D o
G u
I ENT
Ġi ssue
ig no
up pe
Ġo auth
ol ved
filter ed
Ġlo cale
Ġtype s
St ate
notification s
Min ute
I K
s uggestion
Ġ Tr
co ded
Ġm ost
group bookmark
Ġadd resses
ĠR elease
At tachment
Alert Related
lice nses
velop ment
AlertRelated Group
I RE
h andle
m ys
an age
Ġw a
pro tocol
Ġt p
template tags
Group Bookmark
Ġso ftware
CH AN
Set tings
DAT AB
Ġexp licit
CLASS ES
snippe ts
: ]
L oad
O ptions
\ "
a gs
ta ck
", "
Ġu uid
ĠM ER
100 0
Ġchar ge
Ġindex es
By Minute
Count ByMinute
gent ina
unicip ality
5 4
> ')
Ġ js
Ġs mart
no te
ĠP UR
ĠP ARTIC
Ġex ec
Ġname space
IT NESS
CH ANT
List View
exist ing
yntax Error
ĠMER CHANT
ĠPUR POSE
ĠPARTIC ULAR
ĠMERCHANT ABILITY
O B
i ca
o pts
v ate
Ġcon fir
ave d
ĠF ITNESS
Ġ` .
Ġpre serve
IP AddressField
Sub scription
gener ator
ĠTh ey
0 4
A nt
N ULL
P ort
S u
T itle
g nu
Ġ' __
Ġin herit
si tive
publi cation
link ed
AC E
Ġ< =
Ġen sure
Ġchange s
Ġfolder s
Ġimp lied
F L
I F
ar ran
Ġs chema
di ces
'] )),
is null
Ġm y
project option
ĠN OT
ee ded
Ġtype class
Set Equal
Object Permission
Ġro le
Required Mixin
V AR
v atar
al a
at t
Ġre cipient
ob ar
Ġd igits
ee k
Member ship
iden tity
Ġcollection s
Iden tity
' "
s ing
re q
Ġ" .
ex ternal
app hook
ĠRe gist
ĠW ITHOUT
ĠR ender
ĠIn dex
Ġlanguage s
ends with
pay load
Ar gentina
script s
STAT US
]+) /
```` ````
rap ped
Ġcurren cy
ĠWARRAN TY
f e
m ory
nt ly
Ġp ur
Ġm issing
Ġex t
ER Y
ĠF ree
Ġma pping
AL LOW
Ġli ve
FI G
resource base
Ġinst alled
Ġlock s
F oo
G R
P al
V ersion
b atch
ur s
ur ing
qu ote
der r
Ġm d
iz ard
Re gex
ifi ers
comp ressor
can cel
Ex ample
Ġcre ation
Ġmatch ing
+) /
sce nari
lb forum
7 7
A V
C lient
L ib
S ITE
S yntaxError
U tils
c la
s rc
Ġ RE
Ġ" ",
pro xy
Re port
Positive SmallIntegerField
cur ity
stri bute
Ġwor ks
Ġextra ct
TEMPL ATES
xxxx xxxx
lar ge
/ >.
A E
H e
P re
l t
v folder
ar Down
odel ist
Ġre al
ul k
lo st
Ġw arran
Ġtest ing
EN GIN
ne ed
Ġiden tifier
Result SetEqual
Web hook
Ġredi stribute
Ġwarran ty
ENGIN E
D ES
P laceholder
T e
U C
n ormal
al k
ch a
time delta
assert ResultSetEqual
Ġst ats
ĠC art
Ġurl parse
AR CH
av ing
'^ (?
ref er
im um
Ġpart s
Ġover write
>[ ^
ĠGeo spatial
' d
l er
Ġ' ,
Ġs um
Ġb asic
oo ki
Ġex port
Ġ2 01
Ġl ong
clu sion
RO M
bu ilder
Cmd Set
Ġcal cul
REQU EST
ĠOrdered Dict
. %
I ES
b its
i ti
de scend
Ġ" ")
si x
quest ion
=" /
list ing
ĠR un
Filter Value
END ING
assertIs Instance
Ġparame ter
. *
6 2
b box
u z
Ġ 404
Ġ VERSION
re cipient
Ġs witch
Ġst andard
Ġcon tains
ĠC ON
Ġac cept
Ġfilter ed
Ġchar acter
Ġauto matically
TE XT
dj stripe
'),) "},
5 00
C AN
P o
c rop
re quires
filter key
rect ory
ff ected
Ġlog ged
Valid ator
ĠAn onymousUser
DAT A
ĠDE FAULT
On boardingTask
0 3
5 9
A A
R EN
h ex
r sion
s olved
Ġ" <
Field s
auth ors
ost PasswordHash
own ed
TR AN
activ ate
istri ct
8 00
L IN
S ESSION
g able
o od
v o
Ġre ason
ce back
Ġs ync
di stinct
ut od
Pro cess
Ġass ign
ĠB y
Ġv ari
Ġcheck er
snippe t
Property Value
dep th
ĠIs lands
7 9
> =
A uditLogEntry
H idden
i k
Ġ )))
el se
ar cti
') ))
qual ity
Ġcon f
us ing
User Option
add resses
ĠM y
ĠL ink
cal cul
register ed
cor rect
cri spy
DI S
Ġrun ner
Ġcri spy
Ġinclu ded
= ["
E n
G MT
c tive
g ate
u x
an k
Ġ[ {
ĠT o
LE CT
Auth Provider
ĠDe cimal
Ġj ob
At lan
nippe t
ba z
C art
P a
S cript
m ore
w arn
ur len
Ġp ipeline
user option
lu sh
test app
=' ',
ist ory
Ġset attr
ĠB asic
solu tion
fo obar
curren ces
gener ate
Ġcorrect ly
Ġali as
ĠSho uld
arcti ca
W E
d ynamic
f ill
l ight
Ġre q
ho w
Ġh appen
Ġde bug
ĠĠĠĠĠĠĠĠĠĠĠĠĠĠĠĠĠĠĠĠĠĠĠĠĠĠĠĠĠĠĠĠ ĠĠĠĠĠĠĠĠĠĠĠ
Ġcall back
IS H
ĠSe ssion
Ant arctica
E tc
O UT
e k
n or
} ),
an si
lo pp
Ġw rite
Ġex act
ĠC lient
valid ators
Ġse conds
tag key
format s
IC E
ched ul
ifi er
Al low
Ġsort ing
ĠType Error
Ġap pro
rot tle
pin ax
aved Search
B roadcast
U r
Ġc elery
Ġo p
pt cha
ĠTest Serializer
cur sor
Ġpre sent
Ġversion s
mod er
('/ ',
Ġrepresent ation
Atlan tic
. "),
I ANT
s ql
re cord
on ical
ĠN ow
Ġcheck out
PO OTLE
Ġauth enticate
agin ator
CL IENT
Ġstri p
ĠPermission Denied
FIL TER
icon tains
readcr umbs
7 3
P layer
g rant
k er
v or
Ġ Valid
Ġ QuerySet
re que
en ces
__ .
con struct
Ġ""" )
Ġd one
Ġ1 6
Ġde termin
ST ORE
ne ss
Ġ4 00
KE T
variant s
123456 78
ĠUp date
Load er
/ _
6 6
C ard
L EN
st ock
ti m
al lauth
(' .
Ġ" ,
Ġc ooki
up loaded
test server
Me dia
sh a
ĠI P
cre dentials
Ġcontent s
={ "
ĠGroup Factory
Ġfin al
ĠObject DoesNotExist
MB ER
Ġigno red
jav ascript
S ource
m ultiple
ro ll
Ġd raft
Ġy et
clu ded
IT H
AS ES
CO MM
ref resh
process or
Ġcol or
SI Z
Ġregist ration
Ġmeta data
Ġextension s
ĠRes ource
F in
F rame
L ostPasswordHash
P ending
P ENDING
S S
q a
y es
(' ',
Ġi p
Ġc andid
Ġf n
Ġf allback
ter m
vi ces
Ġform set
Ġass oci
Ġme ans
ne cted
ĠAr gument
AD MIN
im ilar
]+) /$',
UBL ISH
C allback
b asic
d oes
k nown
v il
Ġc lo
ra ises
Ġd ay
ĠA ss
Ġ1 3
kw arg
Date Field
Ġdirect ly
Ġother wise
Ġman ual
argument s
Ġad ditional
PER TY
Ġact ually
confir mation
ha vi
Par ser
Ġali ases
hipping Method
n db
Ġ tenant
Ġ 403
re cog
de e
ro und
Ġp ut
Ġf eed
Ġth read
qu eries
ubli sh
Ġon ce
Ġapp end
200 8
password hash
account s
11 11
Ġrun ning
201 3
ĠAuth or
lost passwordhash
S tring
re en
te cted
st ants
Ġc rop
ou gh
Ġno qa
Ġe di
Ġn eeded
Model Serializer
ĠF I
cri teria
Ġcom ments
Ġser vice
wa ffle
scope s
La zy
ĠPO ST
IMA GE
Ġvari ous
D S
M a
g ame
h s
s qlite
re der
Ġ{ {
Ġs core
is instance
email s
Text Plugin
post gres
Se quence
alert s
Ġmember ship
Pri ce
Ġdecor ator
IK I
3 8
F R
I VER
M o
P UT
P UBLIC
c lipboard
g u
i co
v a
er tion
st op
at o
Ġname d
lock ed
Ġstr uct
AL L
ĠU sage
sho uld
Ġtrans late
present ation
membership s
indow s
ĠEn sure
AE AE
7 6
D AY
I B
de st
si m
di o
time s
Ġpro tocol
mi x
cal lable
URL CONF
Page Permission
Ġauth entication
Ġdirect ories
be fore
Ġav atar
Ġav oid
module s
Ġsome thing
rece ived
expi red
ea ea
igno re
j wt
(' ^
ss id
Ġf oo
ri t
no tify
Ġb ool
Ġto o
ĠS k
ĠS tore
Ġse ction
Ġ3 0
." ))
Ġregister ed
expi res
CHAN GE
# :
G TH
H elp
I nter
L e
M ENT
S p
s up
w eek
re al
Ġ[ (
ter ion
Ġm ixin
oo se
Ġst ar
log ue
ĠD elete
Ġurl lib
cre ment
man ual
back s
AC COUNT
To pic
"] :
ir d
ir th
CMS Plugin
wh en
Ġrece iver
ĠDi splay
inst alled
On ly
Ġroll up
ĠOn ly
LEN GTH
2 9
O utput
] {
d cra
g ments
u d
Ġ Y
la g
ou ble
up per
Ġt mp
Ġco ver
trans action
ĠAdd ress
HO L
Ġta kes
ĠProduct PropertyValue
[: -
Ġgen eric
Hidden Input
dcra mer
. ']
B lob
r id
s desc
Ġ hooks
re m
pe ar
pe ople
__ ))
ĠA bstract
ĠP assword
ĠP erson
ĠC an
Group TagKey
Test Utils
ĠRe vision
ĠRe moving
ĠN O
dir ty
wh ere
Ġtuple s
wa it
ĠAc tivity
pol ymorphic
0 5
S an
i exact
st s
ti ties
ob solete
ĠS ocial
Ġass igned
ĠO R
hol d
load ers
Ġkey word
char acter
CON T
decor ator
gre en
Ġchecks um
sim ilar
a vi
g t
g ular
th read
Ġp hone
ig ger
Ġ( %
ra m
Ġd ummy
Ġst op
Ġver bosity
Ġ{} ,
Ġg ive
Ġsta ff
Ġgener ator
ĠBase Command
side bar
Ġte arDown
elivery Time
ier arch
Api Key
ĠIndex Error
urlen code
IVER Y
) '
D ATE
F reder
J o
c lick
f d
p v
re ply
ri ver
Ġs uggestion
ver ified
Ġe mote
ĠD istrict
ĠĠĠĠĠĠĠĠĠĠĠĠĠĠĠĠĠĠĠĠĠĠĠĠĠĠĠĠĠĠĠĠ ĠĠĠĠĠĠĠĠ
ME T
Ġwor ds
auto complete
TY PES
dition s
Ġpagin ate
Uni que
grouptag key
Ġmanage ment
Indian a
CHE CK
8 4
L ayer
g is
r ad
Ġ </
re a
(' --
ta ched
ch ooser
Ġs y
Ġin teger
ra ps
bo ve
ace book
Base Command
IP E
Ġload er
Ġqu eries
ati bility
origin s
issue s
ĠWagtail TestUtils
TRAN SL
lopp y
8 6
U ES
a ma
r ans
Ã ¤
Ġ ()
re view
ad vert
un published
Ġd ays
ĠA ccess
obj s
Text Input
tag value
ĠR el
ick i
manage d
ron tend
face book
input s
Status Check
CE P
ber g
uplic ates
rou sel
* )
+ ',
C EL
M D
O per
a a
b asket
t z
z a
de stination
le ts
sp ect
Ġ} ),
ĠC ountry
str ftime
Ġit self
pre cated
Ġapp hook
AC CESS
Ġca lendar
Event Mapping
99 9
Ġtra ck
collection s
role s
lect or
6 00
C AP
E le
M AP
T Z
b idden
h ide
} '
Ġ length
re trieve
Ġc ity
Tr ack
Ġa ble
Ġin ternal
Ġno thing
ĠT ree
ĠA L
Pro xy
app le
event mapping
jo e
jo hn
ĠW eb
De vice
'^ $',
Ġcurrent ly
nc y
resol ved
ĠV oucher
Search Document
Ġprocess ors
" ')
F S
L anguage
P K
S h
i ks
p ur
t mp
u ff
} ))
Ġ ------------------------------------------------
at ured
Ġre gex
Ġf eature
la ck
di ffer
sp lugin
Ġm unicipality
rel ative
Ġe nter
Ġt ri
RE AD
Ġ[' _
pre cation
fo od
Ġen v
Ser vice
Ġsh util
assertNot Equal
Ġinclu ding
Ġrefer ence
AND L
Ġigno re
Sign up
IRE D
ierarch y
2 1
L ocation
M atch
W T
re cted
si le
per son
ĠP ri
=" %
ĠD o
sc ra
site map
par ame
check out
AC TI
Ġge o
File Field
dis abled
MP TY
Log ger
Ġauthor ization
ĠTemplate View
fin ders
Ġser ve
DU CT
OL BAR
assertNot In
Ġena bled
IZ ATION
, ))
/ #
G et
P AR
P hoto
S ome
d f
d one
d igit
g oogle
t witter
ul ated
lo y
Ġm ight
Ġh and
group email
Re move
Ġex it
ĠM on
ĠG ET
ci fy
Ġset s
base name
UT O
Ġvalid ation
Ġk now
document s
EX T
Ġparame ters
ĠLog in
VAR IANT
- \
W rapper
s Endpoint
se par
ch o
di ff
ad a
is cover
Ġis n
ĠP ayment
xi ce
User Profile
pi cs
ci i
ĠThe se
Ġapp en
Ġapp ly
version TestModel
Ġmod ified
Ġ%} {%
34 56
LO GIN
ja xice
ali ases
fail ure
TO OLBAR
Cre ated
sele ss
ĠWh en
B ar
G A
L i
M od
W IKI
Y MO
\ '
g or
i rst
re spon
or ld
Ġp eriod
Ġf etch
Ġth ose
lo c
') [
ver bosity
pa id
ĠP lan
du ce
ON YMO
add ing
Ġde scend
Ġat tachment
vel oper
Ġcre ating
ĠIn line
Ġper form
penden cy
submit ter
ĠSub mission
Ass ignee
Regist ration
FORM AT
ONYMO US
S craper
U UID
W agtail
c ing
t orage
Ġ ar
un dle
Char Block
ĠA ction
us able
Ġ1 5
Bounded AutoField
Ġt w
he et
bo t
Ġl on
Vi rtual
CH A
Un less
Ġspe cial
Ġoper ation
ĠUn i
Rel ation
Ġvariant s
Ġcolumn s
LANGU AGES
Ġrelation ship
SIZ E
loppy forms
iks berg
( """
A b
M UD
P R
T CHA
a h
c ure
g i
v ance
z z
Ġ ForeignKey
in teger
se ction
sel ler
la sh
() `
Ġw ell
ass igned
Ġh igh
Ġt s
du ction
Group Seen
ay Pal
ĠM ap
int ro
label s
Ġv ar
AC T
mit ted
Ġ6 0
ĠTh ere
OrganizationMember Team
iden tifier
CM D
REQU IRED
sis tent
chedul er
' {
N I
O G
u na
} ".
Ġf ix
ele ment
Ġbe havi
valid ation
Ġdb ref
parent s
Un it
App lication
ĠCh anging
unk nown
PASS WORD
Pending TeamMember
Ġassoci ated
Freder iksberg
C ur
S A
e ople
p al
s cale
s cheme
Ġ' *
Ġs ample
co ls
'] ))
group seen
Ġcon nect
mi ted
valid ated
ay out
Ġplaceholder s
Ġk ind
Ġaccount s
submit ted
Generic IPAddressField
defin ition
refer ence
H ANDL
S ystem
] ]
} .
re version
in ternal
(' \
Ġ" #
Ġa bove
ri ty
Ġin vite
con vert
con straint
Ġget text
Ġex ceptions
est ring
lock s
Ġraise d
vid ual
stri cted
Ġat tach
Ġtitle s
Ġwhen ever
select or
resource s
Ġact or
teg rity
ĠLa Te
ĠLaTe X
r and
r ating
s af
u ch
Ġ la
th ree
Ġc l
Ġb ound
ĠS tatus
ac cept
osi te
ĠĠĠĠĠĠĠĠĠĠĠĠĠĠĠĠĠĠĠĠĠĠĠĠĠĠĠĠĠĠĠĠ ĠĠĠĠĠĠĠĠĠĠĠĠĠĠĠ
01 61
man ent
Ġslug ify
gra ph
Ġchar set
social registration
Ġle ft
Ġrevision s
Ġmark up
Sub mission
ĠEvent Page
ĉĉ ĉ
pending teammember
ĠField Panel
geo server
ĠSign al
uppe t
Ġstruct ure
P er
e ditable
Ġ XXX
al y
Ġre cords
Field Output
name d
assert FieldOutput
ĠP lease
Ġ"' '",
ĠM ulti
ĠF older
Ġr v
sub page
ren ch
xx x
su ch
Ġone s
201 0
style s
iter items
sele ction
Ġbel ow
mix ins
/ ",
P ayment
P lease
S pe
k it
ge ntry
Ġc ard
ch ive
no o
pro ved
url path
ut c
ĠP ar
Ġpro vid
bu cket
Ġaccess ing
match es
author ization
lat form
Ġtra ceback
VAL UES
Ġactiv ation
Fin der
E MPL
M ESS
P erson
f ocal
n ested
Ġ layers
na p
ou p
il ing
Ġb box
vi de
pa re
as cii
ĠS tatic
Ġst d
Group TagValue
Ġfile names
ĠĠĠĠĠĠĠĠĠĠĠĠĠĠĠĠĠĠĠĠĠĠĠĠĠĠĠĠĠĠĠĠ ĠĠĠĠĠĠĠĠĠĠ
Ġan onymous
AN ONYMOUS
01 7
tern ate
Ġadd ing
Ġauto complete
LO C
Ġle ast
mer ge
TA IL
Rule Status
Ġexpi red
ĠCom ment
DATAB ASES
' ',
0 9
N E
V IS
s w
v ince
w arning
Ġ Book
Ġ escape
in dices
Ġp gettext
Ġs desc
lo gentry
Ġw rong
ĠT icket
Ġex ternal
us d
Ġt oday
ĠD on
IN IT
Ġac tivity
ĠB usiness
ĠPro file
folder s
Ġ'{ %
UG IN
cook ies
Ġena ble
Ġpay load
reque ncy
ato mic
saf estring
nap sho
4 1
4 5
Q A
\ /
b illing
f g
u ted
Ġ z
Ġ ty
re ctive
re presentation
in cr
Ġs chedule
Ġin it
Ġpro ble
type name
Ġor igin
ĠD ummy
Ġse cret
Ġco mb
ĠM P
OR AGE
Ġat temp
ME MBER
Response Mixin
can not
Ġrel oad
St ream
+) /$',
Ġdo main
Ġta b
AUTH OR
Ġdefin ition
Ġcri teria
" %
8 9
a mp
e ded
er ver
de sign
get Logger
ch es
Ġs imp
ad Request
oo t
Ġ1 9
Ġch unk
"> \
ute s
Ġtime out
spe ak
Value s
access group
Ġsu do
Query set
Trans lation
web site
grouptag value
hex digest
3 5
> "
A X
F ound
I d
M ap
e mpt
f ake
f ingerprint
g uardian
u ssion
Ġ FlexibleForeignKey
re fun
se conds
an ti
ti ce
le g
Ġth umbnail
Ġdef ine
ver ify
'), ),
is ted
Re gion
ĠI nter
auth entication
ot al
Ġver ify
IN T
RE DIRECT
Ġpar sed
av a
mark down
Type s
Type Error
Ġany thing
File Blob
Ġpackage s
inst all
sen sitive
L u
M ULT
O r
V ED
W ITH
X P
f n
f allback
g lob
w ay
at ely
Ġre p
Ġin voice
Ġd ue
pa per
ĠS tri
file browser
ele m
log o
sc r
Ġac cessed
ĠGroup Membership
Ex port
Ġsource s
Ġcode s
Ġcom mit
Ġcom mon
zil la
Ġfunction s
QU AL
catalog ue
open id
Related Field
Ġhash lib
subscri ptions
Ġvariable s
zer o
' \
8 5
c l
e qual
f fi
re cur
st derr
al cul
co me
Ġb ot
Ġreturn ing
us age
ime stamp
po se
ĠE MPTY
ifi cation
ĠPage Permission
Ġup loaded
ĠProject Key
Ġtra de
clo sed
ĠZ innia
Ġside bar
gable Manager
dee mer
CAP TCHA
noo ze
0 6
A UTO
M ail
n odelist
Ġ" __
Ġa round
Ġth ings
ve s
Ġb ad
un cate
qu are
sp ider
one nt
ĠP re
Ġex tend
Ġse en
Ġg rant
DE LETE
price s
Ġwor d
target s
Ar chive
CON TEXT
ĠForm Helper
Th read
Method s
Ġfin ally
teg ration
Ġindi vidual
scenari o
' %
L ast
M ulti
O AD
c d
s m
Ġ host
in vitation
Ġb atch
di st
is o
ĠT EMPL
group rule
ĠP UBLISH
data base
ent er
Group RuleStatus
Ġ) ),
ise d
cur s
Ġma ps
Ġli b
Ġformat s
pagin ate
play ers
Ġdis count
fin al
Can not
Can ada
Access Group
star ted
FL AG
grouprule status
& #
) ',
3 1
B R
F ROM
H ER
M C
S UB
a utod
b ind
k lass
re striction
ob ody
Ġm iddleware
Ġno te
oo ls
pri vate
Ġn ested
auth enticate
message countbyminute
ĠRe trieve
Ġch ristmas
ĠE mpty
RE GI
Ġca p
ĠIn valid
Event Page
Ġcode name
Ġspe cify
case s
subscri be
ĠSer ver
Com ment
CR IP
Phone NumberField
cm splugin
cla red
Virtual Folder
INIT IAL
7 2
u nt
u seless
Ġ es
Ġ Error
er ed
er red
il y
con tact
Ġh it
ca ption
tri cs
Ġse quence
Ġass u
ĠL ayout
qui ck
ĠG CM
UR ATION
pre ssion
ĠN umber
Ġma ster
Ġtime s
Ġorder ed
Ġsupp lied
ĠSt ream
crete Model
uz zy
ĠFI X
DAY S
( ',
0 8
I GN
b readcrumbs
c us
e ffect
z es
{ "
Ã Ń
Ġ join
Ġ latest
Ġ" ['
Ġp erson
na ble
Ġf loppyforms
ass ign
Ġ( ('
cess ary
Ġdi ff
ST ORAGE
DE D
AC TION
RO UP
placeholder app
PL UGIN
Ġsh a
pop ulate
dis able
Ġct ype
Ġcase s
Ġdis connect
over write
sum mary
ĠST AT
ĠRegist ration
ALLOW ED
Lazy Encoder
sile ntly
ĠFIX ME
3 7
4 6
M al
P H
d m
f avorite
g ress
s a
u tion
u messages
el lo
te ct
or iz
ar a
ss l
ct ools
ta rea
en ant
Ġb it
ed Response
group hash
as y
Ġget s
ĠA nd
ĠP aginator
ĠD eliveryTime
Ġra ther
Ġapp le
To gether
AS K
PL OAD
ENT S
function al
gener ated
let ter
Ġbuil t
Com mon
Ġredi rected
Bu ilder
>[^ \/
Pa rent
tegrity Error
) '),
B row
C ollection
h eri
l ue
w ard
w rapper
y per
re dis
(' _
Ġre cur
Ġre main
Ġre cog
que sted
"" ")
ĠA uditLogEntry
Ġof fer
ag ram
Group Hash
add r
oc currence
ĠRe direct
`` ,
ST ATE
ĠO ne
Ġdefault dict
ci ties
ĠW indows
Ġvalid ated
andl ing
CO L
Ġstore s
redirect s
pop up
Ġarticle s
Ġscript s
STR ATION
ĠAd ditional
Ġwa ffle
Ġexplicit ly
( ('
8 1
: '
D es
F UN
J WT
] +
b ab
l r
n y
o pt
v ok
w d
Ã ©
(' {%
mp ath
Ġp latform
Ġo ob
group as
ĠS hippingMethod
ac cepted
ca p
ĠM o
ĠB e
mark up
cri tical
api key
Al l
Ġtr igger
ĠURL s
down load
trace back
brow se
Ġsuccess fully
Ġne ver
Login View
cook ie
------------------------------------------------ ------------
IE W
tack trace
UC CESS
ĠNO QA
Ġlon ger
AUTHOR IZATION
groupas ignee
' |
S outh
T OT
b j
i ties
r b
s mar
Ġ 32
or ing
se quence
ti st
Ġi con
Ġre trieve
li ct
no op
Ġm ulti
group assignee
ĠP lugin
Ġbe gin
log ged
AT CH
ĠM atch
Ġg ot
RE F
SE ARCH
Ġrender ing
CO OK
Ġparent s
ak es
fla kes
unit test
Ġinclude s
Ġcomp ress
Ġcomp ressor
App Config
photo s
cover age
Ġdis abled
stack trace
anage d
Ġappro pri
MET HO
design er
# ------------------------------------------------------------
) ])
M ar
O pen
T arget
] ).
d uplicate
o v
r idden
u ses
on tal
ue st
ck i
di tem
Ġd uring
Ġcon trol
data set
Group Assignee
AT AR
ĠO S
ĠO verride
ĠĠĠĠĠĠĠĠĠĠĠĠĠĠĠĠĠĠĠĠĠĠĠĠĠĠĠĠĠĠĠĠ ĠĠĠĠĠĠĠĠĠĠĠĠĠĠĠĠĠĠĠĠĠĠĠĠĠ
ĠĠĠĠĠĠĠĠĠĠĠĠĠĠĠĠĠĠĠĠĠĠĠĠĠĠĠĠĠĠĠĠ ĠĠĠĠĠĠĠĠĠĠĠĠĠ
Ġr ate
ab s
ĠR a
Ġlog out
ĠCon tent
ec ut
20 12
ĠSub scription
assertNot Contains
Ġrule s
STR IPE
Ġref resh
Ġagain st
ĠAl low
Ġregion s
sla ve
ĠString IO
( %
A F
G H
M IT
P ython
Q ueue
S K
S k
Z Z
j ar
n b
u i
u k
Ġ 50
ou ter
Ġs ql
Ġin side
lo re
ck er
ad ing
iz es
Re quire
ĠP y
Ġt b
count ries
ite space
str u
act stream
for med
SE LECT
Ġun til
by tes
AR G
.. /
Di rect
eb ug
Ġ%} '
Ġcom ma
(** {
ash board
photo logue
Ġfail s
ĠGeo Node
subscri ber
Ġhome page
Ġspa ces
need s
Ġdetermin e
Frame work
vance d
HANDL ER
" \
' m
, "
b r
f rontend
h istory
le ave
Ġre d
Ġf ingerprint
ig rate
en gine
') ",
Ġe mbed
sion s
oc currences
sc ussion
Ġdata set
IN FO
ĠĠĠĠĠĠĠĠĠĠĠĠĠĠĠĠĠĠĠĠĠĠĠĠĠĠĠĠĠĠĠĠ ĠĠĠĠĠĠĠĠĠĠĠĠ
ĠTest Model
clu ster
vel y
sign ed
org member
fla vor
ATE G
PRO DUCT
Ġresource s
ĠNote s
ook up
ĠSer vice
Ġhelper s
Ġdoc s
ĠEmail Address
Ġpick le
Ġcandid ates
Ele ment
ĠMP TT
4 8
N S
O AUTH
P ublish
S UCCESS
V IEW
c andid
f low
l ator
m m
Ã ³
se p
Ġp os
no tation
Ġw rapper
ty le
rel ations
Ġn et
sh ire
oc s
mo st
string s
pen dent
spe ction
Ġcall ing
wagtail snippets
11 1
char s
Filter Set
AB EL
Ġupdate s
umb lr
Ġtoken s
Image Field
NU M
cord ing
var s
ĠCh ange
ĠCh annel
Ġvi sible
Ca ched
gre gate
Gen er
Detail View
audit logentry
Post al
================ ================
endpoint s
Lib rary
Jo hn
rans lated
Ġstd out
oriz ontal
3 00
4 9
C Y
C ountry
P ING
r p
} ):
Ġ â
Ġ --------------------------------
Ġ urlencode
Ġ' [
Ġ' ':
Ġc lick
Ġre quested
ch at
__ ),
xt ra
Re set
ĠS cript
Ġst uff
Ġpro xy
ĠC alled
related group
Ġ2 4
Ġproject s
AR D
comp iler
can onical
Di splay
Ġsite s
alert relatedgroup
Ġ'{ {
201 5
MP ORT
author ize
AG TAIL
Ġta ke
Ġoper ator
Ġpagin ation
provid ing
ĠDE BUG
Ġsocial registration
Ġsubscri ber
CONT ENT
similar ity
scra ped
/ ")
A IL
A WS
E V
F ollow
M an
S CO
b an
m time
n ounce
Ġ gs
Ġ question
(' .')
ar am
Ġp pv
() "
vi rtual
=' +',
ub class
page permission
ol l
ĠC ollection
Ġdi gest
str ong
Ġ2 5
ĠRe public
IN TER
ĠG allery
ateg y
eam s
move s
Page Chooser
revision s
Ġen vironment
=[ (
Ġid s
Up load
ĠIn tegrityError
Ġpost al
Ġcmdset s
Ġcount er
ĠQ ueue
iter ator
ĠDi rectory
Par ame
STATIC FILES
Ġimplement ation
tex info
suggestion s
Ġrecipient s
FIG URATION
AV ATAR
B U
B o
F eed
G B
P ACK
R oot
S HO
T ab
W N
Z ip
g lish
l ong
} "
} ',
ro ken
db ref
Ġs cheme
Ġs imilar
li text
si b
di ence
un ks
Ġm ime
Ġ1 4
Ġform field
Ġdi st
Ġde stination
um an
Form Field
Ġch ang
AN S
Ġma kes
sy co
Ġpre view
CH AR
store d
Auth or
PL ACE
Admin Form
wagtail search
Ġrel ations
St andard
Ġspe c
Ġmodule s
Template SyntaxError
Ġsession s
Ġqu otes
Ġconnection s
Ġexpi res
ancest or
Ġoff set
Port let
ertion Error
CEL ERY
precation Warning
B ra
L o
L ABEL
S tr
b ob
c ator
j ected
t ar
Ġ XXXX
re ction
ss o
to type
Ġf e
Ġf oreign
ser ved
Ġ( (
assert HTML
ĠT able
Ġd rop
Ġ1 000
(" -
ca rousel
ag raph
ĠD J
Ġde sc
Ġde precated
if est
pre p
cur ator
Ġcall s
Ġfun ctools
ĠIn st
ec tive
Ġunit test
Select Multiple
ng lish
Ġregist ry
ĠAN D
go ti
chang elist
ĠMock edResponse
schema s
Ġter m
Ġne cessary
ĠDocument ation
}} ',
Tree Equal
Ġactiv ate
Nor th
ĠData base
Ur l
TOT AL
syco pg
assertHTML Equal
2 6
S um
S avedSearch
c er
f b
f eature
p uppet
Ġ navigation
re mote
to pics
Ġp ending
Ġf il
Ġf uture
Ġin ser
pe dia
qu ota
assert TreeEqual
ĠS ystem
Ġst at
ĠC ur
ĠN ode
cur ators
ĠUser ena
render ed
store s
OT E
head ing
ym ce
Ġman ufacturer
Ġro om
Co uld
Tests Mixin
UG G
Ġinvalid ate
Ġcustom ers
Ġmember s
>> >
Ġcor respon
For bidden
Ġevery thing
ĠSimple Page
Run ner
ĠUp load
' <
* .
2 8
4 7
A bstract
R ange
S tatic
T oolbar
d uplicates
f loat
i i
j inja
v otes
Ã ¦
Ġ na
en k
Ġo g
ver ted
-- -
one off
iz ai
request s
Ġ1 44
BoundedBig IntegerField
"> </
ĠF lag
ĠĠĠĠĠĠĠĠĠĠĠĠĠĠĠĠĠĠĠĠĠĠĠĠĠĠĠĠĠĠĠĠ ĠĠĠĠĠĠĠĠĠĠĠĠĠĠ
stri ct
Ġadd s
av ailable
Ġcheck ing
Ġcheck ed
Ġsub class
({ "
Ġcre dentials
Ġback ground
mme di
home page
wiki pedia
pack ing
PRO PERTY
API TestCase
Ġstatic files
nce d
go od
Article Revision
ish ed
BACKEND S
PERMISSION S
Ġim g
ĠRun time
moder ation
heri ted
B log
P ack
e vennia
g ive
p adding
Ġ 00
in i
al pha
ch ain
li ke
') ()),
Ġw rapped
#### ##
ĠS pe
Ġst ock
ĠC ount
Ġt z
log ging
tic ular
ĠD B
Ġurl path
EN SION
ĠM enu
Ġcan cel
cs w
Ġsign up
Ġcustom ize
Ġdistri ct
Ġteam s
Ġdis able
Ġrow s
fixture s
Social Account
ping back
mys ql
nor mpath
CEP T
ĠAL L
LOC ATION
Ġappropri ate
C C
P ublic
S y
d river
i pt
r in
t w
u mp
y our
Ġ Qu
el ls
re aded
or ary
de pendency
ect or
Ġs craper
ed In
is c
Re versionTestModel
00 02
ĠS QL
Ġcon n
am ble
Ġde pending
Ġco mple
act ors
ĠO ther
ĠL ib
Ġac cepted
Ġstr ftime
ION S
post al
ab out
Ġint ro
ternal Account
Ġmark down
Ġlocation s
Comp ressor
Ġmer ge
avi con
Ġgeo server
Ġprovid ers
REGI STRATION
ecut ter
) ")
. \
/ {}
I mproperlyConfigured
R o
S ize
W h
a ster
f requency
i j
s ame
u ss
de mo
ct x
Ġre mote
Ġf ailed
get ype
ch ing
Ġs ane
sp litext
pa ger
per cent
app ly
Ġde velopment
View Set
Ġac cording
Ġma de
200 0
Ġpar ticular
pen ded
Ġlo op
article s
ĠR ule
eck i
Auth Identity
Permission s
ĠJ son
ĠTag Key
live mode
tro ls
Data base
WS GI
TEST S
Ġboo lean
Ġcs w
')] )),
Ġhand led
napsho t
ĠTEMPL ATE
Ġlib rary
ATEG ORY
I mport
M AN
P RI
U PLOAD
b ulk
c lar
f lush
k ing
k ind
t als
w alk
Ġ native
el net
an i
ar ge
Ġre view
ur ther
ch oose
Ġin dent
Ġimport lib
lo ok
un vouched
con stants
vi a
ĠS ome
Ġcon nected
Ġ_ ,
Ġal t
Ġr f
port let
Check box
wagtail docs
ann ounce
LO AD
ĠV ersion
99 99
Ġprocess or
]+) /(?
dj celery
Ġiter tools
Access Request
assertIs None
relation ship
ĠIN STALLED
bad ge
Ġedi ted
NI A
Ġbot tom
enk ins
' ll
8 3
H I
L Y
b ed
g cm
h ref
k izai
r pt
w arnings
se e
se cure
le s
ge ditem
Ġre pr
ur lo
Ġp layers
Ġf p
Ġs lash
co ped
pp aram
Ġd id
Ġd igit
ĠS ync
Ġst ream
Ġ1 8
auth provider
com ing
pi es
AT OR
ĠE mbed
ĠG lobal
AR Y
av y
boo lean
Not Found
AUTH ENT
Ġend point
queue s
toolbar s
web master
VAL ID
Ġfla gs
iden tification
Ġ12 3456
Ġlook ing
submission s
Ġconfir m
descend ants
ĠCON FIGURATION
Po licy
Ġstar ting
ACTI V
urlo pen
) }
b irth
h ierarchy
s orted
w rong
Å Ĥ
Å Ħ
Ġ CharField
er o
Ġf ocal
ex ec
Ġw on
pa city
Ġpro perly
ĠD EL
ĠF irst
sk u
Ġg ra
ĠH elp
direct ories
tag ged
200 1
AC CEPT
mod ifiers
Set ting
Ġus age
List Filter
>[ -\
Ġsetup tools
plan s
Ġiter able
Ġti m
Ġdep th
Ġboo tstrap
Ġdown load
LIN E
HOL DER
= \"
B utton
n obody
s rf
w izard
Ġ uni
Ġ VirtualFolder
il ite
un ction
00 1
Ġe qual
)) .
ol lar
Ġt re
auth identity
eri cs
qui et
ĠF IL
UR CE
if t
01 44
Ġun less
DE LE
Ġv ouch
AR K
Ġshould n
change s
token s
hash es
be ta
Ġx ml
Ġvi rtual
ran ted
RES OL
LI ST
archive s
Multiple ChoiceField
Ġbet ter
Ġlet ter
YY YY
Ġtheme s
ĠChar ge
Ġoc currence
saved search
parame ters
PLACE HOLDER
) ;
6 5
: ])
B usiness
C ri
D D
D P
E QUAL
I MPORT
L A
M ux
R UN
R EST
S nippet
T ex
T ags
V I
b ur
o lu
p ush
r s
Ġ lazy
Ġ' '.
re cover
an other
de vice
me m
ct ree
Ġre ST
Ġp ush
Ġp eople
Ġin lines
lo op
'] ]
pp age
Ġd eletion
ĠC re
po ch
ag o
Ġresponse s
Ġde scri
ff ective
01 42
Ġlog ic
Ġmod er
hel ppage
map s
Ġconfig ured
ste ner
Search Test
func name
return s
gre ssion
SO C
** **
channel s
exp lore
ĠTranslation Project
Ġwa it
Help Page
Sp ider
bab ly
nb sp
BU IL
" ^
) (
6 7
: -
= <
D escription
M OTE
O c
P h
S entry
V O
b al
h r
p orted
Ġ mptt
Ġc are
Ġre striction
Ġp l
ce ed
il ls
Ch annel
ra ise
Ġh andling
Ġd ot
Ġd uplicate
ĠS ave
######## ##
ĠD AT
ay a
mo zilla
ĠO ption
ĠF ake
01 60
sy nced
UT C
tra de
sign ature
Ġemail s
Ex pected
mal ink
men us
Ġauto generated
Message Index
dis connect
host s
cope s
release file
location s
Node Field
Ġsend ing
Ġpack et
wh ich
EX P
cep ting
skip Unless
ĠCa lendar
Ġscope s
tim eline
ĠPayment Method
# '
: "
B E
B RO
E K
M I
Z ONE
e mp
f lat
g te
l on
p x
s an
x p
re solution
tion al
ur able
ser tion
si red
di um
form field
Ġcon struct
code s
Ġu id
ER ER
message index
EN ER
ĠL e
ĠF R
ĠF ind
ff ff
update s
AN CE
Ġsub process
Ġauth enticated
Se ction
ts db
Res olu
Ġro u
Ġ'/ '
ĠK W
state ment
ĠTemplate SyntaxError
Revision Plugin
Ġhandle s
part ment
Authentication Middleware
UM ER
CUR REN
Ġconfir mation
Ġpur ge
Ġ[{ '
Ġcooki e
pur ge
sib ling
$ '
9 2
E P
O C
P et
T S
U se
U MB
d uration
f il
y y
Ġ lower
Ġ layout
ti d
at ri
Ġp h
ey k
ma c
li es
Ġb ug
') ]),
ver age
con trol
ĠT EST
ut ing
Ġst ates
ĠP ayPal
ĠI SO
Test View
ĠM an
Ġan si
base d
pre fetch
ĠN ew
render ers
Ġvalid ators
Ġhelp desk
ĠHttpResponse Forbidden
UN D
Ġ'% (
HO UR
Message CountByMinute
CON FIG
QU E
ĠTemplate Response
HE AD
ĠCh oice
>[ \
ĠDefault s
ha red
Ġlookup s
sample app
Ġgo od
Ġlet ters
Ġphoto s
DIRECT ORY
Ġcs rf
Ġbuiltin s
cccc cccc
att name
xxxxxxxx xxxx
Ġbehavi or
Ġsimp ly
Postal CodeField
8 7
; </
C LO
H ub
P AY
S ING
W AGTAIL
g b
m uni
p ad
Ġ JS
el low
Ġ' +
in clusion
Ġi mplemented
Ġre spon
Ġre version
Ġp c
ig her
() '
() ).
ex pr
Ġto gether
vi ter
Ġh aving
ĠA s
ĠP ort
mb o
(" \
ca ptcha
Ġn ick
Ġse ssid
Ġde al
Project CountByMinute
Ġl id
ST oolbar
ĠE dit
Ġg lob
tag geditem
ĠB u
Ġlo rem
Ġmax imum
mod erate
Check er
msg id
Tag ged
")) )
SI GN
ĠAt tachment
Ġchannel s
0000 00
struct ure
Ġimp orted
Ġspa ce
He ad
Ġts db
ĠDEL IVERY
! ")
' {{
> ",
G re
G ES
M ark
X ML
a z
d ot
j ok
s ider
t or
w er
w as
Ġ 40
an on
st at
de pendent
Ġf urther
il low
un til
ĠS h
ĠA C
Ġpro per
Ġuser profile
tri al
Ġ- =
IN S
ĠG iven
Ġg allery
ĠH ow
Ġapp lied
Ġwe ek
Ġpri ces
"] ["
Ġauth ors
Ġbase string
access ing
gra de
ĠDe precationWarning
Ġpo se
report s
Th ere
ĠSet tings
MM Y
Ġwho le
Ġsubscri be
Regist ered
Ġap pear
Http Request
="" ,
COMM ENT
postgres ql
Track ed
Ġcl one
ĠGCM Device
Ġchang elist
Ġinser ted
RESOL VED
Tex tarea
6 3
? )
C alcul
E mbed
F ood
I ST
N Z
O DE
W e
_ ,
c u
e very
u dience
Ã ¶
Ġ turn
de m
th ird
Ġre pe
ser vices
Ġs qs
Ġs cale
Ġs phinx
ex empt
') ])
ation al
un der
project countbyminute
Ġ- >
Group ed
Ġver y
ay stack
Ġfield name
Project Member
Ġg re
admin s
sub dir
source s
Ġpre v
av ascript
Ġca use
Ġpri vacy
ap on
(? :
Ġinter active
TYPE CLASS
region s
ord in
Allow ed
Ġclo se
intro spection
ĠRuntime Error
Oc curs
! ",
/ .
D T
G ROUP
S ync
T AG
a ware
b usiness
o ted
x ed
in o
Ġi ss
at ory
Ġre solution
Ġp lain
li as
li stener
lu gs
__ ()
vi si
Ġh igher
it al
Re verse
ĠS witch
Ġme n
par ty
pre v
Ġat tached
ĠU SE
ĠU sed
PL ICATION
men sions
agin ation
ep copy
stin ction
ĠAn y
position s
clo sure
Release File
ĠApp lication
over all
UNIT S
Ġpop ulate
WE B
Callback View
AEAE AEAE
TRANSL ATED
separ ated
veloper s
ĠStri pe
autod iscover
COOK IE
ACTIV ATION
jok i
/ {
A ng
B L
B el
N AM
U ZZ
W AR
f resh
j ane
u de
Ġ Query
Ġ uri
Ġ quality
re size
re try
in y
in ary
Ġ" -
Ġc ore
Ġth ree
ou d
Ġs m
Ġs lot
Ġin herited
no tes
ĠT RAN
es cal
ĠA pi
ĠC O
ĠRe port
sk a
Ġtry ing
Ġpar ty
Ġen tities
AS KET
Object s
Permission Policy
access or
del iver
run time
Ġtr uncate
ĠV ariable
config s
Ġad apter
Ġover ridden
Ġrece ive
Ġport let
Ġbo x
~~~~~~~~~~~~~~~~ ~~~~~~~~
esca ped
Chooser Panel
Cre ation
Comp iler
12345678 90
recog n
rit ten
speak ers
Ġassu me
yper linked
ĠMatch Type
ÅĦ ski
. )
1 50
B adRequest
D is
G NU
M anage
R ST
S ample
S UMER
V ariant
[ \
d ashboard
f ailed
g mail
i ma
r m
r split
u als
z on
re t
re et
in es
st y
al lation
od ified
Ġre g
Ġre ally
__ ":
fi sh
Ġh idden
Ġd a
pa ir
Ġpro duction
ent ral
pt ure
ip chat
Ġdi rective
Ġl arge
ST ART
ĠĠĠĠĠĠĠĠĠĠĠĠĠĠĠĠĠĠĠĠĠĠĠĠĠĠĠĠĠĠĠĠ ĠĠĠĠĠĠĠĠĠĠĠĠĠĠĠĠ
ci a
Ġlist s
check box
URL Path
order able
Ġpar tial
Ġlo aded
Ġpre vent
Ġvalid ates
search document
PL AY
Ġfunction ality
match ing
CON SUMER
Search Token
CMS TestCase
rece ipt
Ġlook s
OL DER
ĠDocument s
Ġsupport s
ĠNOT E
Ġcalcul ate
eaea eaea
Ġfoo ter
ĠDJ ANGO
bal ance
UZZ Y
, <
5 1
7 4
9 6
B ody
P as
S P
S ave
S end
S hipping
c z
h ave
o main
t ty
u u
w rapped
Ġ hol
re cords
or k
se ssid
ro y
ri ch
Ġb ook
it or
ĠS end
ĠS avedSearch
Ġpro cessed
uto ff
Pro vince
Ġurl join
uper user
Ġal pha
RE G
RE MOTE
ĠUser Model
ame s
Ġpre pare
Ġen tity
Message FilterValue
Ġtag git
PRO CESS
posi tive
FIELD S
lang s
Ġread y
Ġfin der
Access Token
draft s
Session Middleware
Ġele m
job s
mys hop
ĠMon ey
Ġdescend ants
Brow se
Ġcorrespon ding
Ġiss ubclass
$ ')
: {
C N
N ING
S R
b b
d rop
n ick
} </
Ġ Boo
on gs
or er
ti tem
tion s
Ġa jax
Ġs qlite
si sted
time out
ata ble
Ġd t
as ync
ĠC M
ls o
ĠRe fer
ĠRe gion
Form Set
eri fy
Ġch anging
OR DER
par tial
trans lator
UT E
search token
call s
col lector
AS H
ĠGroup Status
Ġper cent
resol ver
ĠCheck s
pop ulated
ic search
Ra dio
cmd s
Ġvi si
Ġlocal flavor
ĠNo tification
gno re
Ġsk ill
Ġrefer ences
ADD R
PASS ING
Sign al
sum er
receiver s
DATAB ASE
fe atured
Ġcalcul ated
ĠSk ip
EXT ENSION
ACT OR
Ġcomb in
onent s
Ġog c
' ve
A nd
F rench
F ACTOR
J inja
N G
O F
W R
f ee
n ers
o ob
r up
t ate
u ck
z ed
Ġ 80
re g
an aly
ti li
Ġp ip
la cing
get value
lo se
"" ,
project member
Ġcon tact
Ġe mit
mb ol
Ġpro bably
ĠC ity
so cket
Form at
ĠO r
Ġme mory
={ }):
Ġ(" #
Ġbase name
not ate
ĠIn vite
access ible
Tag gableManager
Ac tive
ating s
Ġmodule author
QU ERY
Sub ject
Ġact stream
Ġdefin es
rece nt
ular Inline
off line
Ġreplace ment
AuditLogEntry Event
sha red
vil le
Unique Together
bot tom
ĠUni que
Ġtim eline
Grouped Message
= _
F ailed
F acebook
L icense
P ON
W ID
W orld
b reak
f uzzy
j u
m ust
p dt
u table
w atch
to tals
() (
di x
pe st
ad ditional
con nected
ĠT P
oo m
In fo
User name
ĠL oad
ĠĠĠĠĠĠĠĠĠĠĠĠĠĠĠĠĠĠĠĠĠĠĠĠĠĠĠĠĠĠĠĠ ĠĠĠĠĠĠĠĠĠĠĠĠĠĠĠĠĠĠĠ
ĠĠĠĠĠĠĠĠĠĠĠĠĠĠĠĠĠĠĠĠĠĠĠĠĠĠĠĠĠĠĠĠ ĠĠĠĠĠĠĠĠĠĠĠĠĠĠĠĠĠĠĠĠĠĠĠĠ
Ġal ert
Con fir
Ġat t
res hold
ĠUser ObjectPermission
Ġcur ator
=[ ],
Se curity
ap proved
pl orer
Email Thread
gra vatar
IS O
pop ular
mock ed
logger s
Ġinst anti
ĠCh ild
ĠList View
RES PON
UP DATE
LI MIT
Tree Item
Ġsepar ator
BO X
scenari os
calcul ate
calcul ator
how to
ĠSk ill
Ġappen ded
Ġtw isted
METHO D
Display s
Tab ularInline
Pack et
GNU P
RESPON SE
" ',
$ ",
5 7
6 8
= ("
C I
C srf
I t
N ER
O M
R ating
V ariable
c ar
i cs
l te
t od
y r
z h
Ġ ancestors
Ġ kwarg
el s
re deemer
an sp
ti o
al ice
al ways
Ġ" ":
at tached
Ġre gular
'} ))
Ġb undle
di scussion
val u
'] },
default filters
Ġd f
Ġd ry
pa s
per malink
Ġst derr
ĠA uto
type classes
ol ymorphic
ĠD oc
Ġfile browser
ĠM ark
ĠĠĠĠĠĠĠĠĠĠĠĠĠĠĠĠĠĠĠĠĠĠĠĠĠĠĠĠĠĠĠĠ ĠĠĠĠĠĠĠĠĠĠĠĠĠĠĠĠĠ
Ġg ranted
status check
Ġby tes
are a
AP PLICATION
meta class
ĠU UID
USER S
Ġman ually
Create View
alog ue
CL U
Ġinitial ize
Site map
Ġ12 3
TIME OUT
Ġport lets
ĠCa che
ev ant
Login RequiredMixin
Ġdj stripe
Http Response
Ġbel ongs
Your MUD
alter native
Su ccess
Regex Field
>[^ /
roll up
Ġedi ting
scr ub
ĠCur rent
ĠGlobal PagePermission
dem osite
/ '.
7 1
L C
L T
P lan
S mart
T ur
` )
b old
g d
r vi
x html
y ou
Ġ $
Ġ ):
or ig
in herit
ti tion
ro ker
Ġc er
to ck
na tional
orm ally
li s
Ġin active
con tains
con sole
test image
ho urs
Me mory
Ġcon stants
ĠP a
Ġor ig
Ġn one
ele ms
tri es
Ġde sired
ff ee
ĠH elper
cre dit
port lets
Ġcreate s
ĠR eyk
ĠGroup ing
Ġid x
bu ffer
Ġrel evant
Ġback ends
Ġus ually
ĠURL Path
config ure
Ġman uals
Template View
Ġcomp atibility
ĠGener ate
DEL IVERY
Ġser ved
fail If
Article Plugin
Ġmail er
cra py
ĠApp Config
Ġnotification s
CS V
appen dices
ĠTr y
linked in
iti ze
ĠAccess Token
Ġappen dix
ĠPUBLISH ED
ÃŃ k
jar vi
Mux Command
ĠBu ild
5 3
> %
B asic
F ail
K B
M ARK
R ate
S CRIP
V EL
W est
b ut
h and
i table
al th
ue ss
jang or
Ġf ew
Ġs te
Ġin vitation
co mple
set ter
Ġw raps
'] ):
Ġ( {
test user
test cases
url conf
Ġno se
ĠT oken
Ġd ynamic
ĠS H
Ġcon sider
ĠA p
ĠA lso
ĠC all
Ġt utorial
sh or
count s
ĠI MC
Ġse ver
pi e
Form View
pk s
cre en
organization access
ĠW orld
sy m
RO SETT
og c
={ },
Ġca ches
Ġsite map
Organization AccessRequest
pl ur
([ ('
ĠGen re
da jaxice
Ġk lass
Ġmo ved
Ġsign ature
Request Factory
Ġprocess ing
pagin ated
var name
var iable
we ight
Ġval s
expi re
ka ans
RES ULT
Ġbuil der
ose n
sort ing
STR ING
Ġsocial login
ĠCa ched
Ġweb hook
rou table
jav a
Ġplace s
ĠCmd Set
ĠPRO PERTY
ĠProperty Option
Do e
moder ator
ĠDisplay Field
ĠPassword Reset
NE W
refun ded
ĠSTAT IC
opt group
BUIL DER
ĠDAT AB
Resolu tion
PROCESS ORS
ĠCM SToolbar
ĠDoc Section
organizationaccess request
ROSETT A
) })
+ /
, )),
> {%
F IN
K W
K ER
L FS
b org
e ffective
i mi
o th
s lice
t re
v g
w args
Ġ Media
el f
in dent
ro ute
(' .',
at ural
Ġp id
ul ation
ce eded
Ġf ace
Ġf ont
up scale
ch an
Ġin ner
co in
Ġb row
pe g
Ġfor ward
ĠT HE
In voice
per sistent
Ġe g
ĠP UBLIC
pri o
ol ver
Ġn ice
po c
py flakes
Ġver ified
Ġmodel admin
ĠM E
ĠO F
Ġch unks
"> %
ĠF ROM
UR I
ff line
RE PORT
man ifest
DE X
LE VEL
trans form
ĠPro vider
Ġen di
"] [
call sign
col lect
Admin Mixin
ĠHttp Request
Ex p
clean up
Ġformat ted
ron tab
dis cover
extra ct
release d
ultip art
Ġcomp iler
SI GNUP
Ġta ken
Ġedit or
gen erics
custom ers
find all
Ġwork space
Ġcri terion
ĠOpen ID
ĠSho p
Ġimple ments
CS S
rag ment
Ġoc currences
track ing
Simple Page
ĠResource DoesNotExist
sup port
una uth
Zip CodeField
announce ments
ĠTRAN SL
jangor atings
) ')
C ity
C lipboard
D UL
G eo
S UGG
b i
s ince
t art
Ġ XX
re name
or ized
an ia
(' ')
at temp
Ġre stricted
ur a
Ġf ake
Ġth row
Ġs ce
un g
test ing
is digit
Ġd eleting
Ġget ting
Ġst oring
ĠA D
Ġpro c
Ġ1 7
(" {
Ġt c
Ġn odelist
app able
Ġ2 3
ĠO utput
ĠE xtra
"> <
Ġg it
Ġclass name
load data
AN SI
Ġare n
organization s
has attr
den ce
order s
sy ntax
foo t
session handler
Di rectory
MO VE
Ġ%} ',
Ġper manent
tin ymce
Ġdo ing
Template s
PRO V
Ġsender s
ĠCreate s
rf c
No tification
ERR ORS
Ġfin ished
ĠExample Serializer
Alter UniqueTogether
Ġrepresent ing
ENAB LE
Ġpanel s
thumbnail s
IMA GES
Ġsubmit ter
defin ed
Ġexec uted
HOL D
ĠRel ated
Ġfeature s
ĠPri ce
Ġattach ments
Ġproble ms
nounce ment
ĠJson Response
AUTHENT ICATION
Ġ123456 78
ĠFIL TER
DUL ES
! "
) ['
4 3
G O
S o
] '
d st
j ust
l igh
p u
s Test
Ġ ~
Ġ ##
Ġ zero
Ġ' "
st and
th rottle
ge sted
Ġre ply
Ġp uppe
Field Mixin
Ġa ffected
Ġf lush
id x
ob ile
ch unk
co pied
Ġw indow
con stance
ho ur
Ġd at
Ġd ouble
ub lin
(" <
ol or
ĠC R
ĠC lass
ag gregate
nder s
Ġse curity
Model ChoiceField
ĠRe gex
Form Plugin
ĠM O
ĠO ver
ĠF acebook
ĠH e
ĠH andle
ke ting
Ġadd r
ren dition
US D
PO INT
ID ENT
'^ (\
translation project
MO DE
Ġoutput s
social login
Ġ5 00
ocial account
number s
PRO FILE
remove d
ĠOrganization OnboardingTask
Ġexp ect
Detail sEndpoint
organizationmember team
("% .
Ġselect able
Ġframe s
Ġdj celery
top seller
Ġright s
Ġsubmit ted
ĠTranslation Action
Ġele ment
Ġprovide s
ĠRender er
SESSION S
wait ing
Cur rent
MESS AGE
MESS AGES
Ġrep lacing
unt ranslated
IGN ORE
rp c
Calcul ator
NAM ES
Pas ses
Ġendi f
0 7
: **
D elivery
L ocal
Z a
h orizontal
t t
t x
v in
z en
| %
Ġ hostname
re jected
de a
de script
Field Values
Ġf ig
ing Filter
il i
pe t
Ġw ri
Ġo embed
vi le
ra y
pa gate
Re trieve
Ġcon ditions
Ġe ffect
ist an
") [
ĠD ollar
Ġdi stinction
py c
Ġco me
title s
ĠRe dis
`` `
ĠG u
ci ent
load ing
Ġr and
Ġso cket
ĠR ange
=[ ('
Ġsh ell
char set
my flag
work space
ena ble
Message Middleware
num child
201 1
Ġclean up
ĠAPI TestCase
OK EN
Code s
Ġiden tify
score s
ADD RESS
follow up
ĠEn vironment
rag ma
Ġpoint s
Ġmer ged
Ġsepar ate
Sa int
Do main
Ġissue s
IF ICATION
WE EK
Ġextend s
ĠAuditLogEntry Event
tist ics
Ġdist utils
ĠLib rary
Province Select
2 7
B e
B ay
B AD
C ss
M ax
N e
R ich
S chedule
T or
V oucher
Z IL
a ffected
d ele
m isc
w s
w raps
z owski
Ġ IntegerField
Ġ' :
Ġ' '),
st ates
od ule
Ġi mmedi
Ġ[ %
Ġ[ ["
Ġc ross
Ġre ct
Ġa utod
Ġf ill
la p
la ve
ri p
Ġs nippet
li fy
no se
Ġb an
ter ms
__ ',
Ġm igration
Ġno tify
Char ge
Ġd al
Re ad
am o
User Form
Ġde clared
ĠL et
ĠL ock
ĠTest View
Ġrender ers
ĠW ith
Ġpar agraph
Ġen ti
De bug
Ġpubli cation
wagtail users
my app
EL P
Ġsource map
cs v
IS tring
Ġdate s
Ġout side
Ġle ss
AG IN
gen re
ĠForm at
TH RES
activ ated
SO LETE
Ġtask s
123456 7
Ġarg v
embed ly
Ġmanager s
pol l
Ġrequire ments
some thing
'' '
ĠSE LECT
Price Calculator
Or igin
Parame ter
SHO P
ĠOther wise
HEAD ER
Ġmen us
ĠApi Key
THRES HOLD
( ':
( ["
2 34
5 8
B IN
D ak
F eature
H ES
I ssue
N L
O VER
P ootle
U CH
a o
f j
f k
h ipchat
k b
p ants
x hr
} {
Ã °
Ġf k
Ġf avorite
co sts
Ġimport ant
assert Jinja
pp v
Ġh int
ĠT ask
ĠT enant
es ome
ut down
Re ce
mar keting
Ġe asy
ĠP IL
Ġ% %
option al
ile mbed
User Report
ĠI mple
ure s
Ġse n
py gments
ĠM UD
OR ITY
ĠF e
ĠF UZZY
format ter
ĠĠĠĠĠĠĠĠĠĠĠĠ Ċ
ten ce
profile s
Ġli mited
Ġfilter ing
be ard
Ġcom ing
Ġ/ >'
Ġhead ing
uct Block
tree item
success ful
ĠForm View
fin der
ĠObject DB
SL UG
ĠAuth entication
ĠAc cept
ĠAc tiv
Ġresol ved
exp and
Ġqueue s
oper ations
rou ter
Update View
Ġdep ends
Mon ey
recipient s
Ġswitch es
Ġcandid ate
ĠAss ertionError
Inter face
Oper ating
VARIANT S
Ġhigh ligh
FUN CT
ilembed s
1 80
: ',
> ")
A s
B Y
B er
B ASKET
E nglish
S core
S SL
_ .
d p
h its
i ci
s Form
s outh
x path
z ki
er ce
re vert
an ish
ti ally
th at
ro id
al Key
sel ves
(' {
Ġc atch
ang ular
Ġp ix
Ġp ragma
ul a
la h
en s
Ġs yntax
Ġs aving
() }
') ],
con ditions
is ation
Ġh ard
ĠT akes
ub a
Re striction
ĠS ample
ĠS ESSION
ĠP er
ĠP ublish
Ġpro mpt
Ġex am
ol y
ĠC HO
data dict
ializ ed
EN ANT
ĠM a
Ġch ain
ĠG oogle
Ġclass ifiers
Ġwh itespace
Con dition
Con creteModel
rst rip
SE CUR
ĠB ar
trans lated
Ġma king
read outer
Page Form
search able
mod index
publish ing
Ġmod ifier
25 4
wagtail forms
Ġoption ally
([ ],
Ġper formed
Un known
St art
St ats
gin es
Ġauthor ize
full name
Ġtrans lated
open search
Ġinst allation
Ġ'. '.
CA SE
PATH S
ni ca
Ġhash es
ĠSer ializer
rows able
Ġtemp file
Custom Field
Ġdep loy
SH OT
Change Form
Ġele ments
Su ite
ĠRegist er
LIN K
sup ported
Stream Block
HER E
Ġcap fd
ĠRegistration Profile
Common Middleware
ĠContent File
Cached Methods
pager e
RUN NER
ĠCHO ICES
readouter r
9 5
? %
C P
C ATEGORY
F i
F la
F rom
F OLDER
G D
I tems
N C
N N
P y
P aginator
P agination
_ {
e di
e cho
g if
h it
h ere
j ack
n l
r d
s z
t b
Ġ ?
Ġ' '})
an notate
st an
ge titem
ate ver
at ter
Ġre cover
Ġf iler
ser ies
en glish
user bar
Ġdef erred
Ġb irth
ck s
un e
Ġo cc
pro pagate
date s
=' '):
ĠT ex
ĠT witter
In tended
ĠS ince
ĠA b
ĠA udience
ac cepting
file type
ca ble
ĠC SS
ag ing
Test Base
ĠL ookup
View Middleware
ĠH AS
RE VIS
res sed
led ge
ee p
article plugin
ari es
ĠU N
OT O
Ġ%} ')
su do
ir c
im gs
Ġro setta
Ġ/ >
ash es
Ġprefix es
Ġstyle s
ĠModel Admin
Alert Plugin
{} '.
minute s
~~~~~~~~~~~~~~~~ ~~~~
termin e
Ġob last
Ġti cker
Ġphoto size
Ġbel ong
HOST S
ĠOrganizationMember Team
FO O
cancel ed
descend ant
En sure
Ġhappen s
Mo zillians
TRANSL ATION
Oper ation
constraint s
sw appable
ffi cient
HER IT
vok e
Ġfe el
Ġtz info
Ġrou ter
Creation Form
Ġhol ds
Ġcer tain
( .*
. {
. '],
/ '),
9 1
B ah
C entral
E aster
G CM
G ENER
H ELP
L ock
M N
N ote
P ass
S Y
T W
T ax
T OKEN
] ):
] *)
b n
d w
d ouble
h ack
h igh
i y
s quare
w ner
Ġ' )
th umbs
db id
Ġc lipboard
Ġth rottle
id ont
en i
Ġs heet
li sted
li cable
') ).
key word
un ct
un ion
ign ment
ho t
ĠT ime
ĠA ng
ĠP o
Ġpro t
ON T
Ġ2 2
Model Mixin
ĠE X
Ġme trics
Ġr ating
par sed
den ied
ĠW ill
Ġv ouched
cache key
ĠR EST
Ġpri vate
mod al
ĠGroup TagValue
ĠIn voice
ĠIn dependent
access ories
ĠCon creteModel
Dict Equal
lib rary
wagta ilembeds
Ġconfig ure
vers ing
KEY WORD
ĠGener ated
web hook
OP EN
ĠAc count
namespace d
Ġreplace d
leg al
ĠOS Error
goti ation
give s
CURREN CY
HOUR S
Ġsever al
ĠAD MIN
/ *
= ',
A ffected
B atch
B AN
I nt
K u
M sg
P ool
R ow
S pa
S tyle
] )),
k ely
l ng
m igrate
o log
r hs
s ingle
Ã ¡
Ġ' $
re ason
te nders
in viter
de clared
le x
Ġre v
ou se
get sentry
il ity
ri s
up ation
Ġin tern
Ġb readcrumbs
Ġo string
sp am
lu s
Ġm uch
=' %
Ġd ump
as set
Ġcon trols
Ġex cluded
ĠC MD
ĠC lose
Auto complete
User Manager
User By
######## ######
lin t
str ategy
sc reen
Ġ2 1
Ġde vice
Ġfile object
Ġfield sets
act ual
~~ ~
ĠM ay
Ġ{} ).
IN E
IN NIA
Ġal ternate
ĠTest Table
port al
IC lient
with in
ne ver
ne eded
Ġ3 1
IL D
tra verse
Ġvalid ator
De fin
search test
Check s
File System
ĠEx port
ĠCon fig
ak er
Email Backend
ail y
IS PY
Ġauto spec
alert plugin
Ġk nown
MP TT
UG SHOT
Request Context
Ġmark ed
ĠAN S
override s
TR A
Ġrece nt
mic ro
Ġfla ke
SER IAL
55 5
Ġdir s
LI ANS
Ġframe work
CR ISPY
/? %
ĠPlayer DB
Ġpay pal
Ġop tim
ĠArgument s
Remove Field
CMD SET
>[^\/ ]+)/
candid ate
ĠUserena Signup
Reverse Match
Manage ment
Csrf ViewMiddleware
Fail ure
Ġsce nari
ĠCR UD
ZIL LIANS
Ġ[[" #
Affected UserBy
AffectedUserBy Group
: \
> '.
D ummy
F K
G e
L S
M ore
O FF
S hippingMethod
X Y
] ["
b ing
c line
c lip
d on
g ative
j an
k t
u ation
v c
w in
re store
st on
al ign
ge s
Ġ" @
Ġc dict
Ġf all
Ġb est
Ġo m
Ġ( .
con n
con tain
con tinue
ra b
ra de
Ġh ide
Ġh andlers
iz er
ĠS outh
Ġe cho
=" {
mi cally
mail er
Ġt elnet
sh p
ĠI O
ite s
add on
um ans
scri be
ĠĠĠĠĠĠĠĠĠĠĠĠĠĠĠĠĠĠĠĠĠĠĠĠĠĠĠĠĠĠĠĠ ĠĠĠĠĠĠĠĠĠĠĠĠĠĠĠĠĠĠĠĠ
sk ills
UR E
Ġal ter
Con trol
Ġview set
version ing
Ġsub page
Ġsub classes
De velopment
fix ed
MA G
ĠIn stance
task set
Ġmatch ed
be at
Ġcom mented
Ġj inja
pay pal
ic Task
MP LE
ĠK wargs
ater ialized
Ġdel iver
ĠProject Option
Entry Page
Sub Index
Trans action
web hooks
ĠAPI View
TH UMB
expi ry
ĠSt andard
Ġtemp orary
Link Plugin
Ġgo ing
Social Security
Ġsubscri ptions
digest s
Mon th
ĠFilter Set
Ġstack trace
eriod icTask
star ting
bit rary
ĠComp ressor
Ġcharge s
```````` ````````
ĠBasic Model
READ ME
AF TER
GH T
ĠPy gments
DELE TION
Ġmoder ation
SOC IAL
Head er
sty pie
ĠReyk jav
descript or
Ġhighligh ting
clip bo
/ "],
3 70
4 56
9 8
F ACE
H ook
I R
I ter
I VE
L D
M ATCH
M UGSHOT
N a
O ld
P M
P S
P od
P ayPal
R A
T ABLE
W rite
e mote
f a
f ti
m k
q n
s mart
u c
w n
y n
y ph
Ä į
Å ¡
Ġ Date
Ġ ROOT
Ġ latex
Ġ ancestor
Ġ quiet
te ction
in di
al ternate
Ġc m
Ġp rin
def erred
Ġf b
en sitive
Ġs ale
co ffee
Ġb ob
qu it
sp er
pro cessed
and s
Ġh ack
ĠT ax
ĠT oolbar
as ca
Re ply
Ġe vil
ĠA R
ĠP Y
Ġn ormally
tic s
ĠD is
ON G
ON TH
Ġdi sc
ĠM any
ĠO SI
ĠL ANG
IN HERIT
sk aya
ci sion
admin ist
ĠB ut
conf lict
ug gested
Ġpre pended
Ġen viron
wagtail sites
ĠHttpResponse BadRequest
Ġsu itable
JSON Encoder
config ured
List Serializer
Ġsign ed
Ġpart B
Ġqu ote
CHO ICE
Ġtra iling
TR ACK
DB Factory
Ġ... "
Ġiden tity
Ġ}} '
Ġdiffer ence
ĠTrans action
cra ped
oper ation
Property Mock
Run time
Ġbutton s
NOT E
Update d
eg n
("/ ")
IM C
LOG G
Ġpop ulated
readcr umb
BO OK
external account
normal ize
En vironment
FR AME
groupemail thread
Registration Profile
ĠStatus Check
Spe c
VIS IB
Ġproble m
cap fd
SCO PES
Ġtre ated
VO UCH
Radio Select
ĠAp proved
plur als
ĠTranslationAction Codes
SERIAL IZ
ĠCRUD TestView
2 50
C ENT
D om
F lag
G C
H a
L ine
N et
N ECT
P C
S al
[ ^
\ -
a red
e m
e q
f us
f ont
j peg
p rom
p sycopg
p atri
r ss
Ġ' &
re stricted
in crement
Ġi o
Ġ" --
Ġre member
Ġre start
Ġre trie
Ġa x
Ġa ware
ta ff
en tities
no ther
ex ico
pe p
Ġo pt
pro totype
ra ces
Ġm data
=' ')
Ġh ad
Ġd ashes
ut ree
Ġe v
Ġof ten
ol k
ĠC lean
Time Field
Group EmailThread
ans wer
Ġl ight
ĠM ax
IN PUT
Ġme an
Con tact
ĠN g
ĠN ested
ĠB it
:// %
order ed
ĠW HERE
200 9
Ġpar sing
Ġpre populated
Ġca ptcha
sign in
Base TestCase
Ġsh are
MO DULES
ĠEx ternalAccount
char acters
Filter Backend
Ġper mitted
ĠDe velopers
34 5
author ized
Ġload ing
Ġdel ta
Ġpk s
ĠAPI RequestFactory
Ġmin utes
ĠTh at
Ġser ies
Ġread only
Alter native
ĠDi rect
ĠArticle Revision
ĠGeo Server
ĠSimple Table
skip If
Ġnormal ize
Custom User
Folder Permission
ĠSource Map
Ġob solete
ĠChar acter
Ġsepar ated
Attribute Error
------------ --
ĠSign up
Ġ201 6
ĠSession Store
ĠResource Base
Ġclo sed
Ġstar ted
Ġcover age
Ġgive s
ACTI VE
Mod ifier
ĠEmpty Page
Ġoob funcname
bur g
fil led
ĠMan ufacturer
CLO SE
Ġda jaxice
WR ITE
foot note
ĠANS IString
ĠIO Error
asca de
+ '
6 9
> ,
B ound
B UC
D eleted
E vennia
M ac
P or
R U
S hop
T ASK
W SER
] }
b g
b undle
d Object
e poch
f avicon
g a
i cally
l g
o embed
p m
s mall
v oc
w ms
Ġ BoundedPositiveIntegerField
Ġ lineno
Ġ' @
re pe
or o
in clu
an notation
me mory
Ġ(' -
Ġc fg
Ġp ool
Field Panel
Ġth ough
get list
en gth
ch osen
user report
Ġin p
Ġin crement
Ġin spect
co pies
() ])
Ġw rap
un ch
un publish
pro tected
__ ':
assert DictEqual
is m
ra ceback
Ġno tice
Ġno pyflakes
Char acter
Ġd st
ĠS ensitive
Ġcon si
Ġcon ven
(" _
data bases
Pro perties
app hooks
end or
ĠI ssue
com ms
Ġmodel form
ĠL i
ĠE l
ĠE v
Ġg reen
cal c
Ġy es
ow er
== =
Ġlist ing
Ġun gettext
Ġrender s
ten tial
[" /
Ġserializ ed
Ġen db
CH ILD
Ġcall sign
translation s
bu il
Ġ%} </
ir t
Ġcho o
ĠDe tail
Ġother s
Ġstart s
Ġsta mp
ticket s
Ġ"% (
ĠTemplate DoesNotExist
au ti
mer getype
22 22
Ġ'. '
go to
78 9
bin ary
Ġcmd handler
__(* *
ĠJSON Field
DAT ED
SO URCE
Ġdir name
yna mically
Ġexpi re
TO COL
COMP LETE
Ġticket s
Run Python
Social App
ĠLog Entry
Delete View
aw esome
track ed
vfolder s
DES C
Ġaccept s
real path
Mod ified
UUID Field
ĠUni code
Ġbehavi our
styles heet
ĠPar se
Author ization
Cri terion
BRO WSER
Tagged Item
Ġreg ard
CLU DE
ĠPa rent
AGIN ATION
patri ck
BUC KET
" ."
1 32
A ware
E mpty
F C
M ES
M CE
N OR
P DT
T M
T ED
Z INNIA
b s
b lue
h am
i mal
i Ph
n iki
t n
t umblr
y a
} $',
Ã ¥
el og
er n
': '
ti le
ro s
Ġi dent
ry p
orm bases
en coded
en closure
Ġs w
Ġs creen
lo ven
() ``
si zes
un register
and a
Ġm cs
Ġh ierarchy
ĠT er
In vite
Re place
Re fer
ĠS lug
ĠS craper
Ġcon dition
Ġcon verted
ĠP L
Ġpro tected
mi me
Meta class
ial og
now ledge
ĠI den
ON ODE
ĠRe ad
Ġ"( (
ĠF ollow
Ġg d
AN Y
contrib utor
slug ify
URL S
ĠW E
IT IES
source map
pen ners
Ġpre fetch
ren the
first name
ĠR ich
Object DB
Ex pi
File s
Event User
Ġ%} {{
point s
Ġj wt
Ġx range
Ġ\ "
Ġhead ings
Th rottle
confir med
>' ''
Django Model
Gen re
Ġsuccess ful
MIS SING
AND ARD
Ġerr msg
Custom PK
oper ator
Ġshort er
Ġskip ped
ĠText Plugin
ansi tion
Ġrelationship s
ffi cial
letter paper
candid ates
SCO PE
clar ations
Tracked User
Ġste ps
Css Parameter
BIN ARY
Ġpix els
SECUR E
Fla vor
ĠTex info
Ġendb lock
CHILD REN
auti ful
iPh voc
renthe ses
! ',
* ',
1 12
8 010
A K
A lias
C at
H as
L ookup
M ay
O bj
P P
P UBLISH
R io
S W
S how
S nooze
T witter
U sage
b or
d z
d sym
j enkins
n es
s ig
u ccess
x s
z A
} \
Ġ selection
in formation
an ian
le v
Ġ[ ('
Ġc enter
ur cel
Ġp ing
Ġp ositive
la w
il io
orm an
ta iled
Ġs mall
lo l
Ġb lob
Ġb illing
di on
di rective
ad vanced
Ġw arning
is a
url lib
as df
ĠS ingle
Ġex pression
---- -
ĠC H
") ]
so a
po ses
po sted
ĠI S
ag a
ĠD ebug
cess or
valid ator
Ġurl conf
Ġurl resolvers
ĠRe fresh
ĠM ixin
ĠO GC
"> '
"> ',
Ġme chan
Ġg raph
Ġac ross
pre amble
ĠB adRequest
Ġun published
Ġen ough
Ġen gines
comp any
cor dion
}) /(?
Ġpass ing
tifi ed
tifi ers
Ġclient s
ĠCon vert
ĠCon tact
([ (
VER SE
work s
Ġcho ose
Ġj avascript
Message Mixin
Ġx term
Ġbu ffer
Res olver
Ġle g
20 4
IP PING
Ra w
Ġload s
Ġact s
ĠUn comment
ĠJ ava
Ġmin imum
000 3
cmdset s
ĠTag Value
ĠTag gableManager
ome try
ĠNo ReverseMatch
Django Templates
invoice s
ni e
ARE D
assertIs Not
ĠOpen Search
Ġsp ider
/? $',
Enc oding
Ġmain tain
FO UND
track back
je ction
Ġ''' <
sis ten
ĠLa zy
Simple TestCase
ĠRelease File
REQUEST ED
ĠLink edIn
Ġcooki ecutter
sitemap s
separ ator
ĠInline Test
Ab solute
vide o
Region Select
Gener ator
Lo cale
Str uctBlock
Range Field
Blog EntryPage
ĠOption al
RevisionPlugin Revision
XML HttpRequest
escal ation
Ġdirective s
Ġdf lt
FIN DER
olog y
ĠLANG U
( ""
) ],
- {
0 33
9 4
E ntries
F irst
G a
H ar
J u
M AL
P lace
P ants
S CHE
T N
U nable
W A
W W
] \
` :
b io
d jangoratings
g ates
h d
l strip
w ri
w ill
| $
| ,
| \
â Ģ
Ġ Me
Ġ END
Ġ Method
el i
or al
de cessor
ti cker
me dium
Ġ" [
Ġc ar
ur is
Ġp m
ect Widget
ce nd
ce nter
en force
no klass
ex is
ex tended
') ):
gs hot
ĠT op
In sertion
ĠS ITE
mar ty
ĠA WS
ĠP ack
Ġpro totype
Ġex m
file blob
am l
est roy
Ġ1 02
ca ches
ĠC ri
ĠC AC
ĠC elery
Ġor d
ele cted
Ġbe come
ial ization
import s
IN DEX
last name
ĠH ello
mand atory
Ġun known
DE V
post gis
trans fer
Ġma th
')) "},
Ġpre amble
Ġca ching
"] ),
search tests
'^ %
Ġ] ),
ĠGroup ObjectPermission
work er
IS ESSION
ĠDe termine
Ġquery string
Ġx frame
Create APIView
ds n
Ġorganization member
Ġle ave
IP S
Ġlabel s
Ġpk g
Ġpack ing
ale x
part B
ast icsearch
ĠOrder Item
Ġmay be
ĠModel Form
ĠExample s
Password Input
ĠMock View
Ġ}} ',
xml rpc
Ġwork ing
{{ /
ni k
Ġthrough out
Ġexpi ration
button s
bil ities
Pri vacy
dt uple
Ġwho se
follow ing
ĠAl ways
Ġposs ib
switch es
charge s
Attribute s
ĠPhoto Size
Ġsubmission s
bit bucket
Ġexec file
.* ')
OnboardingTask Status
12345678 9
Ġtri m
OG LE
graph ically
Ġty po
Ġattemp t
speak er
recur sive
ĠPUBLISH ER
(', ')
Des ign
ny t
ARG S
Publish ed
Ġâ ĺ
MAN AG
TS DB
visi bility
recogn ised
Exp ectWidget
Ġ12345678 90
ici ous
ĠAb solute
unct uation
Defin ition
SERIALIZ ER
ĠEl se
assertIsNot None
noklass niki
8 000
? '),
F E
G U
I ME
K al
N AIL
P G
P ipeline
S C
] "
a pest
b art
c id
g r
j celery
k y
l hs
p le
s cheduler
s lugs
u er
v an
Ã ´
Ġ sel
Ġ' ()'
le cted
Ġre com
to o
ur li
Ġp in
il ink
Ġs izes
ex cluded
di mensions
Ġw izard
Ġw illow
Ġo l
Ġ( ),
[' %
Ġto ctree
Ch ristmas
assert Passes
assert ExpectWidget
url y
Ġh istory
Ġh ilite
pa rentheses
pa bilities
form sets
ĠS TR
ĠS mart
ĠA fter
Ġex its
ca ching
Meta data
so urcel
ĠI BAN
Group Membership
ext s
Test Suite
Ġurl params
html help
ĠRe versionTestModel
Project Domain
ĠM AX
ĠO OB
IN VALID
ĠF ix
Ġpa ir
sk o
ci e
Ġg ross
par tition
ĠN E
ĠB ack
post s
IT S
Ġ3 600
AC TER
Ġobj s
Ġpre fer
ki pping
ph an
Set s
ĠGroup Meta
our square
Ġ200 8
ĠIn itial
select able
ak a
head line
Ġaccess ible
release s
Ġcls name
vers ation
[: ]
ĠAt temp
ĠJ ust
build ing
EX CEP
DU MMY
ell ing
Ġcmd s
Alter Model
ĠSet s
ĠSet up
LI B
Ġrepresent s
\\ /
ev il
cook i
Ġgen re
WORD COUNT
ĠSearch Form
Edit or
ĠGeneric ForeignKey
Attachment Revision
ĠCart Item
Ġconf lict
Ġexact ly
ĠQuerySet Sequence
Ġreceiver s
sidebar s
Ġfix ed
Ġty p
cl oud
Archive View
FLAG S
ĠSTAT US
Ġremain ing
Open ID
Target Model
ĠAllow s
ĠMPTT Model
Ġ144 84
Checkbox SelectMultiple
relationship s
Ġpl ural
xxxxxxxxxxxx xxx
xed k
ansp ort
Ġautod oc
Dak ota
ĠCRUDTestView With
ĠBadRequest Error
Ġ102 4
. ')),
4 01
9 3
? ',
B r
K i
S U
V K
Y PE
] ",
b low
d n
d ont
d uring
h an
h ar
i ecki
k ra
l c
l id
m or
m at
p end
s al
t ely
x frame
y ellow
| :
Ġ ON
Ġ Boolean
Ġ' (
re v
or ker
in en
de veloper
db class
Ġre dis
Ġre duce
Ġre deemer
Ġp oc
Ġp lease
na uth
ul u
Ġa way
Ġf mt
Ġf avicon
ou che
ta ken
Ġs ur
Ġs ay
Ġin correct
Ġimport ing
Ġb order
di sh
ass oc
pro ble
test case
ty pants
is on
=' <
Ġd uplicates
iz ards
In correct
Re cipient
ĠS afe
ĠS tacktrace
(" --
User ena
po sed
ag ic
pt ured
Ġch apter
ĠE ach
IN CE
OR G
ĠĠĠĠĠĠĠĠĠĠĠĠĠĠĠĠĠĠĠĠĠĠĠĠĠĠĠĠĠĠĠĠ ĠĠĠĠĠĠĠĠĠĠĠĠĠĠĠĠĠĠĠĠĠĠĠ
Ġpa id
Ġpa per
event user
ĠH ook
RE GE
RE MOVE
place ments
ĠN av
AL I
Ġpre ce
Ġcheck box
ĠR ating
ph ab
Ġli sted
'^ \
server s
cor ator
MS G
PL A
Admin View
({ })
Ġorder s
Base Test
mon ey
men ded
ĠEx tension
Ġ4 56
split lines
ĠCheck out
Ġdocument ing
DoesNot Pass
Ġcom muni
doc name
201 50
space s
Ġle ading
fri kaans
Ġcol lect
CON NECT
Ġroot s
Ġcomp atible
Ġpo in
Ġ| =
Ġta stypie
Ġpart A
Provider Account
TER N
Ġprefix ed
TR Y
sender s
ITE MS
:: ).
Ġiden tical
ĠFile Object
Ġsupp ly
ĠAuth Provider
inst agram
Ġmon key
Ġtop level
ĠIs land
vouch es
Ġte x
aw son
("/ ",
IM IT
LOG UE
ĠOn boardingTask
Menu Item
Ġoauth lib
cancel led
ĠTo pic
Sequence Equal
gu y
Ġsection author
spect or
usable Plugin
leg acy
smar typants
Sum mary
/{} /'.
avy Select
rm tree
PLAY ER
ĠME DIA
GO OGLE
Ġimmedi ately
FUNCT ION
rowsable API
OTO LOGUE
Ġsheet s
ĠClose Spider
SocialSecurity NumberField
Flavor Tests
Ġmechan ism
marty Pants
Design ates
sourcel ink
cooki ecutter
blow fish
agic Mock
Ġchapter s
! ')
, \
, )))
- >
B A
B a
D on
E l
F a
H ASH
I GIN
L ength
N g
O verride
R ou
S G
S ingle
S napshot
T er
T ENANT
V a
[ @
a de
b ig
b link
c ert
g y
h ilite
i sper
k n
p ip
p tests
u tation
er pt
in file
st ant
ro om
Ġ" "),
Ġc d
Ġre n
Ġre vert
Ġp ull
Ġp sycopg
ri a
ri ti
ma pper
Ġs ays
Ġs lice
Ġb asket
Ġb ulk
Ġb roken
() [:
si c
di sk
assert DoesNotPass
Ġm ys
Ġh uman
Ġd ele
Ġd uration
iz ing
Re dis
project domain
ĠS up
ĠS martyPants
ĠP ORT
ol ski
Ġt ries
Ġname dtuple
User Default
Ġdi vision
sc al
ĠRe set
arch ar
ĠM ust
ĠM anager
ĠM ultiple
"> ')
OR IGIN
ĠF rame
32 1
par dir
SE PAR
Ġsuper users
dict s
Page Item
Ġca ption
Ġen glish
mark s
Se par
ĠGroup Collection
CO D
Ex ternalAccount
book s
Up loaded
Di ff
ĠPage Link
sg id
30 2
Filter Key
Ġ4 2
Ġextra cted
Ġsu c
Ġdocument class
Ġsee ms
Ã¸ r
END ANT
Ġconfig urable
CON TA
Ġtrans form
ĠTemplate s
ĠAP P
ĠAP IClient
Sub mit
function s
of fi
Ġdefin ing
part A
Ġdis cover
ĠTag ged
Ġbuild ing
Ġlevel s
cabo t
Data Migration
For Object
ĠSimple TestCase
Ġrefer ring
Count y
NO MATCH
lick r
Ġresol ver
Ġdj admin
Ġdj ng
Ġmer getype
UM ENTS
sla ck
mu table
ĠData Migration
compress ors
pass ing
Gu ad
Version ing
Player DB
Ġthread ing
Ġenter ed
ĠInline Panel
ĠSubmission Types
refun d
ĠServer Config
>[^\/ ]+)/(?
ARG UMENTS
Direct ories
Bra zil
good s
PRI ORITY
hared Memory
ĠSh ort
iny MCE
REG ION
Ġbrow ser
ĠTRANSL ATED
dele ter
Fi xture
ĠMany ToMany
LOGG ING
Ġchoo ser
Ġregard less
ĠJava Script
Ġtypo graphically
rowsableAPI Renderer
/ (\
; '
D estroy
F g
G RE
H ome
K ar
M X
M ONTH
M exico
N ested
O OB
R ed
S tacktrace
T uple
] ')
b c
b re
c le
c utoff
d ating
g zip
j i
l ru
p ub
w ritten
Ã ĸ
Ġ 99
Ġ hold
Ġ quick
er k
re ject
in ner
ti vely
le y
Ġc ra
Ġf actor
Ġth ird
Ġs crapy
lo rem
ex tent
si an
Ġw atch
un c
un resolved
pro gress
con crete
con sumer
Ch i
Ġh is
Ġd river
class name
ub ject
In st
Re gi
ĠS SL
=" #
file object
est ing
ol ve
ĠC ore
Ġuser names
Ġt type
ele ments
Pro gress
ther e
ther n
ĠI gnore
ĠD oes
ĠD rop
filter ing
Ġde dent
Model Resource
word count
EN COD
ĠM X
ĠM in
ĠO ffline
Ġ{} ))
Ġg uess
Ġr pt
01 01
pre compiler
ĠN on
ĠB lock
dit Card
check ed
LE ASE
Ġwe ight
UT ES
ree ment
search ing
comp are
ine a
Ex it
wagtail redirects
ĠIn sert
ĠPage s
men utree
Ġformat ting
'. "
UN IC
static method
Ġpublish er
Ġsearch data
St ar
Ġaccess or
Add Form
+) /(?
ĠV AL
END ERER
Ġcart s
Ġ'/ ')
uid s
Ġsome one
Ġmark ers
initial ize
Uni ted
gener al
BACK S
ali an
Ġmin imal
fin ite
simple page
Ġlocal ize
CAC HES
0000 0000
Ġflat ten
Ġflat att
WOR K
feed s
Ġactiv ated
elist ing
FF FF
ĠWh ere
oci ation
ĠOrdered Insertion
Ġoc cur
Ġcs v
ĠSE TT
IF Y
ĠRender s
ĠLink Block
('^ (?
San ta
differ ence
Signup Form
Ġdescend ant
SA MPLE
Ġ'* '
quick start
favorite s
cap ital
REF ERER
Ġnet work
Follow Up
virtual folder
CHAR ACTER
ĠInst agram
uss ian
LA ST
trade handler
comple ted
shor ten
imi ter
ĠProvider Account
vin ces
Ġenti re
jack ing
DESC ENDANT
sisten cy
TestSuite Runner
DESCENDANT S
+ |
4 20
B an
C all
C ay
E E
I FI
J ob
K o
M er
N EL
P ay
S oup
S tock
] ',
e i
e arch
f ast
g z
l ur
m ultipart
n al
s Properties
u it
u gettext
v ad
w ar
w ho
w indow
Ġ der
Ġ kw
Ġ archive
Ġ' #
re order
in ed
se y
se kizai
le af
field sets
ul ates
Ġa frikaans
Ġf low
Ġth us
il la
en ded
Ġs ile
Ġs ld
no p
Ġb asi
') )),
Ġw ish
'] ],
qu ot
vi ted
Ġfor get
is dir
as ily
Ġdjango cms
ĠS I
ĠS pa
ĠS ER
ĠS cheduler
Ġst ory
Ġcon ditional
Ġe asily
ĠP AGE
ĠP oll
mb ia
xi m
Ġpro files
ac ls
(" #
ĠC ode
ĠC alcul
Ġ* @
Ġn or
he alth
tp ar
ag re
). _
oc c
Ġdi sk
Ġdi rection
Ġse nse
Ġde epcopy
Ġfile system
ĠRe place
Form Definition
Ġl at
ĠM IDDLEWARE
ĠL ast
ĠE nglish
ĠĠĠĠĠĠĠĠĠĠĠĠĠĠĠĠĠĠĠĠĠĠĠĠĠĠĠĠĠĠĠĠ ĠĠĠĠĠĠĠĠĠĠĠĠĠĠĠĠĠĠĠĠĠĠĠĠĠĠĠĠ
RE L
Ġac c
cre ase
Ġso ft
ĠThe me
GE ONODE
ten ance
AC TIONS
Ġpre cision
ren ce
Ġsub dir
Ġli kely
comp atibility
store Type
Auth enticated
AS SIGN
CO DES
Ġjson ify
Ġchar s
Ġaccess ory
ĠV erify
Ar gument
ear er
201 6
Ġad dition
Ġlink ed
Ġcol lector
ep ub
Ġmo ment
oauth lib
ĠAP NS
Ġpy flakes
wh itespace
EX PORT
Choice Filter
Ġapplication s
33 33
extend s
DJ STRIPE
Ġinclu sive
Ġ& =
Tree TestCase
ĠView s
Ass ertionError
MT P
ĠProperty Group
Ġsum mary
ĠAss ign
Ġsy mmetrical
Sh ort
Ġvar name
vide s
ĠBusiness Child
Ġattemp ts
ĠError List
Ġrecog n
ĠRedirect View
SK IP
stru mented
Ġ-------------------------------- ------------
Parame ters
bob by
Ġ144 8
Ġdid n
ĠFR AME
Gre ater
Ġpercent age
inherit ance
IGNORE CASE
affected user
edi ted
ĠSensitive Data
NOR MAL
DjangoModel Factory
law rence
Uploaded File
sProperties Relation
' ")
B earer
C ES
C ategories
C elery
G allery
G oogle
H R
J er
N ON
R outer
S V
S CR
S tep
a mi
b order
b lack
e ch
g ht
l ft
l ators
s lo
u ous
} |
Å ½
Ġ ss
Ġ zone
el asticsearch
Ġ' '))
re gression
te ner
in sensitive
de serialize
ti ck
me nd
th an
ar ison
Ġc ell
Ġp at
Ġp lay
Ġa ge
il ers
Ġs b
Ġs it
user data
Ġin tended
que n
que nt
Ġb cc
Ġb ank
Ġw idont
pro p
assert Queryset
assert SequenceEqual
is able
ra ven
Ġm k
Ġm ce
ĠT ags
ĠT umblr
Ġ} ]
ĠA vatar
=" _
am el
ĠC ard
Ġn g
tri c
Ġde v
Model Select
Ġass ertion
Ġver b
ĠL O
ĠL FS
ĠF in
UR AL
View Restriction
RE DIS
ard own
ĠB ound
read er
fo urs
ĠR ect
Value HiddenInput
ĠGroup TagKey
Ex ternal
FI RST
mon itor
Ġsh all
folder permission
([ ^
Ġper sistent
work flow
Ġresp ect
fla ke
Ġyour self
HO OK
Ġsave s
Ġrun time
FA IL
cart s
Template ResponseMixin
Search Field
Ġsend s
DO C
the ad
Trans late
fact or
Ġho urs
ĠJ an
EX TRA
ĠJSON Renderer
)] ]
Ġoverride s
Ġiter ator
Ġwork er
Ġevery one
Ġnormal ise
88 59
Update s
SH IPPING
ĠChar Filter
ko ski
Ġindi c
Ġcat alogue
ĠAd vert
Sa ver
Settings Form
Ġinherit ance
Pre view
Process or
ĠMy SQL
('. //
roll back
gu ide
failure s
logged in
ĠRa ises
SHO W
ĠAC CESS
ĠAC COUNT
WAR NING
pas ses
>[^/ ]*)
Tur k
SCRIP T
REVIS IONS
eni um
FACE BOOK
exis tent
ALI AS
PLA IN
ĠGroupCollection Permission
Directories Finder
ĠSETT INGS
assertQueryset Equal
fours quare
) [:
/ $",
A MA
A vatar
C lo
D ay
D eliveryTime
E ast
E xtra
F ER
H ow
J K
L ive
M EN
M ix
M issing
N on
O URCE
P op
S coped
U A
U g
W H
] *
_ )
a ir
c n
e asy
f ro
f iling
i bo
k ok
n r
n icki
p df
r at
r gin
Å ¾
Ġ DateTime
Ġ Vi
Ġ Values
Ġ URI
re p
in bound
se q
se ek
de epcopy
ro ke
ro utes
Ġ" )
db obj
Ġre moving
Ġre cie
Ġp g
li m
Ġin sert
Ġin tegration
Ġb inary
si vely
ck editor
di sp
di rection
Ġw ild
ver b
pro c
assert View
ra ce
Ġh ello
ĠT emp
Ġd raw
In tegration
ĠS core
Ġcon tin
file system
code Error
Ġbe h
list dir
ĠD U
Ġ"' %
Ġse cure
sc md
attr name
ly r
AT TR
Ġdata store
EN CE
Ġg oes
12 5
Ġwh y
Con trib
Ġresult ing
ĠN or
ĠN eed
Ġun register
Ġun publish
Ġun quote
Ġraise s
Ġma sk
sta tistics
IC T
Ġnew ly
={ })
ĠR andom
render s
comp onents
comp ressed
comp ilers
col lation
col ors
PL Y
ick er
ap ns
MO DI
([ ])
Email Form
Email Address
UN I
auto matic
Ġsearch ing
run tests
ĠV AR
Config uration
Ġad vanced
Ġcomp ile
Ġ| -
temp lated
QU ANT
Status Snapshot
open gis
ĠOrganization Option
fact ories
upload s
STAT ES
Ġtra versing
ĠSe quence
1234 5
000 6
custom field
ib ling
let ters
tc ard
rt d
dj ng
Ġ}} ')
Ġsk u
make dirs
NO DE
Ġref lection
Ġweb site
PROJECT S
ĠSearch Filter
Comp ress
eg al
ĠPO OTLE
mu sic
discount s
bit coin
Sa o
GR ATION
Pre processor
DIS ABLE
Ġavatar s
Ġmixin s
rid ing
86 01
Track ing
ĠTree ForeignKey
ĠVoucher Group
Ġ------------------------------------------------ --
recur ring
autod oc
Ġsha red
METHO DS
ĠScript DB
ĠCount y
Ro le
**** ****
AEAEAEAE AEAEAEAE
Sample App
ĠMoney Field
WID TH
ĠCurrent Subscription
ĠDATAB ASE
Ġfig ure
GD C
administ rate
VISIB LE
FINDER S
MANAG ERS
ouche e
ĠPORT AL
QUANT ITY
! '
( ",
) `
, \\
; "
C U
C g
C al
C ol
C IM
G AME
H yperlinked
L at
M G
M art
M ASK
N T
N i
P in
S IT
T a
V ector
W iki
W izard
c zy
d am
e f
e ta
f c
g ar
g iven
i ro
i splay
i ence
j or
n an
n atural
p time
r k
r umb
t stamp
v endor
v archar
w b
} ?
er a
Ġ' |
Ġ' ..
Ġ' ').
re c
te arDown
on boarding
in complete
an c
an te
', ))
de construct
th ed
th reshold
al ive
ge nd
(' .'))
od ies
ang o
Ġp v
na da
Ġf ragment
get ter
up grade
Ġs uggested
no tice
Ġb lack
ver tical
Ch oose
is match
ĠT ABLE
group membership
as a
as c
per manent
ĠS to
ĠS tr
ĠS uperuser
Ġe poch
Ġe valu
ĠA S
ĠA rab
ca pture
Ġu m
ĠC HE
view name
tri pe
tri ze
index ed
ĠD ynamic
ĠD escription
art s
str up
sc or
pi cally
Ġfile path
Ġco pies
EN NIA
ST EP
ĠE nd
ĠF GDC
ĠG ive
ator Model
Ġg od
12 9
Ġr p
RE D
Ġan notation
Ġtemplate tag
################ ##############
Ġ@ @
ĠN e
ĠB log
DE CIM
Ġapp licable
by group
able Item
Ġab s
Ġen force
De partment
ĠU P
comp ose
Ġ`` ````````````````
Ġany more
CO E
ap pro
ĠEx p
Event ID
Ġ4 01
Ġcode cs
ĠDe velopment
Ġredirect s
Option al
ong o
Ġro ute
PRO TOCOL
Ġdel ay
Ġmo ving
tend s
Ġcount s
Ġcount ries
month ly
Ġho ur
TH ON
ran ch
Address Form
Ġcmd name
signal command
ufactur ers
period s
ĠArticle Block
Order ed
Ġtop seller
cep table
FILE BROWSER
NO INPUT
MB ED
dep ends
Ġspa m
NOT IFICATION
RI DE
ĠX ML
ĠPRO DUCT
Ġ''' {%
Ġyear s
ĠComp iler
GR ANT
Regex p
CAN CEL
Process ing
quality check
Ġop tpar
Ġ------------------------------------------------ ---
parame trize
Li mit
respon d
OG C
rand int
Submission Types
CRIP TION
Brow ser
Ġsimilar ity
quota s
Ġcomple tely
LOAD ERS
sibling s
Mark down
ordin ate
Confir mation
Ġconsider ed
unauth orized
Geo Node
PROV ID
lap se
FileSystem Finder
Ġscenari o
clipbo ards
Por to
Aware S
penners r
autiful Soup
Ġrecom mended
proble ms
Ġren dition
County Select
haredMemory Model
xim um
affecteduser bygroup
thed ocs
ĠCHE CK
DECIM AL
Ġoptpar se
- ]+
1 44
? \
A U
B B
B ot
D K
D j
D ar
H H
H ost
M ad
M ount
O D
S END
S witch
S craped
T ok
T enant
U I
a id
a ther
b um
c sp
c oder
d v
d ue
e z
h u
i pe
k u
o x
p wd
v rules
Ð °
à ®
el on
re po
re gular
re tries
or se
or ry
in v
an spa
st o
de tect
ti mer
me s
me trics
(' #
field name
Ġre try
Ġre spec
Ġp ic
Ġp olymorphic
Ġf ood
ing o
ou ban
ma zon
ch box
li mited
Ġin coming
co s
Ġb a
Ġb ind
", )
ex tenders
un cached
'] ).
[' _
__ '
__ __
Ġto pics
vi k
Ġm iddle
Ġm igrate
Ġh aystack
Ġh yph
ĠT ab
In itial
all eries
ĠP in
ĠP ut
ĠP ath
ment ation
Ġex tended
ac c
Ġu tili
ĠC ss
ĠC ATEGORY
view set
Ġn s
ER ARCH
so ft
ĠD a
ĠD ublin
Ġdi stinct
Ġdi scussion
str ptime
Ġ) [
ĠM sg
ĠM ain
ĠO B
Vi en
ĠG ROUP
ĠĠĠĠĠĠĠĠĠĠĠĠĠĠĠĠĠĠĠĠĠĠĠĠĠĠĠĠĠĠĠĠ ĠĠĠĠĠĠĠĠĠĠĠĠĠĠĠĠĠĠĠĠĠ
ĠĠĠĠĠĠĠĠĠĠĠĠĠĠĠĠĠĠĠĠĠĠĠĠĠĠĠĠĠĠĠĠ ĠĠĠĠĠĠĠĠĠĠĠĠĠĠĠĠĠĠĠĠĠĠĠĠĠĠ
sk ill
client s
Ġg uar
Con f
Ġan aly
for d
pre fer
ĠN ul
sub title
IC AL
ĠUser s
ĠUser Option
ĠUser Settings
sy mbol
AC H
Page Admin
Ġen coded
ari an
CH ED
PL URAL
ĠGroup Resolution
Ġmod ifiers
Plugin Model
org ia
su ite
UN K
TE MP
be gin
Ac cept
cript or
Ġad vert
Co py
IP EL
.") .
ater mark
Query Dict
The se
-------------------------------- --------------
App DirectoriesFinder
show n
ĠUn known
STAT S
iter able
ĠOrder ingFilter
Ca rousel
OAuth Adapter
ĠPermission s
net loc
FIL ER
Ġ9 0
ĠCMS TestCase
55 55
Resource Base
Release s
Par is
parser s
tes IO
Ad vert
ĠField DoesNotExist
exc erpt
dep loy
connection s
vouch ers
ĠWagtail Admin
SH ARED
\. \
Ġ'? '
Mapping Type
ĠComp atibility
He ight
DES CRIPTION
ik ilink
Ur ls
ĠCan not
restriction s
Ġassu med
Des criptor
smar tcard
Ġbegin ning
Ġfe atured
ĠFake Request
pair s
eaeaeaea eaeaeaea
ĠBoo tstrap
CI I
tx n
ĠFe der
ĠAng ular
THUMB NAIL
fus cate
ĠNested Serializer
ĠDU MMY
anspa rent
ERARCH Y
' (?
( -
- /_
. '.
/ +/
0 44
1 01
: ],
? ")
B N
F Y
G o
H ol
K ra
K ent
M ont
M oder
O S
O f
O ther
O wner
P T
S tack
V er
c ards
c rontab
e u
e ach
g m
g n
h uman
i si
j Ã¤
m ith
n ski
o ve
| {
Ã ±
Ñ ģ
Ġ ends
Ġ ERROR
er vice
re usable
in ski
in ica
', '
Ġ[ [
mp o
Ġp ear
Ġf r
Ġth umb
ta kes
Ġs lave
Ġs ibling
set attr
ex if
ex its
') [:
Ġw ants
Ġw ritten
pro tect
ew ski
ĠT H
ĠT IME
ĠS tep
Ġcon sole
Ġcon sistency
ĠA jax
ĠP RI
page user
Ġu ids
Ġt up
Ġt ell
Ġn args
ele phone
et c
Group Status
Group CountByMinute
filter able
str ument
Ġse ss
Model Backend
ĠM ac
ĠO per
ĠL OG
ĠE g
ĠE very
ĠF un
ĠĠĠĠĠĠĠĠĠĠĠĠĠĠĠĠĠĠĠĠĠĠĠĠĠĠĠĠĠĠĠĠ ĠĠĠĠĠĠĠĠĠĠĠĠĠĠĠĠĠĠĠĠĠĠ
ĠH ACK
Ġra ce
par tials
SE D
ĠB asket
Ġun vouched
Ġun hilite
Ġcan onical
ĠW iki
Ġwe apon
Ġv fti
AC ES
read thedocs
ree k
ĠPro xy
ĠR o
render ing
Ġtype classes
Not Allowed
Set Meta
Ġge nder
our g
.. ."
info s
ze ug
mon d
MA IN
ref etch
Qu ick
ĠCon crete
su id
Ġsys tems
Ġper sisted
Ġpost s
node text
Add s
ĠV ote
Ġdo ctree
Ġ'/ ',
Ġgener ally
Ġcomp are
allow s
Image Revision
Request Error
ĠBase Manager
PE G
Ġqu oted
photo size
ati s
ĉĉ ĉĉ
TH ER
cr ud
Ġfin ders
CRE ATED
ĠObject List
Article Mixin
environ ment
Related Link
Ġexp and
Ġdir ty
ĠArticle Mixin
For um
XXXX XXXX
NO WN
browser id
Ġ'- '
Ġprevious ly
ĠKey word
>. *)
IDD EN
Ġgen res
Delete s
follow ers
aw ski
Ġsignal command
ping backs
Ġoc curs
ĠPRO JECT
igno red
descend ing
ĠVERSION S
DATA STORE
String IO
Mo ve
MENT S
ĠDisplay s
Ġ------------------------------------------------ -----
FORMAT S
Ġtw ice
}. {
Ġprovid ing
oup on
ĠStatic Placeholder
ĠDummy Model
Ġtab lib
FileBlob Index
MULT ISESSION
FUN C
Gener al
Ġmime type
readed comments
PRI V
HI ERARCHY
EXP IRE
san itize
cccccccc cccccccc
/. /+/
ĠQuery Dict
Dis count
discussion s
Success fully
Rate Throttle
attemp t
IDENT IFI
pagere fs
dw f
OFF LINE
rade sh
Ġalter native
INHERIT ANCE
scal ation
Vector Builder
Ġ@@ @
Ġguar ante
/./+/ -/_
% }
' {%
) """
8 16
9 7
B og
D OT
D rop
F act
G reen
I mm
J AX
L ONG
L ower
N ou
N once
O O
P ol
P ID
P IPE
P eriodicTask
P AGINATION
S ho
S uggestion
S cheduler
S uperuser
T utorial
V erify
Y E
a che
a ven
c lock
d noklassniki
l j
l atable
o mp
o string
o ffer
p id
r v
s vg
t body
w ski
{ '
Ä Ļ
Ġ low
Ġ 64
or cid
in tern
in cluded
in ymce
se ss
de clarations
ti f
ti an
ro zen
ge nder
Ġi dea
ct ure
Ġ" +
Ġ" ."
Ġ" "))
at trib
Ġc ut
Ġc utoff
Ġre name
ang er
Ġa ffect
Ġf name
Ġth reshold
ma y
ma Separ
Ġs dist
Ġs lugs
li zer
user settings
lo gs
Ġb log
Ġw alk
un signed
Ġo pp
Ġ( ?
pro vi
lu ster
fi ed
time tuple
oun ties
ra tio
Ġm ud
Ġh ence
Ġh pos
Ġd ynamically
ub mit
form definition
00 13
ĠS UGG
ĠA fri
ĠP K
ca ptured
Ġu nt
Date Input
sh irt
end ly
ĠI tem
Ġas k
Ġdi ce
Ġdi mensions
Ġde ad
Ġde ci
Ġver ification
Ġl xml
ĠM ail
ST E
ST ACK
ST ANCE
ST ANDARD
pk g
Boo tstrap
Ġclass names
RE VIEW
Ġra ven
par agraph
pre pare
cur dir
ĠUser Admin
Ġ3 4
ug lify
Ġ` ~
Ġreverse d
Ġlo gs
ĠPro duction
AP H
dir path
ĠU r
Ġ[] ))
Ġtype name
mod ifier
Value Validator
cri terion
DI G
Ġcre dit
Valid Origin
ap pear
Al pha
hash ers
Ġup per
ak ers
Ġpost gres
UN RESOLVED
Ġsu ite
ool kit
Ġunique ness
do e
Ġrun s
Ġbu cket
Ġtag ging
Ar gs
Ġk ill
Ġauthor ized
Ġcomp any
Ġcomp onent
Ġcomp onents
local ize
Image s
inter active
ready Registered
MODEL S
ĠOrder By
Ġstate ment
ran c
Ġdon t
off ers
Index Page
CRE ATE
ĠObject s
Ġlocal host
fail Unless
ĠSub scribe
ĠCustomer Mock
Inline Admin
Ġdir names
std kwargs
Ġne gative
ĠSer ializ
36 00
Web log
ev o
Ġq n
Required View
cent roid
Ġti ck
Ġzip file
Phone Field
sen ted
raph ite
include s
ĠST ATE
('- ',
Ġpur poses
Card NumberField
Ġcooki es
COMM AND
ADMIN S
tected Resource
ĠSocial Account
CHECK BOX
review ed
Ġtri al
iscover Runner
ĠAction s
ĠEventPage Form
napsho ts
Ġdiscount s
PH OTOLOGUE
Parent Model
Ġremain der
stru ction
Ġfil elisting
ĠQu ality
bed Interface
ĠSync Mock
ĠCre ditCard
SOC KET
Ġwait ing
ffff ffff
ĠTEST LANG
QUE UE
ĠPort let
mbo lizer
Ġrepe ated
Ġgre ater
ĠCO MP
uck y
Confir m
tod o
MARK UP
ĠSH A
LEVEL S
Easter n
hack pad
ĠTer rit
|$ )
AlterModel Options
Destroy APIView
Progress Bar
ENCOD ING
ĠAPNS Device
mend ations
quen ces
MEN U
UNI QUE
Scraped Obj
IPEL INE
maSepar ated
! !
" [
" (%
) ()
, %
/ [
/ $'
3 01
3 60
5 50
8 25
; ',
A VE
A nother
B lan
B illing
C ar
D uration
E G
E AD
F r
F unction
G lobal
G RESS
H M
L V
L es
L ook
P A
P F
S ing
S table
S afe
S ale
U LE
W ai
Y ak
_ ',
b ian
b roker
b tn
c ust
c ross
c fg
c ascade
e ven
f ine
i at
i red
k owski
m c
n el
n plurals
o aded
r w
s in
s by
u y
u ay
v ailable
v ÃŃk
Ã ĺ
ã ģ
Ġ US
Ġ YYYY
el d
el ou
el li
Ġ' '}
in correct
in tegration
se o
(' __
ar s
Ġi rc
Ġ" ?
Ġ" ".
Ġre named
Ġre strict
to k
ur u
Ġp uppet
na ctive
Ġf rozen
ing TestCase
id a
id ay
il s
ob r
ch al
Ġin v
co st
set ype
Ġb ans
ex change
') ())
sp ac
Ġ( _('
pro mpt
and atory
Ġm u
Char TestModel
Ġd type
Key RelatedField
Re q
tr ansition
Ġe asi
ĠP ass
ĠP ER
ĠP layers
mb ourg
Ġex plorer
file path
Ġ1 50
ca me
ol dest
ĠC OL
mary KeyRelatedField
Ġt inymce
sh are
ag os
com ma
sc an
Ġ2 8
Ġfile size
ĠRe gular
ĠM IT
ĠM issing
ĠE V
ĠE MAIL
"> {
OR IES
ĠF oursquare
Ġg zip
ĠH ost
ĠH EAD
hol m
12 4
Con nection
Text Block
ow s
ow icki
01 5
01 19
contrib utors
ĠB ad
ĠB atch
sub total
sub classes
den se
Ġwe ak
ĠUser Report
Ġv otes
read only
Ġpre pend
To Cart
Ġversion ing
tra ces
Ġpri or
Ġ(" /
Value Dict
Object List
ap ore
ĠPage User
ĠEx it
Ġadmin s
Ġadmin ist
(? =
Ġauto matic
TE AM
ym File
Ġindex ed
pop ulation
Ġmsg obj
config uration
config urable
Ġ5 6
ong a
END POINT
local time
Ġ6 00
queue d
DO WN
FOR CE
Ġqu it
ĠImage s
Ġpy gments
nippe ts
Ġ'. /
Ġmin ute
ĠTh umbnail
',) }
ĠAn nouncement
EX IST
Ġposition s
Ġser vices
lookup s
ĠOAuth Error
Ġret val
dj admin
Ġiden tification
Ġlock ed
15 00
ĠAuth Identity
{} .
Order Item
Render s
ĠSimple UploadedFile
Ġerr no
Ġdoc string
ĠApp ly
exp licit
ev t
ĠEmail Multi
An y
pol ls
La bel
Ass ignment
xe mbourg
NOT ICE
Update DestroyAPIView
ĠWAR NING
sla va
ĠPhoto Factory
schedule d
Ġpur pose
Ġ', '.
AA A
ĠValid ate
ĠPerson Table
Ġsy mbol
Proxy Model
Ġar bitrary
Ġla unch
utc now
glob als
QUAL ITY
cl one
Ġrecur sive
Ġmime types
ini que
readed Comment
Ro setta
Ġvouch ers
Ġlower case
'{{ #
ĠBoo l
EXTENSION S
World Application
vile ged
amo a
ĠSESSION S
ĠADMIN S
micro second
indi cator
Alternative s
ĠParent alKey
Ġleg acy
ĠLazy Encoder
ĠHello WorldApplication
DEV SERVER
ĠSER VER
Ġrecie ved
ĠOB SOLETE
CHED ULE
Kent ucky
jÃ¤ rvi
strument ation
Quick Element
intern et
elou pe
ĠEmailMulti Alternatives
) \
/ ">
; \
A Z
B ad
B it
B SD
C G
C Z
C IES
G al
G ood
I SE
J O
J son
J ama
L B
M K
M id
N A
N ext
P e
P r
P on
P atterns
R M
R andom
R GB
S w
T ells
V el
W a
] ])
a co
b ul
b ank
d c
d In
e vision
e ks
g ly
h i
h al
h rules
h umans
j ub
j query
m oc
m iddle
p w
t ling
} ]
} ",
} ).
Ã ¨
Ġ //
Ġ joe
re builder
te ardown
st uff
de pendencies
th umb
ro e
al d
ge on
(' {{
ss ary
ct xt
Ġ" :
Ġc f
Ġc nt
Ġre fun
Ġp p
Ġp adding
'} },
Ġth ing
ou ti
ri atch
ch ron
Ġs an
Ġs im
lo ssary
Ġb usiness
Ġb ranch
ex i
ex plorer
pe i
Ġ( @
pro vince
lu b
lu tils
Ġto uch
Ġ""" <
is ValidOrigin
url parse
Ġno tes
Ġh orizontal
ated Page
Key Error
per mitted
tr uncate
ĠS a
ĠS p
ĠS hipping
ĠS yntax
Ġcon sumer
ĠA lias
=" ?
Ġex i
ror ation
Ġ1 999
ĠC ol
ĠC mdset
Ġt xt
Ġform sets
sh utdown
ag ad
ag ua
ction aries
ip n
add QuickElement
com mendations
response s
Ġde ni
ot te
Ġco erce
AT A
AT ER
Ġver tical
ĠRe quired
Form Mixin
context manager
ST ER
ĠO f
Ġch r
Ġch ance
ĠE XP
js ki
ĠF eature
ĠF avorite
ĠG ame
last ic
tag ging
image kit
serializ ed
Ġcontext manager
ĠN ULL
Ġare a
sub type
sub region
back ground
ĠUser name
Ġview name
RO P
og raph
fo ur
Ġpre tty
Ġsub region
revision plugin
ĠU sing
Not An
mod ify
Ġauth entic
Set up
Check out
ĠGroup Assignee
Di ctionary
Permission Test
Ġ\ '
pay ments
List Field
List Block
List APIView
cc p
Ġgener al
AG ER
local s
Ġoper ating
Ġinter national
Ġunder stand
ĠImage Field
TI ES
Ġover riding
Product s
rece ive
Th umbs
000 4
Ġstri ct
cr ub
14 9
Resource s
Ġlook er
QuerySet Wrapper
Ġfull y
Ġfull name
Data Form
Ġag gregate
For Date
Ġreport s
_% (
Result s
ĠSt art
Ġmail box
dispatch er
ĠType class
An onymousUser
Social Auth
WORD S
rot tling
88 88
ĠMessage Builder
ĠRemove s
Ġmonth s
ĠSE CUR
Gu y
CHAN NEL
Ġ201 5
TRAN S
ĠValid ates
Ġdetermin ed
COMM ENTS
Frame Options
imilar User
does nt
Le vel
ĠDelete s
ĠSocial Login
click jacking
Ġtrack ing
Ġreference d
ĠPri vacy
ĠForeignKey Source
rating s
vok ed
ĠMo ve
ĠBe autifulSoup
COOK IES
ĠGeoNode Exception
================================ ========
EV ENTS
EV ENNIA
INTER VAL
("- ")[
Wh en
BRO KER
Ã¶ r
Sync Mock
ĠVariable s
Save s
Browse View
Ġcombin ation
ĠInvite Factory
Ġatt name
Ġinstanti ated
rontab Schedule
Clipboard Item
ĠRegex Field
OVER RIDE
Ã° ur
Bah ia
Ġoptim ization
MAG IC
Ġprin ting
inclu ding
annotation s
EXCEP TION
Ġcommuni cation
bre vi
ĠOffline Compress
capital ize
}? {
ĠUP DATED
ĠNul la
ĠFun Fact
Sing apore
Yak ut
Ġdeni ed
NotAn Integer
) [-
0 12
: ]:
A q
A la
B IT
C ore
D ialog
D awson
F ree
H o
H er
H ong
I I
J A
K e
L is
M ari
M ak
N me
P ago
R u
S N
S ur
V ince
W al
X FrameOptions
Y ear
Z IP
[ /
] *-
b ers
b cd
d ts
g on
g md
h ua
i qu
i ra
i mb
l je
l oud
m cs
n ja
n orman
o zillians
p lus
r q
t u
t up
u el
v ector
w kt
x ls
Ġ Integer
Ġ ES
Ġ Your
el come
er g
Ġ' ;
Ġ' ^
Ġ' '}),
te a
in box
se curity
an ded
st reet
ti slava
ar ing
Ġi de
Ġc ent
Ġre served
ur lutils
Ġp osi
Ġp ep
Ġp ipe
def er
Field Renderer
Ġf act
ort als
ob a
ch unks
Ġs low
rom o
co mb
lo ur
from timestamp
"" ",
Ġb ig
Ġb roker
() ['
ex clusion
') }
di sc
Ġ# @
fi ve
assert Form
is obsolete
Ġm xp
Ġm atter
Ġd ts
group countbyminute
all Rating
Re usablePlugin
ger evision
ĠS Q
Ġe tree
ĠP ick
ĠP rint
Ġpro ceed
)) ))
us ki
est s
Ġu a
ĠC at
data store
Ġt alk
ist art
ele ss
": [
User Data
et tings
Group s
ĠD I
ĠD elivery
Ġdi ctionaries
Ġ2 7
Ġde coded
Ġde activate
Ġurl quote
py pi
Ġon line
eri fi
ĠL I
ĠL ocation
IN CLUDE
ĠF oo
Ġme ss
Ġal phab
View s
last mod
Ġg ram
Ġ0 1
ype d
AN IZATION
for bidden
pre serve
Ġ@ /./+/-/_
ĠN ull
Ġdb id
sub process
LE TT
URL Block
:// *.
IC K
GE D
ost ok
Ġlo c
Ġ< <
Page Revision
cache files
ĠPro cess
boo t
ĠR SS
ĠR FC
Ġli t
De codeError
Response View
'^ ([
row ski
col no
fun cs
op s
Ġid f
Ġcre ator
Permission Denied
Ġsh or
ĠIn clude
tifi cate
MO ZILLIANS
Ġup dating
ĠCon fir
Event Condition
ann ing
Ġpublish ing
LO OK
head ings
be verage
JSON Renderer
social app
tin ent
Ġj ane
+) /',
gin x
Ġcol s
ste ps
Ġgener ating
Ġpo licy
ng ine
local flavor
Ġcustom ized
80 80
Ġremove s
Ġdisplay s
22 2
VERSION S
Ġparser s
44 44
ib ral
Ġplayer name
PAT TERN
Ġfin ish
ĠOAuth Lib
ĠTag Field
flag ger
flag ged
Index View
Ġopen id
her its
Ġmanage d
ĠFile Blob
ĠAttribute Object
ĠDi ct
With Thumbs
MIN UTES
ĠTrans fer
ĠSt ates
:` ~
require ments
Post CodeField
ĠSho w
blog gs
Chooser Model
Social Token
Authentication Form
Authentication Backend
Regist er
orph an
ĠMessage Recipient
Menu Node
Ġpop ular
Ġsimple json
sla sh
some where
mu gshot
ĠCom mon
ĠTranslation s
ĠComp ress
State Select
OB SOLETE
Title Extension
Ġrole s
fe es
light ly
Ġhappen ed
SIZ ES
ĠAuthor ization
Sp lit
ĠOR DER
CONT ACT
ĠAL LOW
differ ent
Ġtri ed
ĠMon th
loc mem
Registration Form
'{ [
Per m
LOC AL
Translation Options
unt yped
zes ki
'| [
('.') [-
Bra tislava
ĠXXXX X
Range Filter
Ġintro duce
Ġslash es
Ġgra vatar
Ġrespon d
Ġrespon sible
every one
ational Error
BL ACK
~~~~~~~~~~~~~~~~~~~~~~~~ ~~~~
ima gerevision
nick s
analy zer
ĠDATAB ASES
Local FlavorTests
Ġrand int
lah ti
ĠUN TRANSLATED
high light
MPTT Model
Old View
Ġmean ing
urli ze
ĠSTR ICT
ĠAttemp t
Ġmonkey patch
Ġwild cards
ĠVAR IANT
Department Select
Mount ain
Carousel Item
IDENTIFI ER
Ġfrozen set
Ġeasi er
(?= \\
ĠSECUR ITY
XFrameOptions Middleware
]*- *
iqu elon
ibral tar
WithThumbs Field
+ \
+ ')
- '
2 32
5 12
: ",
> {
B I
B ur
B RE
C D
D IT
E d
E v
F e
F ull
F ij
F ACES
G er
G ab
H older
I mple
I gnore
J P
K ing
M Z
O ver
R F
S cope
S ORT
T P
T ai
b roken
b Ã¦
b odies
c ron
d om
f name
f ragment
g ic
i v
i res
k k
k l
l legal
m up
n n
o to
r ght
s f
s ur
s napshots
t k
t shirt
v ouchee
w an
y ri
| [
Ð ¸
Ġ nav
Ġ USERNAME
Ġ UTF
el ines
Ġ' :'
re ssion
re main
on d
or ra
ti t
ti us
al so
ar ily
Ġi ce
Ġ" {%
Ġc lash
to many
Ġp ub
Tr y
ce an
Ġf ri
ch or
Ġs uggest
li mb
li sa
Ġin finite
Ġdef er
no input
ex e
di ctionary
val ign
'] }
qu oted
__ )))
Ch ica
is file
Ġm time
=' -
pa che
uni tid
=" {%
ĠC lear
he el
Pro tocol
po li
tic l
et ched
Group Resolution
ip ython
Test Form
Ġde crement
Ġon to
AT ORS
ans ki
ĠRe ce
Form Entry
Ġl hs
ĠO P
ĠO c
ĠL ocal
IN AX
ĠF ailed
ĠĠĠĠĠĠĠĠĠĠĠĠĠĠĠĠĠĠĠĠĠĠĠĠĠĠĠĠĠĠĠĠ ĠĠĠĠĠĠĠĠĠĠĠĠĠĠĠĠĠĠ
Ġal ign
ĠH idden
admin docs
Ġwh ite
SE CON
Ġcontext lib
Ġun escaped
ĠTest Page
Ġma ch
Ġv ary
Ġ3 00
AR GET
og a
Ġpre decessor
av ana
Ġab ort
ee ks
ab a
search data
'^ /
ĠGroup Member
ĠGroup Hash
TT YPE
Object DoesNotExist
Ex clusion
Di sp
Base View
Base Serializer
ĠIn vitation
Organization Option
right s
Ġup tod
Ġ%} """)
my article
USER NAMES
34 4
St ates
AD ATA
Ġnode text
be havi
dis allowed
Ġtag ged
List CreateAPIView
pick led
Block ed
Ġfollow ed
local filetype
Image Model
Ġinter pre
Ġunder scores
At tach
uri tius
cmd name
Ġcount down
month s
Ġmock ed
Trans fer
Ġover load
fact s
Ġtra verse
Ġow s
Th at
Th umbnail
wh atever
Method Field
000 5
cr umb
Ġser ialization
PAT CH
iden tifiers
Index Endpoint
gre es
ha pe
ĠFile System
ĠMock Request
struct ured
Ġtree beard
Access ories
Ġfail ure
ModelForm Mixin
Order able
Ġmon itor
ĠDocument Form
Ad ded
ĠField s
Ġrefer er
Ġnormal ized
igh bo
Web Token
Ġexc info
Ġconstraint s
termin ology
ĠLog out
Ġti mer
invite s
Child Model
ĠFilter Field
track backs
Ġplan s
broadcast seen
PasswordHash er
unicipality Select
Ġexec ution
Po int
ĠIP ython
Ġfn match
Lazy Object
DS ymFile
Ġscore s
IB ER
Le ss
ĠRel oad
tz info
Ġtrack back
ĠTree Item
gor ith
PR ICE
Ġhigh est
ĠMap Layer
Submission Fields
ĠBusiness Index
Ġz lib
ĠInter face
Lu xembourg
invitation s
SUB JECT
SUB SCR
PLUGIN S
ĠMo zillians
Ġ-------------------------------- ----------------------------------------------
INTER FACES
CHAR SET
ĠInst all
uss napshot
Database Wrapper
Ġgra b
ĠVirtualFolder TreeItem
Ġrestriction s
MI GRATION
emp loy
atri x
PAY MENT
stat ussnapshot
ĠHow ever
pas sed
Smart Card
SCRIP TION
tre es
ĠOver allRating
ĠRange QuerySetWrapper
WEEK S
ĠImple ments
ĠPublish er
CustomField Value
Spa in
Ġdump s
Ġbob by
\- ]+)/(?
prom ote
Ġretrie ved
tracked user
Refer ence
Absolute Filter
ĠLANGU AGE
ĠTop seller
ĠNE W
ORG ANIZATION
Ġprece dence
riti sh
SEPAR ATOR
CONTA INS
MONTH S
Ġcra sh
ended Text
ĠCalcul ate
Clo sed
Tracking Plugin
Jama ica
LETT ER
ĠCompress Command
BRE AK
Chica go
Ġuptod ate
SUBSCR IBER
$ ")
) -
* "
. </
/ '})
9 00
: ")
> """
B az
C V
C or
C ost
C ITIES
E AGER
F ill
G IS
N ET
O k
P inger
S om
S ock
S elected
S MTP
T IC
W F
W AY
W orker
Y A
Y es
Y ES
Z A
Z ero
] },
] )))
_ *
a con
a pt
b ro
b ia
d al
d ry
f olk
g ma
g gle
h int
i map
m ute
o pic
p ins
r ated
s word
s rs
t user
u ti
w p
Ġ tail
Ġ' ()
in p
in lines
in quent
an o
de s
de ntry
de ad
de coded
de cline
me th
le ep
th ough
al and
Ġ= >
ar on
ar ticl
db ack
db ox
Ġ(' ',
Ġc ir
Ġre vi
Ġre build
Ġp oll
na d
Ġf our
'} }
age nt
id info
ma le
ma ila
ob fuscate
Ġin file
Ġin iti
Ġb races
() })
di strict
'] /
Ġ( _("
len ge
oun ted
ed f
ho od
Ġh im
ĠT wo
ut s
ĠS top
ĠS tock
Ġcon crete
ĠA ust
ĠP ay
ĠP ipeline
ĠP AY
Ġpro duce
Ġex is
Ġex if
mi r
Ġof fi
file names
ca pe
min imum
ist d
che apest
ele na
ther lands
po inter
vent ory
ĠI so
Group Tag
ip v
auth entic
com muni
Test Mixin
Ġde mo
Ġde signed
ly ing
Ġurl split
ĠM od
ĠM odule
ĠL u
ĠL oo
ĠL ook
ĠF rench
ĠG it
last icsearch
RE JECT
RE LEASE
par sing
SE P
################ ######
ĠB utton
Ġun used
Ġun subscribe
man ually
trans actions
ere vision
Ġwe eks
Ġnew unit
ten ants
fo x
TestCase Mixin
US H
ĠR ENDERER
"] ))
fig ure
Not Registered
=[ ])
Admin Model
new s
ĠGroup Profile
Ġany way
mal a
ze ch
Permission Tests
Ġorder able
Base User
Valid ate
Ġ200 9
ĠPage NotAnInteger
ron t
su c
AB C
static pages
Ġjson field
LO CK
ĠCheck er
invalid ate
Ġspe ed
run ei
Ġwas n
ĠV K
List ing
Create s
END ER
ic ate
Co lo
Ġcol li
Ġcol lected
imple ment
wagtaila pi
nav ailable
02 1
Ġcontain ed
cmd string
prefix ed
iss ubclass
ale or
Ġinitial ization
Th ing
No tice
ĠJ ob
ĠJ inja
TH AN
ĠModel Select
ib outi
fin ish
Ġ8 00
sync db
SER T
gre gates
Default Object
SO L
Ġiden tified
ĠSet ting
Ġfail ures
ni us
Data set
With Header
Order ingFilter
Ġimp licit
ĠSt ats
Ġerr string
igation Node
PORT AL
bad os
Ġob tain
Activity Feed
Ġtool s
Ġour selves
Ġim c
rest framework
Ġ"/ "
Ġsafe ty
eg gs
ĠChar Block
Ġrequire ment
imp licit
RI GHT
Ġpay ments
setUp Scraper
ĠRemove dIn
ĠFilter ableItem
Bu ild
mu da
ana ma
ĠGeneric Relation
Subscription Mock
04 3
DES K
Te mp
ĠCart Model
refer er
Ġ201 3
Broadcast Seen
ness Together
IB AN
CMSPlugin Base
CHECK S
Ġsy scmd
aa a
ĠForeignKey Target
ĠMulti FieldPanel
Payment Method
ĠBusiness SubIndex
ĠProfile Form
Ġschedule d
Ġattemp ting
ĠEmpty Title
Ġcap first
Parent alKey
EV ENT
feature s
Ġfil led
edIn sertion
Ġcomple ted
Ġreview er
Checkbox Input
ĠEmbed Block
ACCEPT ED
Business SubIndex
Ġdot ted
mac ros
Ġnick s
Ġ40 5
Embed ly
Ang el
deliver able
WID GET
ĠSkill Factory
KB Category
Ġface ts
discover ed
Ġ## #
ĠRenderer B
vile ges
Ne gotiation
Rich TextBlock
ĠMa ximum
bn icate
Int ro
ĠReykjav ÃŃk
ĠTransaction TestCase
Ġconsi st
buil tin
ĠDetail View
ĠRich TextField
cend ing
Ġpossib ly
Ġpair s
Ġ14484 99
ĠNav igationNode
Ġpoin ting
UNIC ODE
Ġbasi s
ĠSensitiveData Filter
fro bnicate
Integration Test
ĠRandom CharTestModel
ĠEnd point
scalation Exclusion
Imm ortals
ubmit ter
STE M
ĠCOMP RESS
lastic Search
ĠDI RECT
Ġ'() ':
articl erevision
maila dd
. '])
1 55
2 30
2 11
: /
= -
= (),
B ran
B ank
B rad
B runei
C mdset
C alled
C ord
C ALL
C rontabSchedule
D A
D an
D uplicate
E C
F ort
G ER
G uest
G ibraltar
J PEG
K G
K M
K er
K it
M or
M is
M UT
M ake
N ow
P AL
P osition
R ot
S to
S ort
S ta
S uper
S ee
S loven
S tripe
T G
T UT
T im
T WARE
T ACH
W MS
W eek
W izards
\ ":
c las
d og
d rag
e ik
f q
g un
g os
g ua
g lossary
h aystack
m ce
o pacity
p c
p f
p roration
q param
s l
s fields
t all
v f
w eeks
} /{
} :{
} -{
Ä Ĺ
Ġ RO
Ġ Value
Ġ' //
re fs
or i
se ct
an ka
le ared
al o
al ready
(' [
(' </
(' ..
(' {}
), )
ss h
Ġi e
Ġi am
ate mala
Ġ" ").
at om
Ġc la
Ġre stored
Ġp r
Tr ade
Ġa f
Ġf ff
ser ving
id i
id ocs
up stream
en g
en ne
Ġs nooze
Ġs kipping
Ġs nippets
Ġs lightly
Ġin f
lo v
Ġb lue
di ce
di stri
di alog
Ġw arn
un lock
un safe
Ġo pacity
sp ubli
pro j
__ (),
con dition
vi e
ed ge
assert Greater
ra in
text s
Ġm t
pa ste
00 44
per sisted
tr un
mar ca
Ġcon sistent
Ġe ar
Ġe fficient
ĠP H
ac ob
bleForeignKey Source
(" '
(" .")
ca ir
ist or
app y
ms k
Ġ- %}
Group Snooze
ip ped
Ġ2 9
Test ing
Ġ__ ("
Model MultipleChoiceField
AT TACH
ĠRe spubli
Project View
ĠM B
ĠM ULT
ĠM agicMock
ĠO fficial
ĠL o
ĠL IMIT
IN V
qui v
OR IAL
ĠF unction
ĠĠĠĠĠĠĠĠĠĠĠĠĠĠĠĠĠĠĠĠĠĠĠĠĠĠĠĠĠĠĠĠ ĠĠĠĠĠĠĠĠĠĠĠĠĠĠĠĠĠĠĠĠĠĠĠĠĠĠĠ
ĠĠĠĠĠĠĠĠĠĠĠĠĠĠĠĠĠĠĠĠĠĠĠĠĠĠĠĠĠĠĠĠ ĠĠĠĠĠĠĠĠĠĠĠĠĠĠĠĠĠĠĠĠĠĠĠĠĠĠĠĠĠĠ
Ġg ma
Ġg ather
ĠH ere
ĠH ome
ĠH yperlinked
Ġwh atever
Ġ[' .
ĠB AR
ĠB ulk
ĠB rowsableAPIRenderer
Ġun set
Ġun saved
ĠTest Image
Ġapp lies
Ġat o
ĠW atch
Ġnew est
team less
Ġv s
IT TER
Ġgroup by
GE O
ug g
Ġlo st
og ig
Page s
Ġsub title
ĠR ate
ph p
Not Used
'^ [
Ġ`` "
}) /$',
FI RM
Ġrel oaded
Serializer MethodField
Ġsh utdown
ĠPage Admin
MO DER
10 24
Filter Failure
Ġ%} "
su ally
Tag Widget
Ġcho sen
Ġsu id
Ġsearch ed
St reet
node store
Ac tiv
run ning
Ġtr un
Ġman ip
List Mixin
ocial registration
Ġle ad
Ġro l
Ġro uting
Co sta
Ġlink field
vers al
CON FIRM
99 0
Ġcomp arison
ll and
patch er
Ġsign ing
perm less
Ġdelete s
ĠProduct Accessories
Ġshow s
API Exception
CL UD
DEL TA
ĠImage Form
ĠEvent Mapping
Ġpagin ated
Ġinitial ized
ĠCreate View
Ġ7 8
ĠSe kizai
ĠAPI App
ĠOrder ing
ali ties
ĠTh en
Ca pe
Ca mb
Is le
go ing
16 6
Ġpas ses
fail ing
Related Mixin
/% (
gno red
Ġthem selves
Gen erate
Task Meta
Name d
Ġter min
Ġtranslation s
Order edInsertion
many tomany
Ġport al
Ġbo to
Ġtemp dir
ĠType dObject
PORT S
Ġweb pack
ĠEmail Confirmation
Bookmark ed
IZ E
SH ORT
abc def
Nor folk
mu d
unicip alities
Ġcallable s
ĠTr ack
Ġexec uting
Ġinherit ing
Identity CardNumberField
Pal au
Regex Validator
SITE URL
Ġassign ing
ĠBy tesIO
calcul ated
Ġjob s
Script DB
chedul ing
ker nel
ITH UB
1111 1111
Ma uritius
FR ONT
IB UT
ĠY ear
upper case
ĠSocial App
MET ADATA
ĠRel ation
Ġtrack er
Match Type
Some thing
Bar bados
Mod ule
Ġcomb ine
Ġhit ch
yper link
Sk ill
ĠChannel DB
mmedi ate
AUTHENT IC
exec utable
ĠHelp Entry
Ġxml ns
Ġpl ur
Bel ize
recogn ized
SR C
Ġvisi t
ĠMark up
alternative name
ĠCached Methods
FormPlugin Base
ĠMO ZILLIANS
ouse Pet
Na uru
CENT AGE
nowledge ment
ĠFollow Up
ĠWE B
May otte
xs d
wri ter
Ġord inary
uer to
Ġol der
ĠTopic Category
Guad eloupe
Cay man
black listed
Translate View
Mart inique
Dj ibouti
ĠCompatibility BaseCommand
DIG ITS
Guy ana
Ã¶r Ã°ur
ĠNulla bleForeignKeySource
ĠConfir m
Fij i
ĠOc currence
structured text
TUT ORIAL
ĠRespubli ka
" |
$ "
) },
+ "
/ '):
1 75
1 999
2 40
2 44
9 38
: </
= /
> -
? (\
A sh
A uck
B C
B iss
G L
G ITHUB
H i
I LE
K O
L id
L os
L AY
M Y
M en
M ace
N R
O ffline
P en
P it
P anama
P uerto
Q y
S Z
S CRE
S UP
S taff
S haredMemoryModel
V A
V il
] ],
b d
b races
c atch
e ous
f ers
g uest
k at
n ate
o ul
r aries
s ten
s uggest
s coped
t m
u dio
u illa
v v
w cs
x c
z o
} _
Ã º
Å Ľ
Ð º
á Ģ
Ġ ())
Ġ joined
Ġ urlopen
Ġ ERRORS
Ġ Å¾
Ġ QUANTITY
er nse
Ġ' ../
in spector
in strumentation
an to
de vices
iel ski
ti gua
ue no
(' =
ar b
ss ible
ss igned
ate st
models inspector
at u
Ġ[ ("
Ġc set
Ġp dt
Ġf o
Ġf ar
Ġf uzzy
ser rat
'} ):
ou g
ig a
up ani
en tity
en ski
en cing
ch ase
Ġs alt
Ġs rid
ve si
## #
Ġb readcrumb
ert ype
ex am
') ;
di ves
Ġw all
un less
ass ocs
'] })
sp ro
ver note
date d
__ :
__ [
vi s
vi z
ra tic
Ġm andatory
=' _
Ġh ex
Ġh aven
ĠT R
Ġd ashboard
Ġd olor
it up
it ted
it ude
es o
group resolution
as sets
ĠS L
ĠS el
ĠS uggestion
Ġst and
Ġe ik
ith u
ĠP lace
ĠP eople
ment al
lan eous
Ġpro j
)) ):
est yle
Ġ1 11
ol id
ĠC SR
Ġt pl
he avy
ER T
ER VED
so cks
sh avn
po t
tic an
index able
ĠD ra
ĠD es
). ']
Ġas set
Ġdi alog
Ġ2 56
Ġ2 55
Test Serializer
import ance
Ġde serialize
Ġde cline
pi cture
Model ViewSet
mo z
mo ize
Project Endpoint
Ġl g
EN Y
EN AME
out file
ĠM ore
ĠM ux
ĠO b
Ġassert Raises
ĠL TE
ok a
ĠF ail
ĠG or
ĠG AME
ĠG raphite
Ġal gorith
event page
""" {%
RE T
if e
ia i
32 7
Ġy aml
for object
ow a
contrib ute
ĠB E
ĠB Y
ĠB illing
Ġun read
DE BAR
sub class
organization option
organization options
by pass
ĠUser CreationForm
Ġv ote
are as
200 5
link backs
40 5
'], )
')) ]
AL TER
[" %
Ġversion added
article forobject
reverse d
100 000
Type dObject
ifi es
Auth ors
Ġhave s
AS CII
Ġ> >
not null
bu f
Di r
==== ===
Plugin Base
Ġ200 0
tal ian
ap idocs
ĠPage ViewRestriction
File Input
Qu it
Ġup on
([ {"
Ġpost code
detail menu
point size
application s
Ġsave point
ĠV ariant
num eric
56 2
ĠCo lumn
cul ar
Command s
face t
wit ched
cel l
cel laneous
Ġpo inter
Ġpo tential
temp oral
ĠProject Endpoint
Ġlayer name
NU MBER
Ġsup posed
Ġtrans fer
zilli an
extension app
Ġqu ota
MAIL ER
ĠSite map
ĠOrganization Status
ain en
ale nt
TER MS
play able
tree items
Product Image
ĠSe curity
Th readedComment
ĠJ o
ĠJ avascript
ĠAn onymous
non existent
side s
ha i
Return ed
QuerySet Sequence
ĠMock Object
Ġ}} </
tutorial s
** :
ĠSt ate
ba a
Web site
Web TestBase
Pri ority
Run ning
exist ant
TEST LANG
Ġroll back
Ġoff ers
Ġmain tenance
fetch all
Gu am
State Field
Port ug
GR APH
batch commands
77 77
clusion Tag
ĠCON T
ĠMy Form
OUT PUT
Ġappro ve
Ġ", ".
Ġfinal ize
Inter nal
ĠDelete View
ĠRevision Plugin
pur pose
assertNotEqual s
ĠDo e
PAR SER
ĠSubmission Fields
Ġ'* .
ĠPar ser
paper size
ĠStri ct
Export View
ĠTEMPL ATES
ĠRetrieve Mock
Ġspecify ing
ĠStream Block
Ġplatform er
ĠBe ta
Sy mbolizer
Ġrf c
9999 99
birth day
DELE TED
flat ten
Ġgood s
CLO UD
Ġglob ally
We ight
Ġturn ed
escal ate
deliver ed
drop down
oob funcname
routable page
PROV INCE
Ġpuppe ting
Current Subscription
tt k
Ġwri ting
Voucher Form
ĠLet ters
Ku wait
alertplugin userdata
contain er
Updated Webhook
ĠNg Form
ĠBit bucket
ryp ted
Ġsw ap
Locale Middleware
SCHE MES
ĠPack age
ĠCAC HE
Ġbecome s
ĠSmart Phone
DUMMY CONTENT
REGE XP
Don ald
Fa roe
Va tican
ĠDrop box
vad or
Ġder ived
nop sis
occ upation
amel case
Ni ue
AwareS Mock
ĠCHECK OUT
prefer ences
UNK NOWN
reusable plugin
PRIV ATE
Ġunt ranslated
Rosetta Storage
moc ratic
Wal lis
assertForm Error
istart swith
Ġlit tle
tit ude
WAY S
SOL UTE
Ġ1448499 344
Cord oba
MUT ED
distri bu
0044 61
cair n
quiv alent
Auck land
Biss au
SCRE EN
ĠÅ¾ upani
ernse y
ueno s
ĠCSR F
ĠÅ¾upani ja
( ...
) /
) '}),
) "),
. @
0 123456789
2 20
8 80
: #
= ()):
> ]
A z
A re
A th
B G
B re
B ang
B IDDEN
C ED
D el
D IC
D istrict
D ENY
G T
H ousePet
I RES
J AV
K am
L R
L U
L AG
M H
M atrix
N P
N ational
P attern
P IPELINE
Q atar
R C
R om
S B
S IL
S SO
S imilarUser
V erifi
W ITHOUT
W ork
] ")
` '
b on
b la
b ly
b ir
c vc
d at
d aily
e val
e mon
f p
f loppyforms
g ot
h ance
h andling
i ving
j acob
l or
m x
o i
o pe
s q
s v
s il
s Tests
v ote
v oid
w y
w rap
z oom
} [
Ġ er
Ġ ke
Ġ ONE
Ġ BoundedBigIntegerField
el ated
er EmailBackend
Ġ' >
on th
in strumented
se th
st ers
de o
ti ming
le in
le ad
le ast
ro ck
ar ta
ss p
model cluster
db field
at most
Ġ[ :
Ġ[ <
Ġ[ _('
Ġre store
Ġre actor
Ġre jected
to c
to la
ur ant
Ġp ure
ul o
Tr i
Ġf ee
Ġf rontend
Ġf requency
la cer
get attribute
Ġs am
Ġs af
ve c
Ġin form
que s
Ġb link
() ")
ex pression
di c
ad just
Ġw sgi
un defined
val Schedule
'] (
Ġo mitted
qu ux
ore d
fi zz
assert List
url name
Ġm ix
Ġ} ],
Me m
Re g
ĠS u
ĠS ort
ĠP olymorphic
ĠP lur
ĠP refetch
Ġpro gress
pri or
Ġex pose
us ually
om er
mail s
Ġ1 34
Ġ1 36
Ġ1 500
ĠC al
ĠC SW
Ġor ph
view er
Ġn matches
": {"
Pro vides
app name
ms ki
list s
User Mixin
User CreationForm
tp l
ĠI T
ĠI nt
ĠI MAP
ĠI mmediate
et ter
et ween
create s
ĠD en
lin ed
Ġdi v
Ġse es
Ġse kizai
sc anning
Ġ2 6
Ġ2 50
Test Result
Ġde pendency
Ġfile type
query string
um ing
ĠRe gression
out side
ĠM ASK
eri a
ĠO k
ĠL T
ĠE XT
ĠF ranc
ĠG ithub
Ġg uest
12 10
RE VERSE
Ġra tio
Con vert
Ġan nounce
Ġ[' "
Ġac l
Ġac cepting
Ġstr ategy
ĠB ASE
Ġun expected
man ufacturers
sub s
ĠTest Admin
URL Resolver
sta urant
ME DI
are st
sy nopsis
AL PH
Ġlo t
Ġlo cally
RO L
Ġab brevi
Page Extension
Ġcur ators
ĠPro cessed
Ġca pabilities
AP ER
tra iling
Ġsub pages
ĠR ES
ĠR ow
PO P
ace str
Ġen counter
Ġpri vileges
De corator
mark itup
search es
'^ ',
Ġ`` <
PL ANS
ĠGroup Alias
Ġmod ification
.. .")
Ġcall ertype
Ex pression
bu zz
Permission RequiredMixin
Permission Matrix
Base Cart
mon g
Ġevent ual
ED IN
Al readyRegistered
ĠEx ternal
ĠEx tends
del icious
del inquent
task meta
ĠCon nect
Filter ed
ak arta
my link
groups nooze
EL NET
UN TRANSLATED
cy cle
Un connected
34 64
ĠCheck box
Ġout come
AD DED
be acon
social token
Ġtarget s
run server
+) ',
ĠV ouch
dis miss
Ġrun tests
Ar uba
Ġman ifest
")) .
Ġstart up
Template Tag
PRO GRESS
block ed
Ġ/ >',
width s
temp dir
ĠProject View
inter sphinx
initial izer
Ġedit ors
DO MAIN
At tr
FOR WAR
FOR BIDDEN
Ġpack ager
ĠSite Resources
ĠOrganization AccessRequest
ĠCreate Mock
TION ARY
Ġ'_ ')
Ġ7 0
Ġline break
Th rough
No v
wh isper
HTTP S
we ak
err no
go v
net work
Ġread able
wa its
flag ging
19 1
Ġ12 345
Password Form
SO UTH
ĠCustomer Tax
Ġexample s
Inline Test
Inline AdminForm
tro ll
ane se
avatar s
Ġattr name
ling on
ling ual
Ġexpi ry
Ġdifferent ly
An tigua
Authentication Failed
CS W
SQL Diff
Ġnum eric
Ġown ed
close ness
Ġte sted
Ġdep end
tab s
IM ATCH
Ġboo st
Mon te
Mon aco
Ġskip If
Ġpop up
ĠCustom Field
pass wd
="" ):
Simple ListFilter
Gu atemala
Identity Field
ĠCON TR
AA AA
urlen coded
Ġdebug ging
Ġappro ved
onical Slug
Ġstrip ped
ĠIP v
1111 11
StatusCheck Result
ĠCountry Factory
Sh ift
Match es
Photo Size
ĠLogin Form
Wagtail Admin
Ġar ti
ĠMulti ValueDict
ĠStatic Block
Ġz oom
MULT IMATCH
Ġrep orted
Ġinvoice s
Mail erEmailBackend
ĠPre pended
cd n
iso format
SUB SCRIPTION
Ġes cal
Ġes sen
Mal ta
Mal dives
Ġtrigger ed
Ã³ n
================================ ========================================
AIL ABLE
Ġppv s
Ġdigest s
ĠQu ick
ĠEmbed Value
Business Child
Cri tical
bur y
BE AT
ĠLe vel
Gre nada
Ang uilla
ĠCO MM
Objects Returned
And orra
ansp ose
statuscheck result
Ġfew er
ĠTRANSL ATION
SUGG EST
Ġthrow n
Ġpuppe ted
ĠHandle s
(': ',
Rece iver
Ġ%% }
Ber muda
ĠPer form
LINK EDIN
Bah rain
Ġintern ally
ĠMay be
Iter ation
Iter ator
Ġcm splugin
Dom inica
ĠSignup Form
buil t
("" )
ĠInitial ize
nauth orized
Userena Signup
ĠSup port
+| /[
ĠScheduler Runtime
Ġdev server
ĠLO GIN
Mix In
Ġcontin uous
Ġbeh ind
CANCEL LED
ĠCss AbsoluteFilter
>.*) $',
Ġguarante ed
omp k
|$) +|/[
cust ompk
ĠSa int
ĠFileSystem Storage
ighbo urs
Ġcir cular
Angel es
Mis cellaneous
Ġato mic
CONFIRM ATION
ĠSekizai Context
938 90
Pit cairn
ĠassertRaises Regex
DIC TIONARY
assertList Equal
Ġorph ans
FORWAR DED
% ',
+ -]+
2 25
4 32
4 22
A g
B J
B S
B uenos
C ata
D ob
D ouble
D iscoverRunner
E s
E nder
E ffect
E MPTY
E MBED
F k
F etch
H AS
K A
K R
K Y
K a
K wa
L ou
L jub
M U
M end
P B
P W
P eople
R ussian
S el
S ty
S orry
S mith
T L
T w
T OP
T otal
U V
U sing
V T
V e
V ote
W B
Z gor
[ (
] [:
b f
d ann
g uess
h y
h umbnail
j p
n z
o mi
o za
p ted
r ator
y tags
y aml
} /
} $')
Ñ Ģ
Ġ Ã
Ġ ----------------
Ġ Member
Ġ ending
Ġ 000
Ġ ssl
Ġ YourMUD
Ġ answer
Ġ lyr
Ġ ##############################
ĠĠĠĠ ĉ
Ġ' `
Ġ' \\
re y
re start
or l
or ac
in f
in vited
se m
an an
ro v
ro ati
(' "
od z
ar h
Ġi g
field set
Ġc leared
Ġre gression
to s
ur rect
Ġp s
Ġp ow
Ġp inger
ul ating
Ġf it
ser ial
django snippets
id ers
il ities
ri fy
en sure
ob in
ch el
ch ant
Ġs fields
rom ise
user default
Ġin cr
Ġin viter
Ġin crease
no reply
Ġb lin
Ġ# :
Ġw s
Ġw ays
un ma
un set
'] }}
qu o
ver ification
Ġ( ("#
ble m
__ %
__ ('
__ '):
and line
Ġfor um
ra ster
ra dio
Ġis o
Ġh its
Ġh mac
Ġd ark
group dict
Re union
tr ansport
ĠS ent
ĠS ame
ĠS ET
ĠS imilar
ĠS tyle
ĠS OF
ĠS AVE
Ġcon version
Ġcon tra
Ġcon troll
Ġe ver
ĠA CT
ĠA tom
ĠA UTO
=" {}
mb ig
mail box
(" {%
ol ated
ĠC A
data Store
Ġn atural
Date Widget
User Settings
User ObjectPermission
ER O
tp ython
po tential
tic ally
du ces
et ty
ĠD IS
ON LY
Ġas sets
Ġdi stance
com mented
Ġse quences
Ġde pendent
py dann
sult s
mo val
ĠRe present
Ġl m
ĠM ESS
ĠO OC
ĠO THER
ĠO dnoklassniki
ĠE T
ĠF eed
ĠF iler
ĠG R
ĠG XP
Ġme ant
ĠĠĠĠĠĠĠĠĠĠĠĠĠĠĠĠĠĠĠĠĠĠĠĠĠĠĠĠĠĠĠĠ ĠĠĠĠĠĠĠĠĠĠĠĠĠĠĠĠĠĠĠĠĠĠĠĠĠĠĠĠĠĠĠĠ
sk y
Ġal though
Ġg oogle
ĠH er
Ġclass ytags
12 0
12 12
Ġr c
Ġr t
Ġ[' -
pre set
pre tty
ĠN ONE
ĠB roadcast
ĠB oth
DE F
sub pages
ĠTest User
Ġapp model
Ġapp hooks
cur r
ĠW arning
uture ModelForm
ĠUser Login
ten tially
read able
pen sive
AL T
Ġab spath
Ġca uses
Ġca pture
change set
AP EST
Ġsub s
Ġsub total
ĠR Q
ĠR ed
Ġhelp text
De tailed
ĠU I
example s
Check CreateView
Se cond
OT STR
Admin Email
Ġ] ))
level s
level name
ĠGroup Form
ĠGroup Snooze
Ġimage kit
gf k
Ġid string
DI FF
Ex empt
Base Permission
ces ses
Ġsh mup
ĠIn stead
ĠIn coming
ĠPage Form
File Path
access ory
ĠAdd s
Ġ4 5
my project
Ġsys arg
EL S
AB ET
IS ITE
ĠDe mocratic
34 7
HO ME
im c
tin y
Ġsee m
Ġcom mas
Ġj ava
ĠV er
=( ('
Ġ'{ "
ic ro
Ġfunction al
Co cos
Ġ'/ '.
Ġsta tistics
Ġcomp ression
ĠsetUp Class
ticket dependency
Ġinvalid ated
ĠProject Status
Ġtrans lator
ged TestModel
inter est
ĠProduct s
Ġend for
API Endpoint
Ġpython path
Ġlast name
DO ES
ash i
ĠEvent User
gen res
Product PropertyValue
web client
ful filled
gener ators
Ġrece ntly
domain s
ĠJ WT
Ġregister ing
Index Error
Widget Form
ĠExample View
19 8
fail s
Article Subscription
hone NumberField
Password Reset
Ġexclude s
ĠCustomer Model
ber ry
ĠAttribute Dict
42 3
Ġiter ation
Ġwork ers
stack ptr
Ġfail ing
ĠArticle Plugin
With ProgressBar
Ġselect or
Order By
Ġmon it
Ġrelease s
Render ingTestCase
Ġne goti
ĠSimple Plugin
sole ted
dev server
ĠCa ptcha
ont Send
COMP IL
WS LETTER
Ġspa tial
Ġgen erics
Cre ating
Regist ry
Ġmove s
DIRECT ORIES
Ġoff line
eg g
ĠWh at
imp orted
ĠCustom PK
Ġimplement ing
PY THON
Ġstack traces
CHE APEST
Ġindi cate
COMPRESS OR
Gu ernsey
note book
Ġensure s
FL USH
Ġlive mode
He avySelect
DES IGN
uz z
59 5
Ġreason s
DIS PLAY
lopp ify
reque nt
ĠIP AddressField
Callback s
ĠAss ert
('^ [
ĠAddress Management
Ġsuggestion s
Ġemote s
CHECK ER
Ġcalendar s
ĠVoucher Options
Ġenter ing
person a
ĠLogin RequiredMixin
Created Webhook
Ab orted
graph ite
Per manent
Spe cifi
NE WSLETTER
ĠInter net
Export Mixin
REGI STER
ĠStream Field
Ġperson al
assign ment
COL OR
bj erg
Ġcontrol led
ĠRa ise
AF T
Framework Model
Ġnet loc
ĠGallery Factory
WN ER
Ġdrop down
Ġstat uses
ĠSpe cial
ĠMenu Node
Ġcomple x
ĠLib raries
VI DED
VO ICE
xxxxxxxxxxxx x
PAY PAL
WAGTAIL API
ĠPort al
GROUP NAME
WEB SOCKET
BL UE
Ġtruncate chars
uu uu
rich text
analy zed
ĠOr igin
ju y
LT PhoneField
ĠHe avySelect
ili pp
Ġcome s
ĠGu inea
Read Only
Ġsen tence
ĠActiv atorModel
GENER ATOR
HELP DESK
Ġintern et
Ge orgia
Pod gor
PayPal PDT
Ġconsi sts
ryp to
ĠContact Role
Ju juy
Ġcar rot
ĠCri spy
phan ed
Br us
ĠOnboardingTask Status
Ġmys hop
ĠSpa tial
Jer sey
Ġss n
Ġindic ates
MODI FI
COE F
Regexp Matches
PROVID ERS
inv ocation
ĠFeder al
Mont serrat
Fr ance
chal lenge
Ġposi xpath
Ġalphab e
orphan ed
somewhere awesome
ĠALLOW ED
Disp osition
Ġrevi sed
Ġexis tence
ĠIso DateTimeField
ĠModule s
Notice Type
ĠRemovedIn Wagtail
ĠOrdering ListView
Ath ens
Ġke pt
ĠEXT ENSION
Cata marca
Mend oza
orac le
ĠSOF TWARE
ĠSAVE POINT
pydann y
ĠUserLogin Context
OTSTR AP
AdminEmail Handler
ontSend Entry
DESIGN ER
& _
' /
* \
+ +
7 16
= `
> """)
A ST
A jax
B ulk
B lack
C AT
C enter
C olor
F ault
F ake
G ame
H IL
I V
J ust
L on
L ong
L MN
M V
M ur
O j
O OC
O fficial
P EN
P AN
P ART
P oly
R J
R ING
S M
S PL
S top
T ea
T inyMCE
U ri
V ouch
V isa
W indows
Y EL
Y NC
_ :
a ched
b es
b cc
b etween
c wd
d ash
g xp
i ct
j st
m ulate
m obile
n if
p unctuation
r usage
r alian
s no
s View
s oup
s leep
w ant
x term
y o
| )
} -
} _{
Å ł
Ġ ,
Ġ lu
Ġ USER
Ġ angular
el if
Ġ' '},
re cache
re duce
re commendations
on to
in n
se c
st h
de precation
ti ff
ti mal
me di
ro uting
ue s
sel s
(' ../
Ġi y
model admin
Ġ" âĢ
ang a
Ġp tr
Ġp eep
Field Model
ect ors
Ġa go
Ġf ly
Ġth ink
id Task
en coder
Ġs can
Ġs acc
li de
Ġimport er
lo red
from string
Ġb og
Ġb roadcast
') },
Ġw agta
un used
un saved
ass oci
ĠĠĠĠĠĠĠĠĠĠĠĠĠĠĠĠ Ċ
Ġo mt
qu ell
sp rite
pro vinces
ign ature
__ ')
Ġto tals
test setting
ed File
Ch ile
assert User
assert Template
assert RegexpMatches
one s
ra se
ho o
ho urly
Ġm c
ĠT im
ĠT icker
Ġd s
ub e
In herit
per form
ĠS K
ĠS um
Ġcon versation
ĠA k
ĠP agination
ĠP eriodicTask
pri vileged
Ġtest Can
Ġex empt
ime o
mail to
code names
Ġ1 80
Ġu seless
ĠC ategories
Ġrequest ing
Ġn l
Ġn db
Ġbe have
DateTime Widget
sh ake
sh ell
et ree
Group Profile
create dict
ĠD own
filter set
ip address
Ġas ync
sc rap
Test App
Ġde construct
Ġde precation
Ġurl un
Model Api
Ġco st
Ġco lour
table Page
ay ers
um ul
Ġmodel cluster
Ġl ru
ĠL td
ĠF K
ĠF LAG
ĠG uardian
ĠG reen
ĠH O
ĠH ub
Ġr gb
Con stance
plugin model
ample s
32 0
serializ es
pre sented
ĠN L
ĠN PC
ĠB etter
post code
post WithHeader
ĠTest ing
ĠTest Setting
port ra
den cia
ĠW or
ĠW idget
ĠW AGTAIL
ĠUser Manager
ĠUser SocialAuth
ne gative
Ġgroup ed
Ġ3 3
Ġ3 01
Ġobj name
solu tify
AL WAYS
og rad
To p
Ġab ility
IL AR
ĠR oot
tain er
"] ]
"] ):
"] ).
Ġli ter
Ġli sten
De pendency
ĠU ses
ĠU PLOAD
ĠU tili
Ġ[] ):
zip file
=[ {
Check UpdateView
Ġ] },
ĠGroup Seen
ĠGroup Topic
Ġany body
CO PY
Base d
ENT A
ĠPage ChooserPanel
File Extension
File Browse
Ġfi red
ax e
su ms
ship PermissionPolicy
ĠDe corator
Ġpassword s
Ġredirect ing
Ġsearch form
Ġout file
Ġnode store
Ġaccess ories
Ġspe aker
Ġallow ing
pay er
Ġfirst name
Ġk c
Ġro utes
Ġcol ors
AG ENT
Ġcomp at
Ġ| |
Ġfollow s
Ġinvalid ation
ĠBase d
Ġend compress
Node Storage
au ction
au dience
DEL AY
display ed
Ġedit s
ĠImage Model
ĠImage ChooserPanel
ĠEvent Error
lower case
posi t
DIR TY
Ġspecifi cally
tree beard
No vo
year s
ĠGet s
ĠModel Base
we apon
Ġmeta class
Ġread me
FIL ENAME
ell checker
Can cel
SER V
Ġ12 34
Article ForObject
ĠJSON ResponseMixin
uar ded
Cmd State
0000 000
ĠSub mit
ĠSub classes
Ġlock string
ĠAttribute s
reload er
force d
ĠDi ctionary
Task SetMeta
COUN TRY
Ġdir path
ĠAc cordion
raw l
MIN UTE
ĠSt orage
ĠSimple LazyObject
Link s
ĠEntry Queryset
~~~~~~~~~~~~~~~~ ~~
regex p
commands Command
Multiple ChoiceFilter
123 123
over written
PROJECT KEY
An onymous
Ġsubscri bed
Ass ert
Delete Form
Ġbreak s
Sign ature
IO Error
Ġinterval s
LOG FILE
ĠZ ero
ĠCmd MenuNode
UM N
Nor thern
ĠRes ult
Ġimplement ations
Down load
Change View
Ġsubmit table
Ġpick led
ĠSE CRET
ire fox
="" >
Ġcat alog
ĠAd ded
IENT S
+)/ (\
cla sh
ĠRE G
ĠRE AD
Ġ201 4
DIS COUNT
String Field
ĠFI RST
Ġmembership s
gu ys
Ġinteger s
ama zon
scra pe
ĠLogin View
PR INT
graph viz
Ġdefinition s
Translation Project
MULT IL
85 44
ĠInvalid Page
trics Backend
Ġmulti match
uest ion
ui db
Ġpos ted
CY AN
PageChooser Panel
Root View
Tab bedInterface
cer tificate
Ġog r
Ġcancel ed
Ġuni decode
ĠFIL ER
REST ART
Ġmoder ator
Channel DB
Ġconstruct or
ĠLe ave
ĠChoice s
PAY LOAD
SING LE
63 79
Embed Handler
TAG S
Ġda emon
tty Table
alternative s
Basic Authentication
stand ing
Ġaddr port
Ġexpect s
Ġeffect s
Rich TextField
234 2
Ġsen sitive
ĠFe atured
ĠAccept s
Ber lin
Stats Endpoint
Ġprot parents
MAG ENTA
taskset meta
prom o
Bound Field
Bound Column
ĠEv Menu
Ġping back
Privacy Field
Ġsel enium
ĠBack end
Ġplural ize
ĠCRUDTestViewWith Slug
CONNECT ION
Ter ms
GRE EN
GRE ATER
Ġsile ntly
Ġ1448 1210
Celery Command
Ġsit u
Ġassertion s
JK LMN
WH ITE
ĠScore Log
egal Page
Col lector
Lat in
scor ers
appro ve
Ġrespec tively
deploy ment
ĠAngular JS
ĠMac ro
PID FILE
ĠAfri can
Args Command
ĠSerializ es
ĠTerrit ory
Ġgram mar
llegal FileExtension
ĠOP TIONS
ĠPAY MENT
ABC DEF
istor ical
CLUD ING
Ġalgorith m
ĠCONT ENT
ĠImmediate HttpResponse
ALT MAN
Detailed Serializer
Exempt Mixin
HIL ITE
Lon don
YEL LOW
Ġbog us
assertTemplate NotUsed
scrap ing
Ġ14481210 54
" '),
$ '),
) ?
) ``
) /(?
* ')
* '",
- "):
- ]+)/$',
. ,
. %(
/ ")),
6 01
7 50
A rea
A ires
B X
B os
B asket
B ris
B Ãĸ
C UL
C ARD
D N
D ENT
D ublin
F ak
G M
G rant
H U
H al
I stan
J a
J ames
K no
L in
M el
M ata
N IP
N ORE
N ico
O slo
P Field
P ing
P ak
P eriod
P ICK
R P
R an
R ID
R ENT
R AFT
S ak
S ala
T u
T ell
T ARGET
U Y
U Z
Y ork
\ "]
] })
a bel
a aron
b ane
b rand
c f
d ri
e spa
f ort
f am
g od
h on
h in
h ti
h ub
h ouse
i et
j k
j unction
k on
k ar
m data
m igration
m xp
p ti
p lot
s und
t j
u ms
v ari
w ich
w indows
x w
x er
y ar
z ewski
} ])
Ä ħ
à ¤
ä ¸
Ġ DateTimeField
Ġ YY
Ġ 999
Ġ escaped
re send
te t
on a
on ha
in ar
in to
in ing
in hierarchy
in voke
de b
de compress
me ss
th ele
th readedcomments
al mi
ue b
ge ometry
(' '))
ar row
Ġ" |
at al
at least
Ġc u
Ġc ul
Ġc ert
Ġc wd
Ġc ells
Ġre presented
ur ge
ry pt
Ġa mong
Ġf g
Ġf loppify
django restframework
ing dom
ig on
get Editor
Ġs word
Ġs crub
Ġs olid
li er
Ġin herits
() `.
ex ml
') })
si sts
di os
Ġw an
Ġw ra
ore a
Ġ( #
Ġ( _
Ġ( `
Ġ( %(
pro jection
__ -
__ ]
con verted
vi c
vi an
vi ve
vi sor
Ġfor loop
is k
is ki
is ville
max imum
pp elli
Ġm ut
Ġm ultipart
=' .
=' +'
=' +')
ĠT w
Ġd rag
Ġ} ]))
pa ble
ut ral
In clusionTag
Re size
Re presentation
Re fresh
ĠS nippet
ĠS coped
ĠS loven
ĠS CHEDULE
mar ily
Ġst ay
rel name
rel and
ĠA nother
ĠP UT
ĠP ak
ĠP anel
=" __
Ġpro mp
Ġpro vinces
Ġex pensive
mi tive
ime out
am an
est er
ca led
Ġu i
Ġu gly
ĠC AP
ĠC OP
Pro tectedResource
User Model
sh ift
po lis
now ski
ĠI nactive
ĠD ay
ĠD uration
ĠD inar
bo ts
Ġ"' *'",
Ġse mi
Ġde code
Ġde sign
Ġde ep
Ġde tect
ers ki
Ġurl pattern
pi fy
py tz
ĠRe verse
ĠRe cord
Form Node
-------- ---
ĠM U
ĠM ar
ĠM akes
ĠM ARK
ĠO K
ĠO cc
IN SERT
IN VOICE
ĠF loat
ĠF ood
Vi si
ĠG e
Ġpa st
Ġpa ger
sk ov
ci ally
ff set
Ġg lass
mand u
RE V
64 0
Ġan on
Ġ[' %(
Ġac ceptable
for ward
ke k
Ġhas n
cre atable
pre f
Ġ@ _
ĠB R
ĠB el
Ġun recognised
sub commands
post back
LE AN
clu sive
trans lators
URL Patterns
:// ',
ĠW a
ĠW izard
ĠW WW
Ġv as
ME M
200 00
Ġ3 5
Ġcontent type
Ġ` %
Ġpar tition
ost al
ree ce
Ġab solutify
move d
pping list
meta Weblog
ĠR ou
De precationWarning
Ġ[] },
Type Form
col lapse
spe ed
Set Reply
AS YNC
Admin PageChooser
ĠGroup Bookmark
ĠGroup PagePermission
ĠGroup EmailThread
ĠGroup sPropertiesRelation
.. .')
op tim
wagtail settings
Ġqueryset s
zy nski
Ġrel y
start up
Serializer Base
hook set
ref err
11 0
Qu ota
qs l
ĠHttpResponse NotFound
Email View
VER IFICATION
eb ounce
Ġ%} ")
ide bar
Ġcache file
work ers
ĠDe fine
fla re
St age
St roke
JSON ResponseMixin
75 8544
Ac cepted
Ġtag key
List Node
56 0
56 78
Select Option
Ġro und
ĠK ingdom
Ġgener ation
cel and
ĠRequest Config
Request ResponseMixin
ĠProduct Variant
Ġshow ing
Ġdisplay ing
Ġdatabase s
PER IO
ach ing
DEFAULT S
cmd handler
ja lein
Ġ[" #
Ġinitial izing
Ġpy tz
Ġtra ce
TR IES
wh at
ĠAPI v
ĠTh read
we ver
Ca lendar
OAuth Lib
ĠPermission Set
ĠLanguage Error
Ġ... )
Resource Mixin
chang ers
Ġ}} .
CACHE FILE
export s
Ġ'{} /
UP DATED
ĠHTTP Error
XXXX X
Ġne g
ĠField Error
ĠSer ve
skip ped
Link Column
Link edIn
Ġsp anish
geo code
Column Plugin
sale or
Instance View
Ġwidth s
attachment revision
Content Negotiation
Ġweb socket
cate nate
ĠEmail Message
>. +/
Chooser Block
CR APER
mapping s
Ġob sc
slot name
CS P
orph ans
issue d
LOG OUT
ĠZ e
ĠZ ip
specifi ed
ĠCmd State
found land
ĠFOR M
ko v
ĠCustom User
track er
Nor onha
Ġ'? _
ĠCom m
Edit Handler
ĠPRO V
star red
Ġvfolder s
tex tarea
tex amples
Ġtopic str
Gu inea
OB JECT
OB LIN
```````` ````
Pal mer
normal ized
quality checks
nor dea
73 78
ĠUpdate View
DS CRAPER
FR SI
Mo zilla
ignore email
Inter valSchedule
Ġcover ed
rid ge
ĠOR M
avi s
Ġdummy runner
DATE TIME
Indiana polis
ĠAccess or
StatusCheck Form
Ġtrack backs
Ele m
sile nt
Stream Handler
fallback s
Archive OldView
sa int
Ġrecur sion
Require Debug
frontend cache
PRODUCT S
ĠScript s
Upload Form
Root URL
ĠXXXX XX
ĠUpload File
tw ilio
Ġintro spector
/{} /
pager elated
Ġtre at
Ġvouch es
Business Index
ĠCre ating
Ġdescri be
BUIL D
EP SG
ĠEdit Handler
Head line
Mark up
Ġ"- "
Compiler Filter
Dis able
positive s
analy tics
car l
CLU DED
West ern
shor tener
Ġbrow se
ĠOpenID Store
support s
ĠExtra ct
ĠRelated Field
Ne therlands
(': ')
fj Ã¶rÃ°ur
Ġfavorite s
ppv s
pagere vision
ĠLookup Error
AlertPlugin UserData
TW ITTER
hack s
ĠInvoice Item
Batch Process
XY Z
SOCIAL REGISTRATION
ĠAR TIC
Net work
skipIf CustomUser
inclu sive
SOURCE MAP
ĠSlug gedTestModel
ĠWE EK
CustomPK Food
PUBLISH ING
bor ski
nie mi
escalation exclusion
ĠLANGU AGES
SCHE MA
nauth enticated
ĠSafe Data
REGE X
HASH ERS
Rou te
kn ife
Ġmys ql
Ġsuc ceed
Ãĸ M
ĠVAL ID
war ded
Ġsile nt
Ġ1448 758544
Categories Authors
Processor Test
assertView Allowed
Contrib ution
129 46
Ordered Dict
Processing Exception
Mad rid
Tok yo
Ġhyph ens
Ġutili ty
ĠDUMMY STATUS
eu ta
Suggestion States
REVIEW ED
Ġupper case
ĠQuality Check
maSeparated User
sin ki
ToCart Serializer
exi can
ĠPrivacy AwareSMock
Ġoptimization s
Ġshor tener
LOOK UP
remain ing
SECON DS
ĠInterface ValidationError
ĠRangeQuerySetWrapper WithProgressBar
AUTHENTIC ATED
Offline TestCaseMixin
Kwa jalein
Lou isville
obin hood
preset reply
DOES NT
uzz le
Brus sels
PAN ELS
umul ative
MULTIL INE
Bris bane
BÃĸ ÃĸM
Istan bul
Kno x
NORE PLY
Nico sia
thele my
Ġcul prit
ĠCOP Y
PERIO D
>.+/ |)
pagerelated link
ĠARTIC LE
CategoriesAuthors Mixin
! </
! ".
% %
( "",
) ')),
/ )
4 10
6 75
6 99
7 40
= ",
> {{
A I
A ri
A rag
A vailable
B V
B roken
C lean
C AL
D ROP
E nable
E lasticsearch
E scalationExclusion
H ill
H eb
I ED
I GHT
J E
J an
J ap
K S
K IT
L ub
L ATION
L ASS
L ayout
M R
M ust
M agicMock
M ongo
N y
N ig
N AL
O PER
P N
P art
P ks
P romo
S EN
S ab
S im
S imp
S ara
S amoa
T el
V ol
V ary
V ev
W rong
W INS
Y ellow
Z ulu
Z ERO
[ .
\ ">
^ \
_ '
c ac
c tic
c ant
d ig
e es
e cimal
f eld
g alleries
i B
i to
j ul
l I
l k
m r
m v
m ight
m aterialized
m ccp
o le
o la
p db
p late
p tpython
q i
q dm
r x
r mem
s d
s ms
s ay
t type
t tag
w ide
w ikilink
y e
y ield
y uglify
} })
Ä ģ
Å ¼
ï ½
Ġ ki
Ġ 75
el en
re w
re connect
re play
on line
in ge
se cs
se nce
', )),
de velopment
de ira
iel dentry
ge om
Ġi ri
Ġc lock
Ġc ascade
Ġc oupon
Ġre tain
Ġre dee
Ġre moval
ang hai
Ġp or
Ġp ie
Field Entry
Ġa w
Ġa le
Ġa udience
Ġf h
ser v
la mp
'} ],
age n
id mapper
get Attribute
get Ele
il le
ri c
en dition
en ez
Ġs a
Ġin dependent
Ġin struction
Ġin ventory
co gs
no args
"" )
() )),
() `,
", ),
", ))
di stance
Ġw erk
un ately
un puppet
un recognised
'] ._
qu otes
ore s
sp elling
pro duction
__ "
__ _
__ )),
Ġto c
vi me
oun c
assert Http
Ġm is
Ġd sym
oo ks
ut ch
as var
Me tricsBackend
Re mote
Re cent
ĠS hape
mar a
Ġcon tribute
rel y
Ġe mp
Ġe quivalent
ĠA mazon
ĠP ST
ĠP AR
ĠP ENDING
=" <
xi es
Ġpro tection
Ġpro jection
pri se
Ġex clusion
)) ]
)) ),
ac ao
page model
file key
am il
ca pabilities
ĠC lipboard
ĠC srf
ĠC SV
ĠC rumb
Ġt witter
view ed
he art
Time Input
User Nor
sh if
ĠI C
ĠI ter
Group Serializer
Ġ"' {}
Test AdminModel
Ġde vices
Ġde clar
Ġde partment
Error List
Ġfile objects
Ġfile obj
Ġelse where
Ġco ordin
ay mond
um eric
ĠRe vert
Ġl ng
Ġl andline
`` :
out ube
ĠM er
ĠM art
ST AG
ST OM
ĠO LD
ĠL IST
ĠE DIT
ĠE vernote
IN TE
Vi rgin
ĠG E
ĠG ra
ĠG riatch
ĠĠĠĠĠĠĠĠĠĠĠĠĠĠĠĠĠĠĠĠĠĠĠĠĠĠĠĠĠĠĠĠ ĠĠĠĠĠĠĠĠĠĠĠĠĠĠĠĠĠĠĠĠĠĠĠĠĠĠĠĠĠĠĠĠĠ
View Test
Ġg rand
ĠH as
ĠH tml
hol iday
delete s
RE TRY
64 00
tag type
Ġ[' <
par ry
Ġso on
SE ditable
pre processors
pre decessor
ĠN B
ĠN ormal
ĠN eeded
ĠB ASKET
Ġun index
Ġun pack
DE TAIL
sub tree
sub modules
Ġkey space
Ġapp ending
cur sive
format ted
format ters
ĠW rite
Ġwe ird
ne goti
Ġv at
ven ience
Ġview ed
Ġ3 6
Ġ3 45
ten s
Ġblank dict
Ġpre served
Ġche apest
Page User
mit s
ĠPro perties
Ġca used
article subscription
Ġsub dirs
PO L
De clar
mark er
Ġ[] ),
ments By
comp ute
mod ity
mod ification
Ġdatetime s
Ġbase class
sign out
Ġfilter spec
PL AN
ĠGroup Admin
op timal
Ġmethod name
Ex change
Base Form
Base Renderer
Base FilterBackend
Base IntegrationTest
start s
ĠEx pected
del imiter
hash ed
ĠCon trib
Event s
Ġ4 7
EL L
Tag Name
Ġpost fix
gra ppelli
." .
ĠDe fin
node name
Message Log
Validation Mixin
Ġrun server
next EventID
Ġle ak
Ġle ts
Ġle gend
Ġk s
MP T
CON STANCE
Search View
Search able
Ġgener ators
fer red
Ġcomp ute
Ġcomp ose
patch ed
bookmark ed
/', ]
Ġload ers
UG LI
Ġdel attr
python path
Ġtrans actions
ster dam
ĠProduct Image
Context Mixin
Context TemplateView
mer cator
Sub Mock
the se
Pick le
ĠEvent Manager
ĠEvent Relation
Trans form
Ġ[" %
Ġ[" ^
Ġover loading
ĠWe ak
22 1
web pack
assertRaises Message
Ġho wever
wh ite
Ġstate ments
TH IS
we dish
010 5
EX E
Ġval ign
xy z
wa ii
Choice Block
Choice Iterator
Ġcmd class
ĠCommand s
14 39
ĠObject Permission
Article WebTestBase
ĠNo Cached
Default Script
Default Scraper
ĠFile Field
Ġlang s
Ġexp anded
RES OURCE
ose Form
sample s
=% (
ĠDE LETE
Ġrelease file
ĠTrans late
tify Event
embed s
previous EventID
~~~~~~~~~~~~~~~~ ~
Ġflag ged
Ġredi rection
Ġweb client
termin es
ĠPost al
Delete Model
Store Field
Ġshort cut
HTML Renderer
FF LE
FF IC
ĠMessage Contact
setUp Class
CUR RENT
Ġsepar ately
adder s
ĠRes olver
Bu ffer
BASE DIR
ĠCMSPlugin Base
ĠPlaceholder AdminMixin
Ġindi cator
="" )
BO OTSTRAP
Ticket CustomFieldValue
Ġconfir med
Ġpur chase
ĠRE DIRECT
ĠRE VIEW
'^(? :
.* ?
Fields Model
Fields Mixin
Process Compressor
Ġ[{ "
Ġdraft s
IMAGE KIT
Price Field
76 54
ĠTree Node
scra py
Some MUD
3456 789
gor od
Ġdescend ing
Ġar tist
integer s
Ġvar s
Cur acao
Ġsample s
Per th
Ġty pically
Ġsimp li
ĠInter val
final ize
(', ')]
Mal ay
Ġrecur se
Des c
Ġtrigger ing
Ġmulti string
coverage Store
ĠOverride s
ĠRa ven
Ġrefresh ed
PING BACK
scraped obj
INTER NAL
Standard Index
Ġterm colors
ĠCur sor
Could n
Blog Page
ĠSpe cifi
Permissions Exception
Import ing
Import Error
Mux Player
REST FrameworkModel
ĠDAT A
MI ME
resolution s
ĠPayPal PDT
?) \
every body
Ġrepe at
Ġgre y
Ġassume s
balance d
Ġbook mark
Ġbook marks
rup t
Rating Field
CSV Field
KB Item
hand led
KW ARGS
unauth enticated
attemp ted
Ġwri ter
Tor chbox
Ġenti rely
ĠImple ment
ĠAuthentication Form
Ġdeploy ments
ĠLookup Type
REVIS ION
irc name
ĠConfig uration
Ġconven ience
ĠUnicode DecodeError
ĠIden tification
Raw Id
WA FFLE
ĠCAC HES
INDEX ES
ĠSmart Card
ĠRating TestModel
IMIT ER
Regi Ã³n
who m
ASSIGN ED
assertView NotAllowed
SIT IVE
dam age
Ġba setype
Ġvfti s
provi ded
appear ance
ĠPER MISSION
geon ames
chron ous
ĠSp lit
xls x
disc ard
Ignore Email
ĠHidden Input
Selected Action
sword fish
Temp orary
Brad ley
Rot ate
abcdef gh
FRONT END
ĠRelation ship
Vil nius
prior itize
ĠOk View
ĠRow Result
Ġessen tially
ĠEXTENSION S
PART MENT
Ġ"âĢ Ķ
lide show
ĠREG ION
ĠREAD ME
Ġsitu ations
ABCDEF GH
fam ily
Representation Type
RequireDebug False
Sara j
getEle mentsBy
UserNor Group
SEditable Object
ĠNoCached Stats
getElementsBy TagName
" <
' [
- ]+)/
/ <
/ \
/ </
1 30
2 39
2 36
5 10
5 39
7 90
8 400
> ``
? "
A W
A f
A MP
A fter
B as
B lue
B rowsableAPIRenderer
B ritish
B LOCK
C F
C as
C euta
D et
D um
D ynamic
E di
F J
F T
G S
G od
G ran
G OBLIN
H C
H on
H ob
H istory
H ov
J ane
J akarta
K N
K Z
K w
L F
L G
L ie
M W
M ER
M are
M os
M APP
M ala
M iquelon
M ILAR
N V
N el
N ai
O X
O IN
P I
P rin
R S
R i
R os
R AM
R FC
S i
S ve
S ES
S idebar
T D
T V
T i
T ar
T uc
T icker
T oolkit
U pper
V G
V N
W P
W ri
W IN
W ind
W idth
W IZ
W ars
Y T
Z ur
\ ",
] (
] ":
_ \
a decimal
b iz
b ial
b right
c ise
d r
d temp
d anger
e mit
e tric
f ree
g l
g ml
h ann
h yph
h orse
k h
k m
k zeug
l n
l cd
m ata
m ismatch
o j
o pp
p ane
r one
r type
s r
s alt
s nooze
s witched
v ant
w est
w idont
y outube
} :
Ã §
Ñ Ĥ
á ĥ
Ġ ey
Ġ Foreign
Ġ Validation
Ġ john
Ġ UTC
re member
re strict
re structuredtext
on ia
or arily
in id
in ery
se to
st ine
st roke
ti ago
al am
(' @
od t
ar ditem
Ġi dle
Ġi mpro
Ġ{ #
Ġ" ^
Ġ(' %
Ġc c
Ġre size
to wn
ur k
Ġp e
ect ure
Ġf s
Ġf ore
Ġf ab
Ġf aster
Ġf etched
Ġf ront
la im
ri an
en e
ch ni
Ġs ig
Ġs cheduler
Ġs rs
user Report
Ġin um
Ġin cre
Ġin box
Ġin complete
Ġin vited
Ġin strumented
Ġin voked
co late
co lored
lo ts
no m
si e
si mp
key Order
ad h
ad og
ad ha
Ġw ikilink
un subscribe
Ġo oc
ver ti
pro f
pro tection
con stru
Ġto k
test PhotoSize
vi ca
ed Inline
Ch o
Ch u
Ch ath
is ot
is fuzzy
ra ck
Ġm s
Ġm ind
ĠT a
Ġd up
es ri
ub unt
ut da
In vitation
Me t
Re quires
tr ansparent
ĠS HO
ĠS ENTRY
ĠS crapy
qual ified
rel ev
Ġe user
Ġe ffective
ĠP M
ĠP ound
ĠP op
ĠP EP
ĠP AGINATION
ĠP romise
=" \
=" {{
=" %(
mb u
Ġpro vince
Ġex ts
Ġex isted
file d
om itted
Ġu nable
Ġu hd
ĠC P
ĠC or
ĠC UR
Ġt d
Ġt all
Ġt qdm
ist ani
Ġn oun
Ġn obody
Ġbe at
app lies
DateTime Input
template tag
ĠI llegalFileExtension
Group Form
ĠD ir
ĠD ouban
Ġ== ===
bo th
filter field
). "
ON ICAL
ubli cation
oc Mem
Ġas yn
Ġdi a
Ġdi sp
str z
gan isation
Test Path
import er
ot t
Ġco v
Ġco ordinate
Ġass oc
Ġfield class
ĠRe member
ĠRe cent
ĠRe served
`` )
ST Y
ĠO UT
ĠO nce
Ġch an
ĠE nable
ĠE ngine
js ka
ĠF etch
ĠF lickr
ci f
ci pe
ff f
View Mixin
Ġg one
ĠH ave
Ġwh isper
Ġr q
Ġr u
Con go
Con stant
Ġan nouncement
AN TI
AN DB
ke m
Ġun ion
Ġun safe
post fix
check style
Ġat tack
sta ble
ĠW rapper
ĠW orker
ne gotiation
Ġv f
IT ION
Ġ3 75
ug ht
Ġ` __
RO T
RO TT
og o
Am sterdam
cache file
ab we
ock i
meta web
US AGE
ĠR P
reverse sort
Ġvalid ity
De precated
Ġ[] ).
fix critical
col l
Ġ`` _
ine se
new est
ila dmin
DI ENCE
wagtail frontendcache
Base Mixin
Base Profile
Valid MessageMixin
msg str
ap ua
ĠPage Manager
ĠPage Revision
process ing
ĠEx pression
Ġup loads
Ġup grade
Filter Spec
Email Template
Ġ%} <
'. ")
Ġpost gis
zone s
auto vouch
TE CT
ĠDe precated
('/ '))
Ġhe avy
ATION S
JSON Response
75 2
75 29
Ġtr ansition
Ġtr ansparent
Manager Test
Ġ5 9
Create Form
Ġad just
Ġle aving
Ġle xer
fri endly
Co mplete
ste in
Search Filter
cc c
ĠK eep
APP HOOK
Ġcomp iled
Ġcomp uted
SI MILAR
{% %
ĠBase Serializer
ĠBase Product
ĠBase Cart
ĠProduct Model
MPL IED
Ġmark er
API v
App licable
App endedText
Ġunder score
[: :-
Hel sinki
Ġcontain er
pr us
Sub scribe
PE T
ĠAN N
ĠImage Spec
return ed
ĠSite People
Ġthere fore
Ġ-- >
ain a
Ġ'_ '
rece ntly
Ġpy c
Ġpy parsing
Ġtra versal
ĠForm Submission
No thing
ĠJ enkins
ĠJ OIN
ĠModel Serializer
000 7
build out
land ing
land line
fin ished
16 9
ĠNot Applicable
Can ary
Can onicalSlug
Ġcmd str
non ce
19 2
limit s
Ġ20 4
expi ration
ĠNo PermissionsException
ĠCategory Form
][ @
ĠFile Browser
STAL L
ĠList CreateAPIView
MM DD
OP TION
42 42
period ict
{} :
Name space
sort able
Detail s
Detail sTest
inst anti
Ġter rit
ĠHTTP S
Order ing
ba ij
17 2
17 9
Link Block
Link Fields
~~~~~~~~~~~~~~~~ ~~~
Com oro
... '
ĠApp le
Customer Mock
Invalid TypeError
over flow
Ġwho m
ĠAdmin PageChooser
SERVER NAME
Ass ociation
ĠUse ful
ĠID s
rot ate
Ġplace d
Ġphoto logue
Action s
ĠAl ert
eg acy
IM G
New foundland
Ġboo t
setUp ProcessorTest
CONF IDENT
zer baij
Ġpop ulation
ĠPhoto logue
mu ted
Api Helper
ĠX LS
ĠPlaceholder Field
ĠSE O
ĠSE ARCH
ĠUserProfile MappingType
Cache File
bound s
ĠTitle Extension
Ġlocale s
Ġmost ly
Attachment Form
rapped APIView
Version Admin
Pre SetReply
Ġ201 1
79 7378
ĠBasic Perm
nor ing
Allow s
66 6
Media Type
Ma j
76 5
mix in
Le ave
29 8
ĠAddress Form
ĠCan cel
05 1
San to
San tiago
ĠSocial Token
CONT ROL
Ġstop ped
tmp l
Service StatusSnapshot
ĠPri maryKeyRelatedField
parame ter
done sia
UserProfile MappingType
Li mited
Ġar ray
SA FE
definition s
ĠStatic Page
ĠInter national
Lu mp
MULT IP
sm tp
Ġhost s
Ġcap ital
contact s
Ġ"[' -
Ġremain s
ĠAllow ed
(**{ '%
PING BACKS
Man ufacturer
long itude
ĠDJ STRIPE
ĠDatabase Error
Ġroom s
Ġna d
ĠRuntime Warning
isc ussion
Wh ite
ĠSome Model
boolean s
Ġvirtual folder
Ġpush ed
CURREN CIES
yy yy
wer kzeug
visi t
zon a
ĠNotification Plugin
Ġcontact s
Ġinstanti ate
Ġeg n
ĠExtra ContextTemplateView
ĠRange Field
Ġimmedi ate
Money Field
Start s
FileSystem Storage
Ġscenari os
Ge ometry
Transaction TestCase
clipbo arditem
ĠDis connect
TRACK BACKS
Sal ta
Ġconven ient
TaggedItem Base
Invite Form
ĠRich Text
Ġping backs
Ju an
SC ORE
Ġpin ax
Ġol dest
Ġdele gates
Ġsuc ceeded
offi cial
Fixture s
Kar ach
FFFF FFFF
Ġrecogn ised
slo ts
Ġindic ating
disp ute
AEAEAEAEAEAEAEAE AEAEAEAEAEAEAEAE
CU STOM
Hyperlinked ModelSerializer
ĠSto res
Ġevalu ated
ĠExp licit
ĠDa jaxice
Vien na
ĠWagtailAdmin ModelForm
ĠWagtailAdmin PageForm
Moder ation
Of Filter
Stack edInline
human ize
ĠPRI ORITY
ĠOper ationalError
ĠEvery thing
lj ana
may be
ĠUr l
ĠOrderBy Tuple
ĠSubscribe Form
Ġrepeated ly
ScrapedObj Class
Ġmu gshot
ĠAnnouncement Factory
Bit bucket
Pr ince
Ġsim ulate
ĠEXP RESS
Ġinternational ization
imb abwe
Ġ<< <
Ger man
bÃ¦ k
Ġmach inery
behavi or
Point Field
ĠStop Iteration
ĠGit Hub
Ġear ly
Camb ridge
IBUT ORS
exam ine
ĠGAME DIR
Verifi cation
seth andler
Ġsaf ely
adjust ment
ĠPrefetch CategoriesAuthorsMixin
ĠDen ied
ALPH ABET
Ġabbrevi ation
Ġencounter ed
SUGGEST IONS
+-]+ $',
Ljub ljana
sem ble
']}} }}
Ġcontroll ing
Ġmonit oring
COMPIL ERS
Permanent Redirect
MODIFI ED
Poly gon
Ġwagta iladmin
ĠGreen feld
posit ory
SERV ICE
PICK LE
Headline Mixin
12946 38
ĠCOPY RIGHT
Ari zona
heart beat
UGLI FY
Ġ"âĢĶ "
MAPP ING
Nel son
WIZ ARD
Zur ich
hann es
hyph en
adha ar
Chath am
isot c
ubunt u
relev ance
ANTI ALIAS
ANDB OX
ROTT LE
metaweb log
FilterSpec Error
7529 327
periodict ask
CONFIDENT IAL
$ $
$ %
' -
, '
, ,
- )
. '},
/ '))
0 800
3 166
6 25
7 60
9 20
> `
? ')),
A O
A del
A gent
B F
B H
B Z
B ul
C lear
C lose
C reek
C zech
D L
D M
D a
D h
D ou
D ub
E H
E u
E UR
E GN
E gy
F UZZY
G P
G ala
I ran
I rk
I celand
K in
K an
K ri
K ab
K os
L us
L ESS
M c
M XP
M agad
N in
N eed
N ONE
N EXT
O b
O h
O u
O dense
O msk
P u
P ang
P ho
P INAX
Q ue
Q RST
R iver
R iga
R aymond
S te
S chema
T K
T re
T un
T all
T ah
T elnet
T CP
T ELNET
U zh
U sually
V C
V la
V ad
V anc
W all
W arn
W XYZ
Z W
Z agre
Z imbabwe
[ %
[ [
[ ]
_ ['
_ '):
` ).
a ul
a ide
c p
c un
c and
e thod
f an
f lickr
f ieldentry
g ob
g rand
g ograd
h agen
k ent
l ural
m une
n p
n ish
o h
r gb
s Mixin
s ugg
t ur
u ter
v ary
w al
w all
w heel
x n
y t
z at
z cz
} ],
} ")
Ð µ
Ð ½
Ġ BooleanField
Ġ ERR
Ġ sso
Ġ edge
el o
er en
Ġ' </
or one
in ni
de crement
me ntry
th en
ro bi
al pa
db org
Ġc y
Ġc and
Ġc ateg
Ġre ject
Ġre pro
Ġre usable
to cols
to ggle
ur y
Ġp ol
Ġp ress
Ġp string
Ġp lat
Ġp unctuation
na tion
ul lable
ul ah
Ġa st
Ġa mp
Ġf c
Ġf ive
Ġf rench
la titude
ou ver
get state
get records
ta u
ri b
en ch
ma ti
Ġs he
Ġs lack
Ġs oup
Ġs reg
Ġs lim
Ġs cheduling
Ġs orl
li a
Ġin verse
Ġin voke
co w
Ġb g
() ._
", ",
di stinction
Ġ# %
Ġ# '
Ġw ent
Ġw eren
un index
un ki
un ds
un usable
urn e
ass ertion
'] ])
'] )))
qu ation
sp icious
Ġ( ("
__ `
__ "):
len v
is in
ra e
ra el
url read
Ġm utable
Ġm aterialized
Ġm unicipalities
Ġm icro
Ġno tation
ĠT y
ĠT ake
ĠT oolkit
class path
class names
pa cket
pa gos
In u
Re cord
00 2
00 10
ĠS O
ĠS tack
ĠS hared
ĠS uccess
ĠS OURCE
Ġst age
Ġst reet
Ġcon stant
ĠA B
ĠA V
ĠA g
ĠA re
ĠA void
ĠP open
ĠP OP
ĠP arts
mb i
Ġex change
)) ])
us a
file obj
file size
om in
Ġ1 0000
Ġ1 125
(" .
ca ps
ĠC C
ĠC rop
ĠC loud
Ġt ar
ist a
") }
ms gs
User ChangeForm
sh i
sh asa
po or
ĠI I
ĠI mp
ĠI AC
ĠI MPORT
ĠI MPLIED
ag ain
Group ObjectPermission
ĠD D
ĠD ec
ĠD ialog
bo urne
ip an
oc tet
Ġas var
Ġas cending
Ġse c
Ġse d
Ġse p
Ġse q
Test MailerEmailBackend
Ġde ps
Ġurl parts
Ġco sts
osi bir
Ġ** {'
AT H
mo zillian
Form set
Project Status
Ġl atter
ĠM al
ĠM ari
ĠM anage
ĠM XP
ĠO ur
ĠO ut
ĠE nter
ĠE ither
ĠE lasticSearch
Ġ{} '.
ĠF i
ĠF ORE
ĠG o
Ġg t
Ġg ithub
Ġg alleries
ĠH a
base string
ow ice
Ġstr value
SE LF
ĠB ot
ĠB ay
ĠB UT
ĠB row
ĠB ank
Ġun changed
Ġdb f
DE FER
sub menu
ĠTest Snippet
Ġapp name
den ted
ight s
Ġat om
ĠW rong
ĠW ii
Ġnew obj
Ġinstance args
ĠUser Form
ne utral
Ġv ow
Ġgroup ing
40 9
ug uay
pen hagen
[" __
Ġlo cated
RO UND
av ille
Ġab orted
Ġsub se
ĠR om
50 8
50 9
Ġpri marily
Ġvalid ating
"] /
Ġli fe
ĠU NI
ĠU MC
mark shavn
Ġ(" {
spe cs
Ġ`` `
MS SP
fun d
fun ding
}) ;
.. .',
Ex ecute
not ated
Permission Base
Base Manager
Ġrel ay
ENT LY
Valid atedPage
Ġsh p
Ġsh x
ĠIn dian
ĠIn validate
ap r
ap ted
ĠHttpResponse PermanentRedirect
([ _('
Ġchange form
Ġper malink
Ġwor ry
UN CT
Ġus able
ann ed
34 3
ual a
Ġout going
St ory
be k
Add View
Add resses
Ġindex template
ML TestResult
map box
Ġdict s
run fc
Ġhttp lib
Ġman ner
Ã¸ d
wo ff
Ġorganization s
ic ar
Co ffee
Co penhagen
Ġav ail
Template Column
Command Error
gram mar
AG O
Ġpo file
Ġpo tentially
ĠGener ates
storage s
ticket customfield
temp file
ĠBase TestCase
Ġtrans forms
Ġ'< %
tend o
QU OT
au di
inline test
PER CENTAGE
Ġunder lying
pr j
cmd opts
ĠImage WithThumbsField
ĠEvent Index
Ġ-- -
Ġover view
Revision s
ĠWe ixin
part ments
gener ation
Ġdistri bute
Ġ{" _
ĠModel Resource
ĠModel MultipleChoiceFilter
Ca ptcha
EX CLUDE
EX CLUDED
EX MLTestResult
Ġ8 6400
ĠOAuth LoginView
ĠOAuth CallbackView
Panel TestCase
scraper elem
umbna iler
Ġdistribu tion
14 33
14 37
19 0
19 00
player name
ĠCMS Sitemap
ĠJSON Response
rt ua
Ġ... ]
SL ACK
Default Player
chang elog
QuerySet View
ĠFile s
reload ing
RES ET
{} ".
sort by
Ġfail fast
My Form
Ġkeep ing
ish ing
setup tools
Ġcontrib ution
Par a
Par se
make obsolete
ĠFor ce
Ġtemp orarily
Ġdoc utils
Multiple ObjectsReturned
Instance Loader
Pri vate
Ġref lect
exc info
over ridden
An nouncement
Ġsubscri bing
ĠAdmin Media
CS RF
Delete SelectedAction
Ġcould n
Ġtax es
tab lib
ĠName space
Ġmap box
SH A
ĠChar acters
ping Call
Ġhook ed
service statussnapshot
pin ry
UM ENT
Ġsepar ators
ĠCustom Tree
Change s
Ġpick ed
ĠST ANDARD
Server TestCase
tex tile
Ġdecor ated
ĠWSGI Handler
Simple Plugin
Ġ"_ "
Ġrole name
GR AVATAR
Version View
refer ences
Ġcalcul ation
REQUEST S
iti zen
CAN ONICAL
Po hn
ĠDEFAULT S
Process Compiler
Ġassign ment
Allow Any
Ġop beat
Ġpresent ation
ĠUpdate s
uploaded file
ĠIP N
Pending ProjectMember
waffle js
ĠAbstract User
ĠAbstract Money
review er
Sh anghai
differ ences
READ Y
Remove s
Bar thelemy
Li ma
Li by
Ġperiod s
zz o
zz aville
ĠThere fore
Ġfix es
convert er
Translation Cost
Mail Plugin
ĠPre vent
ĠRetrieve UpdateDestroyAPIView
ĠInvalid FilterSpecError
uzzy Int
Ġdiff ers
PH ONE
Collection Member
ĠOne ToOne
FUN CS
SK U
Sk op
Ġâ Ļ
Follow Model
Bra zzaville
Ġsubclass ing
Sy dn
tw istd
Wh at
look er
announce ment
HI DE
NotFound Exception
Ġequal s
YYYY YYYY
Ġdescri bing
lon lat
san dbox
Ġrou ters
Ġrespon ds
tor chbox
We apon
(?: [
Ġdirective name
checkbox es
Ġvisi ted
Ġcombin ations
ĠUnique nessTogether
must ache
ĠAuto SlugField
ĠCall s
ĠSTATIC FILES
tre estyle
Ġpuppe ts
ray mond
Retrieve UpdateDestroyAPIView
Tor onto
Ġautod iscover
Ġban list
Feature Type
OVER RID
SLUG S
ĠActiv ation
Ġchain ed
Ġbirth date
Ġstyles heet
(.* )
GENER ATE
ĠPo int
Row Result
lex er
Ġdeliver ed
SOCIAL ACCOUNT
LD AP
Ha waii
[^ \
Ġretrie ving
Alternative Name
Mac au
repe at
mime type
Expi ry
aga wa
ĠPack ager
Published Manager
Kal ining
urli zed
phan umeric
ĠCRUDTestViewWith FK
Ġtex tile
Single ProxyModel
Ġhuman ize
ĠTagged Item
Ġoccur red
Pay ments
agre es
ĠLast Entries
tick ers
ĠBound Field
>[^/]*) /
Avatar Form
Scoped ResourceMixin
Ġhello world
ĠTemp Msg
ATTR S
MODI FY
ĠSearchFilter Model
******** ********
ĠCompiler Filter
Dar win
Ġhyph en
Ġdiscussion s
Urls Pinger
eaeaeaeaeaeaeaea eaeaeaeaeaeaeaea
Kra sno
Owner shipPermissionPolicy
Ñģ Ðº
atis fied
Superuser RequiredMixin
clock wise
Ġdeci des
ĠPortlet Assignment
ScrapedObj Attr
Duration Field
Global PagePermission
hal in
ograph ic
Ala ska
ĠCat alogue
Ġclash es
ĠFailed RequestError
ĠLogout View
employ ee
Worker State
REJECT ED
suc ceeded
Build ing
CALL BACK
Dan markshavn
drag gable
ĠLIMIT ED
MODER ATE
gnored Object
LAY ERS
('= ')
spro perties
Ġdolor um
ĠMux Command
Kam chat
SIL ENTLY
Ġfee dback
ĠPlur r
Ġannounce ments
MEDI UM
Nov osibir
lingual Example
Monte video
Ġarti sts
432 6
Sty led
Ġpow ered
ĠRepresent s
Ġalphabe tical
ĠBetter Signal
uarded ModelAdmin
Mel bourne
Sak halin
fort unately
pti python
ĠTw isted
ĠCAP TCHA
ostal CodeField
ĠZip File
>.+/|) _
Pks Example
Vol gograd
ĠGra vatar
negoti ator
Declar ative
ABCDEFGH I
Hob art
Mos cow
opp osite
seto bj
Adel aide
Irk ut
Kin shasa
Kos rae
Nin tendo
Pho en
Tah iti
Vanc ouver
Warn s
Ġplat forms
ĠBrow ser
DEFER RED
ĠUMC N
Addresses Form
runfc gi
ticketcustomfield value
rtua lenv
Sydn ey
OVERRID ES
Kalining rad
Krasno yar
! )
" //
' '.
/ `
1 56
3 75
3 562
5 56
6 88
7 36
: [
: ')
: `.
> '])
? $',
? (?
A ti
A den
A ai
A smar
A nad
A zerbaij
B D
B T
B h
B ag
B angu
B ak
B ish
B ama
B elem
B ATCH
C u
C lick
C rumb
C roati
D eletion
D ush
D ama
D ili
D avis
E f
E ir
E IK
F una
F uk
F ONT
G or
G lace
G oose
G rand
G oth
H aystack
H ung
H avana
H elena
I q
J ip
J ay
J EN
J uba
J une
K r
K on
K ig
K osi
K ong
K ath
K ie
K uch
K amp
K INS
K olk
K har
K uala
L ex
L ES
L ome
L AND
L ord
L agos
L ithu
M u
M us
M TI
M TIME
M ana
M bab
M awson
M oga
M unicipalitySelect
N ass
N ip
N ia
N dj
N eeded
O ral
O WNER
P D
P i
P ED
P open
P rag
Q Nme
R R
R ad
R other
R ome
R UP
R ica
R ank
R ico
R eyk
R iy
R ENDERER
R ango
R ENDER
S up
S en
S it
S ends
S UE
S lice
S SH
S CUR
S lave
T p
T ho
T AB
T ir
T ong
T HE
T ash
T bil
T eg
T ara
T ij
U z
U la
U sh
U IC
U CT
V ostok
V ista
W ho
W ake
W ina
W FS
W inni
Y ere
Y ek
Z et
Z ap
] ?(\
_ =
` ."""
a bove
b and
b ans
b rad
b lah
c ro
c name
d y
d an
d UI
e tail
e ager
e dia
e ham
f ra
f rench
f uti
g g
g ab
h h
h ard
h ran
h appy
i rectory
j ab
j umb
j Ã¦
k ro
k ed
k ol
k av
k ala
l v
m ill
n irt
n nes
o vo
p b
p n
p or
p type
p tive
r ville
s x
s gs
s heet
t elnet
u sion
u ana
u oka
u aina
v k
v at
v Desc
w i
w ii
w illow
w anda
w atermark
w elcome
y ang
z kowski
} ')
à ¸
Ġ ri
Ġ ve
Ġ Queryset
Ġ Methods
Ġ QUERY
ĠĠĠ Ċ
Ġ' '):
re write
re ville
re voke
re direction
on ts
or ange
or ski
in secure
in burg
in aga
an z
an cy
an be
an ba
an ley
st ash
', ]
de c
de man
de sired
ti la
ti ane
me a
me y
le gend
th ab
ro it
ro via
al f
al lo
al ia
al can
al uit
sel y
(' ?
ar ded
ct on
db f
Ġ(' <
Ġ(' _
Ġ[ _
Ġc entral
Ġc umulative
Ġre send
Ġre write
Ġre ach
Ġre places
to um
to string
to be
ang el
ang ible
ur se
Ġp print
Ġp ower
Ġp radesh
Ġp uzzle
na m
na ive
def aul
Field Type
Ġf d
Ġf air
ser u
django cms
la kat
ing HttpResponse
id f
id jan
ig ot
ig alpa
get cwd
ri e
up ee
ma de
ma th
ma jor
ch i
ch ance
ch orage
ch arest
ch ott
Ġs ms
Ġs quare
Ġs aid
rom ote
li ers
li cies
li kely
co ordin
Ġb rowsable
Ġb anned
() ;
si dence
di m
di jk
pe c
ad or
Ġw ide
un read
un do
un serialize
un confirmed
un filed
ass ar
ter rey
qu il
qu ari
pro t
pro filing
__ '),
con tinent
der as
ption edFile
and res
fi a
fi red
len dijk
vi ded
Ch ina
Ch agos
Ch isin
ty re
Ġfor bidden
assert s
one t
is Bookmarked
ra u
ho ek
ata pu
Ġh umans
ĠT urn
ĠT inyMCE
Char Filter
Ġd y
Ġd ct
Ġd am
Ġd ollar
args pec
Ġ} ).
pa st
pa red
as ing
In let
Re ci
Re gin
Re moving
ger s
ĠS an
ĠS orted
ĠS UB
mar ibo
Ġst y
Ġst ories
Ġcon stance
Ġe val
ĠA JAX
ĠP as
ĠP art
mb ier
lan ca
Ġex tent
Ġex ceed
us ale
ac l
ac as
Ġ1 20
(" |
(" \\
ca pacity
ol t
ol ulu
Ġu nauthenticated
ĠC lo
ĠC IF
Ġor ange
Ġor phaned
Ġt ells
Ġt angible
Ġn r
") ):
Date View
User Factory
sh ima
tp s
tp hone
po le
tic ello
ĠI de
ĠI talian
ag reement
ag uay
create PageChooser
ĠD ar
ĠD AMA
filter spec
wor ski
). ',
). ")
auth token
Ġdi rected
str value
sc us
Ġde velopers
ly Provider
pi o
Model Name
py dot
Ġass uming
Ġ** {
email template
ay ama
ans k
mo sil
Ġfield monitor
um qi
ĠRe size
ĠRe usablePlugin
Form Log
Form Renderer
-------- -
EN DED
ĠM K
ĠM ost
ĠM CC
ĠL at
ĠL ostPasswordHash
ĠL egalPage
IN ACTIVE
js min
ĠG M
ĠG zippedDictField
ĠG rant
)), )
gist er
gist ration
Ġg zipped
Ġr hs
RE C
RE E
Con ak
Con trols
if ax
Ġan notate
Ġan chor
ia ba
Ġ[' --
base http
ard zki
ant an
for Page
ĠN Z
ĠN ON
Case y
ĠB undle
Ġun do
Ġun installed
sub j
sub folder
sub ordinate
post markup
ĠTest Inline
clu ding
den y
als an
Ġma gic
Ġma cro
by en
ĠW MS
ĠW ITH
ĠUser Serializer
Ġv ector
IT ICAL
are n
sy ms
able s
Ġview er
Ġ` _
Ġ` {}
AC Y
read lines
AR DI
init kwargs
ame na
AL TY
og ur
TestCase With
To me
Ġcheck sums
Page ViewRestriction
ki la
Am man
Ġserializ es
ab lanca
Ġca pacity
Ġsub command
ĠR ia
ĠR ights
ĠR upee
ph rase
Ġen code
arg list
ari vo
mark and
Ġ`` .
Se oul
ĠGroup Serializer
}) (?
}) ".
op ol
op olski
Ġemail confirmation
Object Rel
Ex clude
Permission TestCase
POST AL
zy lor
mon ton
sho t
os ing
Ġtext s
Ġsh ip
Ġevent ually
ref lection
ap s
ap ura
ĠPage Extension
ĠDjango JSONEncoder
Al gi
Al mat
hash lib
10 64
ĠCon nection
Event Index
Filter Field
ak h
ak chott
VER ITY
Ġ4 3
Ġ%} ">
my self
main tenance
su itable
AB LED
ir ut
send able
IS SUE
Ġtable space
Ġauto vouch
ĠDe partment
Ġmatch obj
LO CA
Ġdate parse
invalid ation
Ġsearch es
Ġout dated
Ġout lined
St anley
JSON WebToken
JSON DefaultScraper
im mutable
umb ashi
iler plate
ski e
Ac cra
ĠURL Error
do Middleware
tool kit
ĠV imeo
da pest
unit Groups
Ġ5 5
Ġtag name
Ar ctic
Ġstart node
css min
ong yang
ĠCo ast
ĠCo verage
END S
Ġclean ing
ic mp
fri ends
Ġdoes nt
Select DateWidget
Ġro ut
match er
match set
wit zer
Ġcol lapse
IP AL
und ant
und ling
ĠK B
ĠK ong
fer opol
Ġcomp lic
Ra rot
Ra iny
CMS App
ater inburg
Ġfollow ers
EST RING
{% -
ng o
ng uy
ticket cc
Ġdel imiter
Ġsome how
ĠProject s
Request Token
inter section
Ġhead line
". ')
DO UB
DO CS
mer ce
mer ged
pr z
pr in
Sub region
pagin ations
Ġact ing
ja vik
ĠEvent ProcessingException
Rel Nme
Rel QNme
ĠHTML Parser
ale za
ĠWe ight
upload er
Ġspecifi es
Product Variant
Product Summary
18 9
Th ule
Th imp
Th under
No me
No vok
ĠAPI Error
year byen
ĠJ utda
Ġdis connected
ĠOrder Model
ters burg
Ca iro
Ca mpo
Is abel
EX IF
ib alsan
net sk
DU rville
16 8
Ġread ing
rist ie
ĠTag git
Can cun
simple filter
14 6
player db
gre SQL
ĠCMS Page
Ġlocal ized
Ġbuild out
ĠNo thing
Ġ... ")
Cmd Unconnected
Default FieldMixin
ka round
uggestion s
Ġlock funcs
Ġtask set
Ġinput s
div ostok
invoice item
ĠAuth Error
OP QRST
42 9
ĠTeam Status
RES H
COUN TY
stack overflow
Ġapi views
son s
ĠArticle ForObject
My TitleExtension
mart no
Ġkeep s
Ġag ree
Ġag gr
Ġlimit s
MIN IM
ling u
Ad ak
Ad dis
CM SToolbar
Ġtemp oral
17 99
Ġraw TranslationCost
TO DO
require ment
cra sh
Ġdoc id
Ġ'- ':
ĠApp Authentication
ocal FlavorTests
sale s
Instance PermissionMatrix
Pri maryKeyRelatedField
ont DUrville
Min h
Min sk
Ġref ers
Ġgo to
Invalid ation
ĠEmail Template
CR ITICAL
An chorage
Ġgenerate image
Ġob soleted
Cre ston
Enc rypted
ĠSearch QuerySet
ĠSearch ListView
Ġnum child
locale s
appen ded
HTML Block
CK S
Ġmap ped
Den ver
Ġfree ze
Mon rovia
Mon cton
Mon terrey
Mon ticello
Ġskip Unless
ĠRes olve
ier re
Bu jumb
Bu charest
Bu dapest
discount able
Api a
alt man
ush ima
ĠPRO XY
Change List
Ġinline formset
ĠLa bel
cti ble
Ġdecor ate
ua ia
('- ')
Sa mara
Sa ipan
Sa markand
tuple s
ĠGeneric APIView
ĠWSGI Request
Ticket Change
Ticket CC
Ticket Dependency
istri ca
Gu aya
OB SCUR
Ant anan
ObjectPermission s
batch mode
Lib reville
ĠRE LEASE
Te hran
ĠRun s
uz netsk
Ġreason able
Cart Row
Pa z
Pa ulo
Script s
Ur umqi
ĠValid atedPage
Ġdetermin ing
Ġdetermin es
roll out
waffle s
Ma he
Ma deira
Ma zat
Ma seru
gu elen
Help Entry
Sp anish
Topic Category
ud as
Jo hannes
Unique ness
CHECK OUT
aa aa
Sh i
pur ged
Ġenter prise
PAR AM
Photo logue
Ġknow s
EXT ENDED
Ġperform ance
ĠSubmission Factory
Ab aba
Ab idjan
zz z
ĠMap box
Cur rie
HANDL ING
Spe cial
Ġinit kwargs
amp ers
Map uto
leg os
Lu is
Lu cia
Lu anda
Or iginal
Export er
Multi Value
bind ing
Ġnote book
ĠLayout Class
ĠLayout Slice
ĠNumber Filter
ĠStream ingHttpResponse
ĠRegistration Error
ĠRegistration Form
ĠRegistration View
37 508
sa ari
>[^\/ ]+)/$',
heri table
Ġrecur ring
Ġrecur sively
Ã© n
'| {%
smar tphone
ĠMatch es
REF RESH
Mar ino
Mar ques
Mar igot
ov ci
../ ..
flow Mixin
John s
John ston
Ġ'[ %
Man ila
Man agua
Bo a
Bo to
Bo ise
CELERY BEAT
Url Middleware
SavedSearch UserDefault
Static Block
Static Files
ini ted
ĠSpe aker
ĠCount er
ĠMenu Item
Ġcancel led
Sy owa
percent age
Ġloop s
ĠSync SubscriptionMock
Ġ123456 7
VI LE
Ġdescri ptions
Ġdescri bes
SearchTest Child
Ph nom
Ġdot s
ĠOption ally
lon ger
Resolu te
WAGTAIL IMAGES
structure s
az akh
IST ED
cu ador
Ġgre at
Bel grade
Ġreceive s
~~~~~~~~~~~~~~~~~~~~~~~~ ~~~
Ġhol ding
ĠSavedSearch UserDefault
Ġvisi bility
ĠSkip Check
Ġcombin ed
ĠUnique ForDate
zh ye
ĠUUID Field
ĠCache File
MARK DOWN
Ġ({ '
ĠToken Has
RESULT S
ĠPasswordReset Confirm
Ġface ted
ĠME MBER
ĠPrice Field
So fia
ĠHe ad
Ġwri table
Be ulah
Be irut
Tor tola
Ġfill char
Dak ar
ao fo
Rece ived
ĠAuthentication Method
As unc
Score sby
Ġexam ine
NN NN
Py ongyang
une pe
~~~~~~~~~~~~~~~~~~~~ ~~
SY NC
More sby
ĠStandard Index
RA W
uc igalpa
Runtime Error
VISIB ILITY
Dom ingo
Sal vador
Mac quari
repe ats
oro zhye
ĠIssue TrackingPlugin
Ġyes no
132 01
ya hoo
ĠRead Only
Expi ration
PUBLISH ED
Rio ja
Twitter Account
dz i
ĠRefresh Token
Raw HTMLBlock
ĠInlineTest ChildModel
Ga za
Ga mbier
Har are
hd ad
cend ant
fileblob index
Ġpossib ilities
ple mental
ĠFix ed
Ġprefer ences
EXCEP TIONS
ĠCartItem Model
Ki riti
mor os
dish u
TERN AL
SEPAR ATORS
CONTA IN
offi ce
Guad alcan
Nested Objects
Chi hua
UNIC IPAL
Santa rem
Ban jul
Ban deras
Cay enne
Mer ida
Stock holm
Ġflow ers
Ġnor mpath
Ġrecogn ized
Jer usale
ĠBound Block
How e
Mix ed
kok an
rep lied
(", ")
GAME DIR
COE FFIC
PROVID ER
AU DIENCE
Ġrespec tive
Vien tiane
Ġanaly ze
Kra lendijk
Ver de
Ġsibling s
Bog ota
Nou mea
Nou akchott
Pol and
tian ak
Ġ"." .
Ġopp osite
provi dencia
Ġask ed
Ġtick ers
Blan c
Blan tyre
Car acas
HM fq
Sale m
cross ref
obr zeski
ĠCOL UMN
Ġfilesize format
ĠRegular FieldsModel
ĠHEAD ER
Gal legos
Mid way
Pe tersburg
Pon tianak
Random CharField
RGB A
Sw ift
Vel ho
Wa it
Ġexi ted
agad oug
revisionplugin revision
Yakut at
Yakut sk
Aq tau
Aq tobe
Dialog FormPluginBase
Free town
Her mosil
Lis bon
Mari eham
Mak assar
Vince nt
Vince nnes
ĠOAuthLib Core
ĠSTRICT NESS
Ed monton
Gab orone
Imple ment
Tai pei
Ġinterpre ted
uts ch
Colo mbo
Ġcolli sions
implement ations
Bran co
Fort aleza
Ker guelen
Kit ts
Ġpr j
lov ak
ATTACH MENTS
INV ITE
ĠHyperlinked IdentityField
Activ atorModel
Ġrol ls
Ash gab
Men omin
Mace io
Pen h
Qy zylor
SUP PORT
moz spaces
GRAPH ITE
ĠRevisionPlugin Revision
ĠPackage NotFound
distribu tion
Az ores
Bang kok
Work flowMixin
Tri poli
Ġinform ations
WagtailAdmin PageForm
Ender bury
Tw ilio
Zgor nja
jp ueb
DIFF ER
FilePath Field
Specifi c
Podgor ica
Long yearbyen
Mur do
Oj inaga
PEN ALTY
ĠDown load
Ġurlun parse
portra it
ĠEntryQueryset Archive
Fak aofo
Hal ifax
Lin deman
Mata moros
Sala am
ĠOcc upation
ĠZe aland
Arag uaina
Heb ron
Lub umbashi
Part Parser
Sab lon
Sim feropol
Vev ay
Yellow knife
Ġki ck
ounc il
ĠIC MP
MuxPlayer Command
RawId Widget
Temporary File
Saraj evo
Cas ablanca
Det roit
Dum ontDUrville
Edi ted
God thab
Gran de
Hon olulu
Hov d
Mare ngo
Mala bo
Nai robi
Prin ces
Tuc uman
WIN DO
Wind hoek
Wars aw
ĠForeign ObjectRel
Ġimpro ve
laim er
constru ctible
Cho ibalsan
Chu uk
esri FieldType
Met lakat
Requires Authentication
ocMem Cache
797378 0013
Maj uro
Lump ur
MULTIP LE
White horse
Karach i
PICKLE FIELD
1294638 3
Dh aka
Dou ala
Dub ai
Eu cla
Gala pagos
Kab ul
Lus aka
Mc Murdo
Magad an
Ou agadoug
Pang nirt
Tun is
Tall inn
Uzh gorod
Vla divostok
Vad uz
Zagre b
Inu vik
Para maribo
Pohn pei
Skop je
FeatureType Style
Kamchat ka
Novosibir sk
ABCDEFGHI JKLMN
Irkut sk
Phoen ix
Krasnoyar sk
Ati kokan
Aai un
Asmar a
Anad yr
Bag hdad
Bangu i
Bak u
Bish kek
Bama ko
Cu iaba
Dush anbe
Dama scus
Ef ate
Eir unepe
Funa futi
Iq aluit
Jay apura
JEN KINS
June au
Kig ali
Kosi ce
Kath mandu
Kie v
Kuch ing
Kamp ala
Kolk ata
Khar toum
Lex er
Mus cat
Mana us
Mbab ane
Moga dishu
Nass au
Nip igon
Nia mey
Ndj amena
Prag ue
Rother a
Rank in
Reyk javik
Riy adh
Rango on
Sit ka
Tp N
Tho mas
Tir ane
Tong atapu
Tash kent
Tbil isi
Teg ucigalpa
Tara wa
Tij uana
Ula anba
Ush uaia
Wina mac
Winni peg
Yere van
Yek aterinburg
Zap orozhye
kav dev
Chisin au
Reci fe
Regin a
ĠMCC P
Conak ry
forPage Load
Ġ`{} `
ARDI AN
Algi ers
Almat y
witzer land
Rarot onga
Thimp hu
Novok uznetsk
OPQRST UV
MINIM UM
Bujumb ura
Guaya quil
Antanan arivo
Mazat lan
Johannes burg
Marques as
Asunc ion
Scoresby sund
Macquari e
Kiriti mati
Guadalcan al
Chihua hua
Jerusale m
COEFFIC IENTS
HMfq TpN
Hermosil lo
Marieham n
Ashgab at
Menomin ee
Qyzylor da
jpueb lo
Metlakat la
Ouagadoug ou
Pangnirt ung
Ulaanba atar
! '))
" ``,
# %
% }</
( ../
. :
/ ':
/ "}),
0 50
1 40
2 10
3 11
3 10
3 78
4 30
5 22
9 22
< !
< =
= '))
> /
> '),
? %(
@ %
A MS
A tom
B Q
B en
B OT
C ue
C ART
C uba
C loud
D Z
D oc
D URATION
E VER
E ditable
F o
F lip
F ET
G UN
H K
H Ã¸
H ai
H ooks
I Q
J enkins
K H
K ash
L ight
L ab
M ol
M ST
M ID
N H
N ag
P un
P layers
R ock
R Ã¸
R PC
S AME
S Ã¸
S ula
S kipping
T X
T as
T wo
T umblr
T LS
U kra
V enez
W I
W hether
X ml
X PL
Y d
Y STEM
Z E
Z ON
[ _
] /
_ ))
a e
b ard
b ec
b python
c ite
c rypto
c rypt
d raw
e user
f h
f x
g ru
g arian
h or
j ames
j etty
k al
l w
l tr
m att
n v
n ed
n pm
n esting
o sed
p od
p iz
p ress
p gettext
p altman
q q
q ing
s b
s rid
s uggested
s Website
u an
u time
u do
u mented
v w
v cc
w id
w ild
w ell
x d
x l
y ers
z fill
| '
} ;
} },
Ä ĵ
Î »
Ġ Â
Ġ ()):
Ġ urlize
el ap
Ġ' ')),
re actor
in ame
in herited
se x
se TestSuiteRunner
st it
', ):
de posi
de partment
me an
me moize
th ey
th ew
th readed
ro c
ue se
(' &
(' '),
od noklassniki
ar ter
ar tist
ar ray
ss n
odel ists
Ġi x
ct or
Ġ{ \
at of
Ġ[ ('',
Ġc ron
Ġc uit
Ġc luster
Ġc amelcase
Ġre fact
Ġre verted
Ġre boot
to x
to bject
], ["
Ġp t
Ġp pa
ect s
ce ba
Ġf set
Ġf ks
Ġf resh
Ġf acebook
la de
Ġth rows
ey chel
en um
en ners
ma sh
ma sk
ma gic
ch r
ch ten
ch mod
Ġs atch
Ġs cor
Ġs lots
li est
li fe
Ġin tegrity
co erce
no ise
"" ]
Ġb other
Ġb tn
si ca
key fmt
ad dition
un di
un link
un flag
un install
un mute
'] "
qu ator
sp age
Ġ( [
Ġ( \
pro perly
Ġreturn Value
con version
der e
test admin
vi es
assert RequiresAuthentication
ew an
ra tive
pp ers
Ġno tified
Ġh h
Ġh eld
ĠT uple
ĠT utorial
ĠT ENANT
Ġd aily
it ty
it elist
Ġ} )),
Ġ} """)
ut una
Key word
group ID
as o
In Filter
In formation
Me dium
Re vert
Re gular
Re served
00 22
ĠS w
ĠS he
ĠS PE
ĠS ale
ĠS MTP
ĠS NIP
Ġst o
Ġst ab
Ġe t
ĠA m
ĠA TT
ĠA DD
ĠA lex
ĠA vailable
ĠP R
ĠP ol
ĠP rin
ĠP DT
Ġpro cs
Ġex cess
mi tation
ac cordion
om an
am ma
am mer
am ero
(" +
(" .",
ca mp
Ġu na
Ġu navailable
ĠC EL
ĠC luster
data structures
Ġn ic
Ġn ginx
") ;
Ġbe ta
sh all
sh int
ĠI MA
ag gregates
ĠD O
). """
Ġ"' '"}),
Ġdi e
Ġse o
Ġde b
py graphviz
Ġco urse
AT OM
Ġver s
Ġ+ --
Project Bookmark
Ġdata s
Ġl l
atch ewan
ĠM ET
ĠM igrate
ĠM AIL
ĠM ini
Ġ_(' %
ĠO ld
ĠL ive
Ġ{} ".
IN D
IN LINE
ĠF rom
ĠF utuna
Vi deo
ĠG re
ĠG uest
Ġpa ver
View PermissionTests
ĠH igh
12 18
Ġr mem
Ġr pad
RE MEMBER
Text Search
tag name
Ġ[' *
32 75
Ġac cur
for mentry
Ġhas her
cre ator
Ġcontext s
contrib ution
ĠN AWS
Ġlist values
ĠB ra
ĠB RO
ĠB ody
Ġun handled
string filter
sub index
sub dirs
ĠTest Command
trans forms
queryset s
back wards
Ġ. /
res urrect
ĠW hether
ĠW ork
ĠW rappedAPIView
ĠUser ChangeForm
ne k
Ġv env
IT CH
()) ]
Ġview sets
Ġ` "
Ġ` {
read me
[" _
ost CodeField
Ġlo cate
Ġ< %
method name
ĠPro vides
ĠPro tectedResource
ren cy
ren ditions
placeholder model
placeholder conf
tra sh
ĠR oll
foo ter
ph icon
Ġen for
Ġhelp s
ĠU nauthorized
Ġ(" %
ifi able
mod o
mod name
mod ifiable
spe cial
Ġ`` (
Ġ`` ````````````
AS ON
ound Cloud
Ġge om
Ġge ogig
ĠGroup s
ĠGroup Endpoint
fun facts
ze gov
Di vision
Di spatch
Permission FormSet
mon str
Ġrel ies
ĠIn herit
Organization OnboardingTask
File Storage
superuser s
edit s
edit ors
11 70
ĠEx act
ĠEx its
char field
Ġup time
Ġup stream
Filter s
Filter Form
VER BO
]. [
eb bd
AB SOLUTE
Tag Field
UN C
UN T
Ġcopy ing
Ġchar image
auto field
Ġextra s
Un related
Un modifiable
Ġdate format
75 5
75 6
Ġindex ing
Ġblock ed
Ġj enkins
Ġtr ansi
ĠV AT
ĠV ector
extra s
zil y
pack ager
css lint
ĠCo uld
mock s
Ġconfig s
20 2
dition ally
Select Mixin
Co mple
Template CharField
Ġ'/ _
Ġ/ >')
Search Form
Search Backend
Search Results
style guide
ĠK avana
APP END
AG TA
Ġpo licies
patch es
SI DEBAR
Ġsome times
Ġsign in
ask atchewan
Image WithThumbsField
perm string
ĠBase Plugin
ĠBase UserManager
ĠBase DatabaseWrapper
Ġtrans fers
ĠProduct sPropertiesRelation
Profile Form
initial isation
Item Serializer
DEL IMITER
PER S
Ġserver s
lat in
rc id
.') ])
Ġqu o
Ġqu ite
Mock edResponse
ĠUn its
ĠEvent Spider
MAIL GUN
Revision View
Revision Mixin
ĠAt tach
success fully
Ġprefix er
TR UNC
Th ree
pending projectmember
wh ile
Ġresource base
Ġmin s
TH ROTTLE
ĠModel s
ĠModel Backend
000 8
ran k
we g
we si
we den
Is rael
Is Unmodifiable
custom user
err msg
ĠPermission TestCase
Ġser ial
Ġmeta var
FIL ENA
ĠDefault Object
Ġ9 7
Widget Mixin
non existant
14 40
AY STACK
gre g
Ġlocal s
etch es
Ġopen ed
ĠJSON WebToken
Ġchannel key
Code Type
Code Select
mode s
ĠFile Browse
ĠSub Mock
lot ment
Django FilterBackend
Ġexp lore
OL D
Inline Panel
tax es
################################################################ ######
Ġag reement
Ġinclu sion
Ġsk ills
Ġreport er
SET UP
ĠTrans lators
ĠTrans latable
Ġrepresent ations
Ġrefer encing
Count ries
Ġerr keys
PRE C
Ġ'- ',
ĠIN VALID
ĠIN STALL
stats d
Instance StatusSnapshot
Property Group
Min ValueValidator
Post Form
bad checksum
Ġweb driver
Invalid RequestError
ian a
FIX ED
Ġtimestamp s
Ġperm string
NOT IFY
Store View
ĠSearch able
teg rated
ĠAl ter
Renderer A
Ġrandom ly
delivery group
xf a
aw s
Ġ"/ ")
dummy runner
Storage Finder
24 5
Ġinterface s
imp l
Ġmer ging
Ġpop ulates
ĠCustom Manager
Nor d
Ġ'? %
Edit ors
Edit PageItem
ĠPRO TOCOL
PY G
Ġsingle ton
blob s
ĠUserProfile DetailedSerializer
Ġgame time
="" >',
ever note
Ġdecor ators
ĠAd vanced
Ġcurren cies
Ġhope fully
ĠWARRAN TIES
CHAN CE
04 30
Ġmy project
Regex URLResolver
+)/ $'),
AV AILABLE
ĠRE VERSE
Placeholder Field
Ġsync db
DIS ABLED
Cart Modifier
ĠBasic Object
nor sk
73 5
construct or
Source Mock
Ġassoci ate
ĠAss ociation
1111 111
ĠFI ELD
Ma ster
game s
dest roy
PagePermission s
Ġsection s
Le on
Layer Descriptor
Ġsy n
86 90
Oper ations
Ġserve s
PAR SE
Remove d
Ġfetch ing
Ġperform ing
ĠUni ted
gi um
Cur sor
SA VE
Ġconnect ing
Submission s
Ġstructure s
Spe akers
ĠPar tial
latform er
ĠStatic Files
fg dc
ĠDummy Request
Stream s
Ġtab s
Translation Admin
Ġrep lies
Export Form
RelatedField ListFilter
equal s
ĠPre ttyTable
Ġextend Markdown
Ġword count
Archive Form
MC CP
Comment ListNode
ĠStream Value
Ġsha pe
('_ ',
]+ \
ĠBe cause
Ġappropri ately
ĠRa dio
ui cy
Require ment
Ġâ Ģ
INTER FACE
Lo ire
ĠInst anti
Ġcorrespon d
Abstract BaseUser
ini can
ĠSpe c
ĠSpe ech
ĠQu ota
Ġintro spect
Ġreview ed
Checkbox es
HI GH
Ġgra ce
tagged custompk
Ġtim elines
ĠVirtualFolder DBFactory
Ġtre es
mem cached
ĠCre ation
ĠTranslationProject Factory
Ph ilipp
Ġcare ful
ĠSave s
Ġpacket s
san iti
fil tr
mac ro
WAGTAIL SEARCH
SIGN IN
SIGN ED
trial ing
Ġweek day
Ġrepe ats
GROUP S
Ang ular
Bel ar
Ġsm tp
~~~~~~~~~~~~~~~~~~~~~~~~ ~
drop box
ĠRefer ence
ORDER ING
Format ter
Facebook App
Facebook Account
Username Form
Ġalert s
Csrf ExemptMixin
It Up
ĠAuto matically
ĠMark down
>[^/ ]+)/$',
Tur key
hand shake
comple x
ĠPasswordReset View
oth o
ĠOpenID Nonce
So lo
Ġaffected user
ĠMO DULES
ĠRenderer A
tt f
Retrieve Mock
ĠRange Widget
Ġrect ang
Ġparagraph s
ĠTask Meta
ĠTask SetMeta
ĠTenant Model
ĠImple mentation
Ġsen sible
Interface ValidationError
here Page
~~~~~~~~~~~~~~~~~~~~ ~~~
SY STEM
CMDSET S
aterialized Model
THUMB S
RA ISE
uc ceeded
Ġprin ted
Ġdisc ard
TRACK ER
FRAME WORK
ĠStatusCheck Result
250 2
ĠLi ke
iPhvoc M
SW ITCH
ĠSingle Exception
ĠCH AN
ĠDebug Toolbar
ĠInlineTest ParentModel
WA IT
âĢ Ļ
ĠCri teria
TSDB Model
Ġprefer ence
Ġsur vive
ĠSafe Text
Ġcheckbox es
Ġ456 7
Brazil ian
Ġquick ly
Ġwatch er
Inst all
Inst agram
ĠSensitiveData Serializer
DOC UMENT
Ug lify
ĠVi rgin
ĠTemp orary
ĠNor th
Cal lable
scor elog
Ġrp languages
MBED S
Ġanaly tics
ĠUnknown Option
ĠTH IS
ĠTH UMB
Sho uld
Scheduler Runtime
pid file
Ġdead line
ĠSubscribe View
Label Command
Ġsan ity
uel a
ĠInteger Argument
ĠCat alog
ĠLI ABILITY
Ġmeaning ful
Fe atured
SORT ING
kl m
Ġfri endly
Attach ments
Sock s
Sock et
Ġiniti ated
Ġoffi cial
authentic ator
authentic ators
communi cate
ĠStats Mixin
setUpScraper JS
setUpScraper JSONDefaultScraper
230 880
Now herePage
clas sed
('.. '))
Ġcla ses
Ġlead s
ĠAPIApp Factory
Named Layer
SHORT ENER
mud name
Ġplur r
ILE MBEDS
Portug al
ĠParser Error
ĠNgForm ValidationMixin
ĠBitbucket OAuth
JAV A
Ġunexpected ly
ĠExternal UrlsPinger
ĠskipIf CustomUser
ĠLevel MatchType
Ġblin ded
ĠMESS AGES
ĠHer zegov
ĠVer de
ĠSpatial RepresentationType
Black list
Ġlu hn
associ ate
assertUser InstancePermissionMatrix
Inherit ance
Basket Exception
espa Ã±
vari ance
referr al
OAuthLib Mixin
Jap an
vime o
ĠPAR SED
Ġ"'{} '"}),
Ġcoordin ates
INTE GER
ĠDefin es
abcdefgh ij
vant age
iscussion s
Egy pt
gob lin
ĠMari ana
ĠFi xture
icar agua
sproperties relation
Styled LayerDescriptor
Goth am
Uz bek
Ġdam age
LOCA LE
Ġcomplic ated
VILE GED
13201 144
FET CH
Sula wesi
Tas man
XPL ayer
piz za
eychel les
chten stein
Ġsatch less
ĠSNIP PET
ĠCEL ERY
ATOM IC
3275 595
ĠBRO KER
VERBO SE
ĠKavana ugh
AGTA ILEMBEDS
FILENA MES
ĠHerzegov ina
" (
# ========================================================================
' ')
) (*
* :
0 423
2 12
2 33
2 70
3 34
3 124
5 25
7 00
8 50
9 11
; ",
; ')
; }</
> :
? ",
B M
B i
B and
B lin
B IC
C i
C sp
C ra
C ms
C US
C ell
C PROFILE
C erk
C ERT
D one
D ol
D raw
D rag
E na
E ach
E ston
E ngine
F ri
F ind
F LO
F iler
G G
G it
G IT
G ive
G raph
G reece
H N
H or
I l
I ce
I ATION
I nactive
J ord
K h
K y
K wargs
K orea
K azakh
L K
L am
L atest
M F
M r
M Field
M ost
M ich
N M
N ick
N ep
N OK
O ri
O cean
P late
P IL
P ACE
P apua
R oom
S or
S red
S tra
S ince
S wa
S CHEDULE
S askatchewan
T C
T F
T y
T urn
T oday
T akes
T URE
U ATION
V an
V AN
V PATH
W V
W ill
W PP
Y e
\ ':
] +',
a ab
a pache
b all
b logger
b readcrumb
b idi
b undling
c in
c de
c dict
c pu
c oupon
d k
d in
d eleting
e ter
e ot
e valu
e fficient
f ect
f requent
f onts
g al
g id
g ree
g elist
g rid
h ana
h DD
i mited
j unk
j ik
k ato
l Ã¤
m il
m unicipality
n di
n ullable
o li
r cs
r ators
s Field
s ound
t Yd
u me
u ge
u name
u je
v as
v ogur
w iel
y ce
y ama
y lland
y prus
z i
z no
z et
z ow
| \\
} $
} @
} \.
~ /.
Â »
Ä «
Ä Į
Ð ¾
Ñ ĥ
à ¦
Ġ ----
Ġ lin
Ġ arch
Ġ xx
Ġ xxxx
Ġ archives
Ġ Ð¸
Ĥ ¬
Ġ' ='
re ft
re dee
re cogs
in at
in dented
se titem
an ks
an notated
me t
me tric
th io
ro l
ro me
al borg
al Ocean
ge ogig
(' *
(' //
(' ''
od zki
ar ser
ss a
Ġi zip
Ġ" -%
Ġ" {{
db a
db y
Ġ(' __
Ġ[ -
Ġ[ \"
Ġ[ ""]
Ġc format
Ġc ame
Ġc cccccccccccccccc
Ġre order
Ġre ached
to pt
to wski
ur age
Ġp object
Ġp eso
): \
): ]
ce il
Ġa verage
Ġa mbig
Ġf ul
Ġf lexi
Ġf av
id o
ou thern
ey ond
ey pot
ta i
ri kaans
ma ss
ob ago
ch er
ch owski
ch Element
Ġs ou
Ġs ched
Ġs aw
Ġs napshot
Ġs caled
Ġin str
no error
no store
set locale
Ġb s
Ġb rand
() ()
ert on
si st
di e
pe m
pe s
ad m
ad zki
Ġ# (
val bard
Ġif acestr
sp ired
sp iders
sp lural
Ġ( -
Ġ( ',
pro ve
lu tion
date format
con trols
con versation
Ġto wards
and ra
fi re
Ġ""" \
time d
test project
default script
assert Text
assert Valid
is ing
is ort
is data
ra ight
Ġis db
pp l
Ġm inx
=' *',
Ġno p
Ġh ar
Ġh yperlinked
Ġh yperlink
ĠT W
ĠT AB
ĠT ell
ĠT ome
ĠT obago
Ġ} ",
oo c
pa ging
ub mission
ut on
Re f
Re view
project bookmark
Ġget Logger
tr igger
ĠS D
ĠS ends
ĠS ender
ĠS SO
ĠS lot
ĠS haredMemoryModel
ĠS amoa
ĠS Reg
Ġst able
Ġst raight
Ġe p
ĠP ip
ĠP ending
ĠP ASS
ĠP eriod
ĠP oly
ĠP radesh
ĠP INAX
ĠP ATH
ĠP enners
ht m
Ġpro f
Ġpro filer
Ġpro tect
Ġpro filing
Ġpro cesses
pri stine
Ġex tenders
Ġex poses
us ted
Ġ% .
ac quire
ac cessed
page url
am t
Ġ1 40
Ġ1 800
(" [
(" ^
ol sz
min e
ĠC olor
Ġt k
Ġt ps
view code
view sets
Ġn cols
Ġn plurals
Ġn pm
Ġn esting
tri ple
entry text
") '
") >-
Auto Created
Auto Last
Date Detail
User Style
sh x
sh aring
po lit
ml ng
ĠI RC
ure yri
Group Endpoint
ĠD ue
ĠD ist
ĠD ES
ĠD eleted
ĠD ontSendEntry
ĠD RAFT
Ġ== ====
ON ENT
auth ed
Ġas cii
Ġdi c
com merce
Ġse per
import lib
Ġde c
Ġde compress
Ġde tected
Ġde grees
Ġ__ ,
pi pe
Ġfile paths
Model VectorBuilder
py csw
Ġass ig
table space
AT EL
AT TEMP
Ġver ifier
title models
Ġfield set
um mary
act ing
ĠRe store
ĠRe cover
ĠRe quires
ĠRe striction
ĠM AN
ĠM iddleware
ĠM oder
ĠM SS
ĠM iquelon
ĠM exican
Ġ_(' {
ĠL in
ĠL ow
ĠL anka
ĠL atest
ĠL egacy
"> %(
IN K
IN JA
IN STAG
ok o
OR K
core api
ĠF all
Vi et
ĠG B
ĠG ENER
Ġme m
ĠĠĠĠĠĠĠĠĠĠĠĠĠĠĠĠĠĠĠĠĠĠĠĠĠĠĠĠĠĠĠĠ ĠĠĠĠĠĠĠĠĠĠĠĠĠĠĠĠĠĠĠĠĠĠĠĠĠĠĠĠĠ
ĠĠĠĠĠĠĠĠĠĠĠĠĠĠĠĠĠĠĠĠĠĠĠĠĠĠĠĠĠĠĠĠ ĠĠĠĠĠĠĠĠĠĠĠĠĠĠĠĠĠĠĠĠĠĠĠĠĠĠĠĠĠĠĠĠĠĠĠĠĠĠĠĠĠĠĠĠĠĠĠĠĠĠĠĠ
instance statussnapshot
ci dent
Ġal ignment
View TestCase
Ġg isdata
ĠH elena
Ġ0 8
Ġr m
Ġr ank
RE LOAD
Con tainer
Ġ[' __
base dir
32 57
site ppl
]) ):
################ ##
md x
ĠN cache
Ġlist ify
ĠB lank
ĠB IC
Ġun locked
Ġun signed
Ġun suitable
man aging
Ġare as
sub scr
check ers
ĠTest Custom
ĠTest PluginModel
organization onboarding
port NumberField
has Seen
URL Redirect
username s
:// '
sta b
Ġsuper class
by e
ĠW IKI
Ġnew s
Ġby pass
ne c
link texts
Ġview ing
(). __
Ġpar ties
init ely
ame id
RO LE
={ }
Ġpre sented
To Public
Ġab c
Ġcheck ers
ab ly
ab ility
']) [
Ġca st
AP IClient
tra ct
Ġsub j
Ġsub set
Ġsub directories
ĠR aw
ĠR PF
ĠR endition
ph s
ID LE
Ġpri mitive
100 00
100 0000
100 254
De fine
Not Implemented
Not Per
Ser ializ
'^ (
ys hop
Auth Backend
=[ _
=[ ]),
Ġfilter set
PL N
ick x
Ġany one
}) $')
Ġid mapper
Ex cluded
bu y
POST BACK
zy cki
Base Page
sho ppinglist
af rikaans
Ġtext ual
Ġsh ut
Ġsh ift
tal y
ref docname
ref ecture
tifi es
Organization View
30 4
Ġfi re
11 6
help text
ĠEx ecute
10 123456
Ġup coming
Ġ4 8
Ġ4 55
work ed
send s
send Line
Ġsource maps
################################ ######################
IS imple
verri den
Un loggedin
LO B
LO OP
('/ '):
Ġout standing
Ġnode name
ts rcs
ski y
Ac cel
ĠURL conf
+) \
+) $',
Ġbu mp
Redirect View
=( (
Res olved
Ġman aging
Ã¸ bing
List Test
Config ure
FA KE
201 60
ong qing
Ġclean s
Ġclean ly
Ġlink texts
Log out
match ed
Ġcol lation
imple mented
ĠK it
owner ship
nav a
allow ance
ep dog
Ġsome where
ĠProject Rule
ĠProject Bookmark
ĠProject Quota
assertIn HTML
Ġwagtail images
Request Exception
full path
Ġsession handler
Ġtrans formed
Node s
API KEY
QU OTE
App le
Ġ"% .
Ġinter medi
display field
PER MS
02 19
pr string
Sub commandsCommand
Mock View
ĠImage Admin
ĠImage CacheFile
ĠUn select
Ġpack ed
Rel oad
ĠOrganization Endpoint
Ġover written
TER M
down loaded
iter tools
Ġpy csw
rf ind
ĠForm ValidMessageMixin
>\ \
wh y
Account s
ĠAPI Settings
ĠOrder able
ali ci
ĠModel VectorBuilder
Is land
EX TERNAL
OAuth TestsMixin
Ġposition al
]+) /?$',
78 699
ĠPermission Policy
ĠOAuth Provider
Ġcmd sethandler
39 1170
tc p
ĠCMS App
Ġbuild s
ĠLanguage DBFactory
Token View
55 44
ĠJSON ResponseView
ĠNo RootURL
DAT ESTRING
ĠCategory Option
Ġlook ed
(_(' %
dj dt
Ġmanage s
Ġok ay
ĠMock Token
By Id
loaded Req
15 9
struct s
Task State
Ġiter ate
RES ERVED
COUN TRIES
Access or
Name s
[- \.
Ġwhere as
33 7
ĠAc tive
ni o
With Detail
With Script
With Fk
Ġag greg
Ġcontrib s
Ġcontrib utor
Ġselect cmds
Ġhash ed
Ġmon ito
ĠDE PREC
XXXX XXX
Ġ& &
Ġreport ing
Ġattr getter
STR INGS
Ġne gotiation
Ġne ighbours
CM SEditableObject
ba setype
}} }
NO STORE
ĠCa pture
Ġdoc file
ĠApp s
ĠIN DEX
Pri ces
COMP ONENT
())) .
Post gres
Tree ForeignKey
Invalid MessageMixin
ĠEmail Field
>. *
FIX TURE
Ġlet ting
rou ters
ĠView Restriction
La o
Ġob fus
ĠAdmin Context
ĠPost gres
ĠPost greSQL
ĠUnit TextSearch
ĠUnit ExportForm
Ġpatch ed
Ġowner ship
arn es
Ġti ming
88 8
Ġown ers
Document Chooser
follow ed
Ġim mutable
IZ ED
color ize
aw i
Ġ"/ ".
ĠEn force
=[' %
Ġ100 80
ĠMessage Log
igit alOcean
multi field
multi lingu
HOST NAME
RI B
Session AuthenticationMiddleware
ĠOrdered Item
CUR PField
Ġsepar ation
Attribute Form
ier ra
ĠCom maSeparatedUser
Edit View
Ġdown stream
Ġexecute s
Ġinline func
ĠTestForm With
Ġbar ter
ĠUserProfile AdminForm
Port al
Su chElement
Ġschema s
Ġlive s
ĠRE VIS
He ading
Pre fix
need le
alk land
Ġstats d
ooki e
79 3
correct ly
Cart Line
ĠBasic Serializer
FILTER S
ĠResource View
yes no
Ġclo sing
Ġput s
Ġthread s
tected Error
week day
ĠY ork
Ġtmp l
Ġtmp file
sdesc s
ĠAbstract Page
ĠPassword Field
Unique ForDate
rad om
TRANSL ATE
rans late
rontend Editable
Oper ationalError
}' ".
ĠWeb hook
Language Url
Ġtri als
Signup View
person al
Ġexit name
EXT S
GA MA
Relation al
ah ara
una ssigned
Cur rency
Ġla zily
accept s
aly tics
Spe cify
oup le
merge ncy
sw ap
sw ana
Ġz f
Ġorigin ally
refun ds
ĠInter nal
MULT ISITE
fn match
ĠStri p
ĠPagePermission InlineAdminForm
ĠPre fix
ĠPre vious
VirtualFolder TreeItem
Builder s
((' $
Ã© es
ĠShippingMethod Country
'| '
Mar ia
Sk ip
ĠPy Test
Direct Payment
br zeski
Ġred undant
PageChooser Model
Bo li
Standard Domain
Ġdrop ped
remote Store
Ġfil tr
Ġstat obj
postal code
ĠTagKey Status
Database Scheduler
ĠEmbed NotFoundException
VALID ATOR
tagged tracked
Ġxml rpc
); "
IMPORT S
EXP IRES
ĠCalendar Relation
flat pages
ĠChoice Field
ĠPort ug
Calcul ates
(?: \
ital ic
WEB SERVER
96 52
Send file
Shipping Address
nick name
ĠSkip Node
ĠCity Factory
ĠOr iginal
License Plate
Ġinstanti ating
Packet Ice
rollup s
Smart Phone
ĠPa idTask
ĠBuild s
coin Receiver
Invoice Items
callsign s
attemp ts
tt l
ĠGu iana
Ġidentify ing
Charge Webhook
Read Write
Debug Panel
Debug Toolbar
NL P
kb item
Rece ive
Ġhard coded
ĠBar at
atter y
bn icki
############## #
Ġoptim ize
Hook Set
fti x
ĠDis able
Ġdisc ounted
TRACK BACK
CENT ER
Ha ute
Ġincrement ing
ĠLi mit
2222 2222
Modified Field
ĠPL UGIN
iPhvoc MG
PP refecture
Twitter App
dsym file
("" .
WW W
ĠMethod Type
alex ample
ĠPhotoSize Cache
GU ARDIAN
Ã´ ne
Ġconflict s
Ġ14484 70
ĠNav ig
Summary Item
Rou tablePage
Ġdele table
ĠManyToMany Field
0101 01
ĠVAL UE
REL IC
3333 3333
Ġplay able
ĠFin ally
FAIL URE
Saver List
ATTR IB
Hyperlinked RelatedField
gar ia
ĠStr uctBlock
Ġrp language
ĠTab bedInterface
ĠDa vid
Copy right
ĠOrderingFilter Model
Moder ator
crontab schedule
mpo tent
ĠRo setta
DOT ALL
offer list
Ġlow est
ĠAfri ca
ĠMail Preview
ffffffff ffffffff
ĠTerrit ories
Safe CmdSet
ĠEV ENT
LB Forum
geon ameid
ĠOfflineCompress TestCaseWith
Ġide ally
Ġide mpotent
wan ted
="{% =
poli cies
ĠPay ments
builtin s
.']) },
Stripe Error
('{} ?
trun cation
ĠMULT ISESSION
ĠOfficial Food
GEO SERVER
Ġtrun cated
Ġmanip ulating
Named TemporaryFile
ĠNullableForeignKeySource Serializer
Ġhex adecimal
ĠSL UG
Ġstand ing
(... )
Ġ136 391170
ĠCal lable
ĠProcessed ImageField
ĠRES ERVED
POP UP
ĠGroupAlias Factory
InlineTest ParentModel
ĠCONTR IBUTORS
ĠPrepended AppendedText
TOP IC
Ve j
Ġig noring
ĠCaptcha Store
Ġnl p
ĠWor ks
Ġliter al
ĠUtili ties
Ping backs
Tu valu
hon eypot
Ġwan ted
ĠSnippet ChooserPanel
ĠPak istani
ĠMar ino
Visi bility
ĠGe orgia
ĠPROV INCE
ĠExtract s
ĠWEEK DAYS
ĠMer ge
scrapy js
Ġsimpli city
Kw arg
RFC Field
Toolkit Error
inid ad
Ġfore ground
verti sed
Ġasyn chronous
ĠInternational ization
Moderation EditPageItem
Polygon Symbolizer
ench mark
Ġshe epdog
ĠStack Exchange
ĠBank Account
Ġsubse quent
UNCT UATION
ĠAdminMedia Handler
Ġfair ly
ĠSorted Dict
ĠRia k
prin table
OBSCUR IFY
MultiValue Field
Boto Storage
ĠCacheFile State
ĠFixed Discount
lovak ia
ABCDEFGHIJKLMN OPQRSTUV
ĠÂ «
elap sed
ĠATT RIB
ĠPrin cipe
Division Error
Dispatch es
espaÃ± ol
#======================================================================== =======
3124 55
Ena bled
Lam inat
reft arget
thio pi
assertValid JSONResponse
olsz ty
AutoCreated Field
AutoLast ModifiedField
ĠMSS P
INSTAG RAM
organizationonboarding task
URLRedirect ListMixin
ToPublic User
100254 321
NotPer sisted
ISimple TestCase
78699 688
WithFk ToPublicUser
Ġmonito red
multilingu alexample
SuchElement Exception
rontendEditable AdminMixin
InvoiceItems Mock
iPhvocMG tYd
Ġ136391170 8
