{"<s>":0,"<pad>":1,"</s>":2,"<unk>":3,"!":4,"\"":5,"#":6,"$":7,"%":8,"&":9,"'":10,"(":11,")":12,"*":13,"+":14,",":15,"-":16,".":17,"/":18,"0":19,"1":20,"2":21,"3":22,"4":23,"5":24,"6":25,"7":26,"8":27,"9":28,":":29,";":30,"<":31,"=":32,">":33,"?":34,"@":35,"A":36,"B":37,"C":38,"D":39,"E":40,"F":41,"G":42,"H":43,"I":44,"J":45,"K":46,"L":47,"M":48,"N":49,"O":50,"P":51,"Q":52,"R":53,"S":54,"T":55,"U":56,"V":57,"W":58,"X":59,"Y":60,"Z":61,"[":62,"\\":63,"]":64,"^":65,"_":66,"`":67,"a":68,"b":69,"c":70,"d":71,"e":72,"f":73,"g":74,"h":75,"i":76,"j":77,"k":78,"l":79,"m":80,"n":81,"o":82,"p":83,"q":84,"r":85,"s":86,"t":87,"u":88,"v":89,"w":90,"x":91,"y":92,"z":93,"{":94,"|":95,"}":96,"~":97,"¡":98,"¢":99,"£":100,"¤":101,"¥":102,"¦":103,"§":104,"¨":105,"©":106,"ª":107,"«":108,"¬":109,"®":110,"¯":111,"°":112,"±":113,"²":114,"³":115,"´":116,"µ":117,"¶":118,"·":119,"¸":120,"¹":121,"º":122,"»":123,"¼":124,"½":125,"¾":126,"¿":127,"À":128,"Á":129,"Â":130,"Ã":131,"Ä":132,"Å":133,"Æ":134,"Ç":135,"È":136,"É":137,"Ê":138,"Ë":139,"Ì":140,"Í":141,"Î":142,"Ï":143,"Ð":144,"Ñ":145,"Ò":146,"Ó":147,"Ô":148,"Õ":149,"Ö":150,"×":151,"Ø":152,"Ù":153,"Ú":154,"Û":155,"Ü":156,"Ý":157,"Þ":158,"ß":159,"à":160,"á":161,"â":162,"ã":163,"ä":164,"å":165,"æ":166,"ç":167,"è":168,"é":169,"ê":170,"ë":171,"ì":172,"í":173,"î":174,"ï":175,"ð":176,"ñ":177,"ò":178,"ó":179,"ô":180,"õ":181,"ö":182,"÷":183,"ø":184,"ù":185,"ú":186,"û":187,"ü":188,"ý":189,"þ":190,"ÿ":191,"Ā":192,"ā":193,"Ă":194,"ă":195,"Ą":196,"ą":197,"Ć":198,"ć":199,"Ĉ":200,"ĉ":201,"Ċ":202,"ċ":203,"Č":204,"č":205,"Ď":206,"ď":207,"Đ":208,"đ":209,"Ē":210,"ē":211,"Ĕ":212,"ĕ":213,"Ė":214,"ė":215,"Ę":216,"ę":217,"Ě":218,"ě":219,"Ĝ":220,"ĝ":221,"Ğ":222,"ğ":223,"Ġ":224,"ġ":225,"Ģ":226,"ģ":227,"Ĥ":228,"ĥ":229,"Ħ":230,"ħ":231,"Ĩ":232,"ĩ":233,"Ī":234,"ī":235,"Ĭ":236,"ĭ":237,"Į":238,"į":239,"İ":240,"ı":241,"Ĳ":242,"ĳ":243,"Ĵ":244,"ĵ":245,"Ķ":246,"ķ":247,"ĸ":248,"Ĺ":249,"ĺ":250,"Ļ":251,"ļ":252,"Ľ":253,"ľ":254,"Ŀ":255,"ŀ":256,"Ł":257,"ł":258,"Ń":259,"ĠĠ":260,"ĠĠĠĠ":261,"ĠĠĠ":262,"ĠĠĠĠĠĠĠ":263,"se":264,"re":265,"te":266,"on":267,"ĠĠĠĠĠĠĠĠ":268,"de":269,"Ġ=":270,"in":271,"or":272,"st":273,"sel":274,"self":275,"at":276,"me":277,"as":278,"ĠĠĠĠĠĠĠĠĠĠĠ":279,"al":280,"Ġ'":281,"er":282,"Ġi":283,"Ġre":284,"le":285,"):":286,"ur":287,"ar":288,"('":289,"Ġself":290,"ge":291,"ser":292,"Ġf":293,"ie":294,"def":295,"ue":296,"ap":297,"',":298,"nt":299,"Ġc":300,"ro":301,"')":302,"ion":303,"mp":304,"na":305,"app":306,"th":307,"__":308,"Ġd":309,"Ġdef":310,"name":311,"las":312,"ode":313,"ce":314,"ate":315,"ata":316,"ĠĠĠĠĠĠĠĠĠĠĠĠĠĠĠĠ":317,"an":318,"en":319,"()":320,"tur":321,"turn":322,"get":323,"Ġreturn":324,"ct":325,"ad":326,"lo":327,"Ġp":328,"ort":329,"fi":330,"Ġin":331,"ss":332,"Ġe":333,"test":334,"Ġif":335,"id":336,"ter":337,"val":338,"ld":339,"it":340,"sert":341,"he":342,"mport":343,"assert":344,"sp":345,"orm":346,"one":347,"ĠĠĠĠĠĠĠĠĠĠĠĠĠĠĠ":348,"None":349,"to":350,"']":351,"arg":352,"['":353,"Ġn":354,"Ġs":355,"ield":356,"Ġr":357,"ot":358,"ke":359,"tr":360,"con":361,"ing":362,"co":363,"rom":364,"ic":365,"Ġo":366,"au":367,"que":368,"user":369,"der":370,"odel":371,"data":372,"args":373,"qu":374,"Ġimport":375,"quest":376,"lask":377,"um":378,"from":379,"pe":380,"xt":381,"ac":382,"pt":383,"Ġassert":384,"il":385,"':":386,"ma":387,"ty":388,"lass":389,"url":390,"un":391,"ut":392,"lt":393,"od":394,"Ġ==":395,"value":396,"ient":397,"li":398,"lient":399,"ol":400,"Ġdata":401,"ation":402,"age":403,"Ġis":404,"ers":405,"Ġapp":406,"iew":407,"Ġb":408,"onse":409,"ĠNone":410,"Ġnot":411,"sponse":412,"key":413,"di":414,"ror":415,"('/":416,"min":417,"form":418,"00":419,"set":420,"Ġw":421,"up":422,"fo":423,"ab":424,"po":425,"code":426,"='":427,"))":428,"class":429,"ime":430,"._":431,"Ġm":432,"Ġ\"":433,"ex":434,"ch":435,"ader":436,"Ġrv":437,"ssion":438,"type":439,"Tr":440,"Ġtest":441,"auth":442,"True":443,"str":444,"Ġflask":445,"ase":446,"view":447,"ath":448,"int":449,"bj":450,"umn":451,"admin":452,"Ġ_":453,"),":454,"gin":455,"cept":456,"Ġfor":457,"session":458,"text":459,"Ġdb":460,"ĠF":461,"ht":462,"and":463,"us":464,"Ġ{":465,"ken":466,"kw":467,"ment":468,"is":469,"Ġcon":470,"add":471,"late":472,"Ġex":473,"ne":474,"header":475,"():":476,"Ġ(":477,"Ġ__":478,"erson":479,"kwargs":480,"Re":481,"ve":482,"ule":483,"stat":484,"time":485,"token":486,"Ġ%":487,"ver":488,"Ġ*":489,"end":490,"obj":491,"all":492,"fig":493,"path":494,"request":495,"model":496,"ass":497,"foo":498,"ite":499,"pro":500,"tent":501,"ta":502,"\",":503,"able":504,"__(":505,"rror":506,"alse":507,"Ġresponse":508,"Ġ[":509,"Error":510,"ĠĠĠĠĠĠĠĠĠĠĠĠĠĠĠĠĠĠĠ":511,"ord":512,"olumn":513,"temp":514,"Model":515,"su":516,"Te":517,"art":518,"oc":519,"Ġname":520,"Ġget":521,"client":522,"ug":523,"ect":524,"reate":525,"ith":526,"Ġvalue":527,"_(":528,"ault":529,"ger":530,"field":531,"db":532,"la":533,"Field":534,"ze":535,"list":536,"Ġform":537,"Ġclient":538,"qual":539,"ack":540,"date":541,"file":542,"vi":543,"Ġrequest":544,"com":545,"template":546,"In":547,"thod":548,"Ġme":549,"word":550,"valid":551,"lin":552,"Ġlo":553,"ai":554,"cess":555,"Ġ1":556,"ĠC":557,"Ġde":558,"status":559,"rent":560,"Ġuser":561,"ery":562,"ri":563,"om":564,"error":565,"per":566,"ute":567,"Ġ@":568,"Ġ2":569,"assword":570,"ction":571,"headers":572,"Ġ**":573,"config":574,"import":575,"aise":576,"lse":577,"ator":578,"len":579,"ted":580,"Ġh":581,"fil":582,"Ġok":583,"for":584,"Ġelse":585,"ĠĠĠĠĠĠĠĠĠĠĠĠĠĠĠĠĠĠĠĠĠĠĠĠ":586,"query":587,".__":588,"ed":589,"sh":590,"Test":591,"pr":592,"Ġto":593,"ance":594,"urrent":595,"])":596,"Ġth":597,"attr":598,"ssage":599,"ron":600,"init":601,"Ġfield":602,"Ġurl":603,"ile":604,"'),":605,"ĠS":606,"son":607,"stance":608,"Ġa":609,"rect":610,"red":611,"api":612,"mit":613,"ters":614,"bar":615,"Ġtr":616,"Ġeq":617,"ception":618,"Ġor":619,"json":620,"ml":621,"ig":622,"Ġ+":623,"tp":624,"pre":625,"my":626,"ip":627,"'))":628,"ms":629,"direct":630,"response":631,"che":632,"http":633,"object":634,"_('":635,"oo":636,"icle":637,"string":638,"mod":639,"Ġu":640,"ache":641,"ument":642,"Ġkey":643,"mail":644,"post":645,"ub":646,"dex":647,"login":648,"col":649,"ost":650,"viron":651,"html":652,"par":653,"Ġraise":654,"mple":655,"ict":656,"low":657,"ption":658,"instance":659,"our":660,"el":661,"Column":662,"Ġand":663,"ow":664,"Ġsa":665,"(\"":666,"=\"":667,"default":668,"environ":669,"Ġas":670,"ĠFalse":671,"Ġ}":672,"Con":673,"fix":674,"Ġtry":675,"'],":676,"create":677,"ize":678,"ul":679,"line":680,"tring":681,"User":682,"op":683,"ĠP":684,"ĠTrue":685,"nder":686,"ĠĠĠĠĠĠĠĠĠĠĠĠĠĠĠĠĠĠĠĠĠĠĠĠĠĠĠĠĠĠĠĠ":687,"Ġwith":688,"res":689,"SE":690,"ĠA":691,"if":692,"point":693,"Equal":694,"ĠM":695,"Ġ)":696,"Ġpar":697,"sc":698,"Ġexcept":699,"rv":700,"utf":701,"print":702,"route":703,"Ġst":704,"ST":705,"author":706,"sec":707,"lation":708,"endpoint":709,"RE":710,"context":711,"ON":712,"ource":713,"ary":714,"rea":715,"article":716,"lue":717,"Base":718,"jo":719,"Ġset":720,"Ġclass":721,"fir":722,"Ġview":723,"decode":724,"//":725,"qui":726,"ore":727,"lueprint":728,"perty":729,"ok":730,"ign":731,"__)":732,"View":733,"password":734,"person":735,"False":736,"Ġ('":737,"\")":738,"sult":739,"Ġt":740,"append":741,"Ġpro":742,"mb":743,"format":744,"())":745,"Ġthe":746,"atch":747,"Ġmodel":748,"method":749,"ys":750,"(__":751,"Form":752,"cl":753,"oauth":754,"unt":755,"Ġx":756,"content":757,"ĠRe":758,"Ġos":759,"ten":760,"join":761,"chemy":762,"py":763,"loc":764,"assertEqual":765,"Ex":766,"Ġheaders":767,"main":768,"ace":769,"ators":770,"ib":771,"'])":772,"module":773,"fun":774,"message":775,"roup":776,"ly":777,"mo":778,"://":779,"out":780,"(),":781,"dict":782,"AT":783,"Ġkwargs":784,"filter":785,"Ġadmin":786,"Ġ0":787,"put":788,"Ġmethod":789,"ange":790,"Ġfile":791,"column":792,"Ġperson":793,"Ġun":794,"read":795,"ity":796,"ĠĠĠĠĠĠĠĠĠĠĠĠĠĠĠĠĠĠĠĠĠĠĠ":797,"Val":798,"gth":799,"load":800,"lete":801,"Ġcontent":802,").":803,"ust":804,"by":805,"ra":806,"kze":807,"erkze":808,"erkzeug":809,"Ġ.":810,"teger":811,"Ġ200":812,"lic":813,"ĠT":814,"01":815,"index":816,"cache":817,"Ġch":818,"Ġcurrent":819,"Ġdate":820,"Ġ4":821,"Ġcreate":822,"ocument":823,"ĠĠĠĠĠĠ":824,"ref":825,"quired":826,"ilter":827,"equal":828,"pic":829,"ext":830,"Flask":831,"Ġisinstance":832,"vers":833,"Ġg":834,"ype":835,"nager":836,"Ġtype":837,"Ġ['":838,"ĠĠĠĠĠ":839,"Ġdefault":840,"update":841,"IN":842,"email":843,"page":844,"ong":845,"Ġ{}":846,"sa":847,"uth":848,"bug":849,"gis":850,"pop":851,"ER":852,"prefix":853,"ull":854,"Ġ{'":855,"String":856,"(*":857,"da":858,"Ġ'/":859,"validators":860,"</":861,"info":862,"Ġsession":863,"tail":864,"et":865,"ory":866,"Integer":867,"TestC":868,"current":869,"ive":870,"ĠI":871,"Ġredirect":872,"ream":873,"ql":874,"ult":875,"Ġid":876,"lean":877,"ĠModel":878,"ure":879,"mary":880,"anne":881,"ist":882,"length":883,"Ġcolumn":884,"ial":885,"commit":886,"ja":887,"Ġl":888,"Ġfrom":889,"Ġse":890,"Ġdict":891,"andl":892,"De":893,"PO":894,"flask":895,"parse":896,"with":897,"process":898,"tag":899,"Ġquery":900,"Ġop":901,"GE":902,"'):":903,"ded":904,"Ġendpoint":905,"alchemy":906,"back":907,"Ġ3":908,"property":909,"call":910,"TestCase":911,"ĠO":912,"icode":913,"Ke":914,"make":915,"tain":916,"version":917,"annel":918,"username":919,"Key":920,"lash":921,"scri":922,"qlalchemy":923,"bo":924,"exception":925,"Ġ[]":926,"ĠUser":927,"Ġhas":928,"max":929,"iz":930,"ff":931,"iter":932,"rule":933,"ump":934,"rimary":935,"gister":936,"Not":937,"cted":938,"Ġerror":939,"Pro":940,"server":941,"ME":942,"os":943,"base":944,"ustom":945,"func":946,"ample":947,"Person":948,"log":949,"wr":950,"ĠVal":951,"values":952,"itle":953,"ent":954,"hel":955,"und":956,"not":957,"Ġresult":958,"dir":959,"abel":960,"ĠL":961,"ew":962,"arn":963,"Ġmessage":964,"Ġsys":965,"access":966,"Ġdatetime":967,"new":968,"group":969,"/?":970,"ou":971,"ret":972,"arch":973,"ĠFlask":974,"Ġlog":975,"POST":976,"\":":977,"blueprint":978,"mi":979,"--":980,"do":981,"role":982,"manager":983,"datetime":984,"andler":985,"sg":986,"delete":987,"fields":988,"Ġla":989,"space":990,"Ġy":991,"DE":992,"uper":993,"Ġparser":994,"uite":995,"ĠB":996,"Ġobj":997,"Exception":998,"Ġfilename":999,"lication":1000,"([":1001,"Auth":1002,"Ġresp":1003,"=[":1004,"dmin":1005,"count":1006,"('/')":1007,"Ġflash":1008,"Ġwerkzeug":1009,"items":1010,"filters":1011,"local":1012,"Filter":1013,"Ġon":1014,"Ġen":1015,"Ġfil":1016,"Ġpass":1017,"own":1018,"Ġrender":1019,"filename":1020,"ptions":1021,"UR":1022,"ind":1023,"lif":1024,"span":1025,"sub":1026,"=['":1027,"edit":1028,"oolean":1029,"mbda":1030,"Ġmethods":1031,"CH":1032,"ild":1033,"Ġjson":1034,"dent":1035,"Date":1036,"cor":1037,"util":1038,"secret":1039,"Ġtime":1040,"ModelView":1041,"LA":1042,"gine":1043,"Ġfilters":1044,"LE":1045,"umb":1046,"tem":1047,"Ġdocument":1048,"04":1049,"Ġv":1050,"Ġbase":1051,"0000":1052,"HT":1053,"Ġelif":1054,"Ġconfig":1055,"static":1056,"ullable":1057,"ix":1058,"nd":1059,"topic":1060,"resource":1061,"first":1062,"ket":1063,"'}":1064,"OR":1065,"ctions":1066,"ibute":1067,"ame":1068,"lose":1069,"''":1070,"],":1071,"idget":1072,"clu":1073,"act":1074,"Ġlen":1075,"Ġarticle":1076,"Ġsuper":1077,"forum":1078,"fe":1079,"Ġlist":1080,"Ġbe":1081,"ship":1082,"lationship":1083,"okk":1084,"lug":1085,"store":1086,"Ġpath":1087,"Ġnullable":1088,"ollow":1089,"dump":1090,"im":1091,"redirect":1092,"ittest":1093,"ackage":1094,"={":1095,"has":1096,"Ġ<":1097,"example":1098,"TE":1099,"Ġal":1100,"processor":1101,"okka":1102,"Ġargs":1103,"debug":1104,"gen":1105,"Ġsqlalchemy":1106,"omment":1107,"source":1108,"Ġiter":1109,"Ġprimary":1110,"agin":1111,"lit":1112,"pla":1113,"ueError":1114,"Ġpassword":1115,"scription":1116,"Dict":1117,"Ġtoken":1118,"led":1119,"\">":1120,"host":1121,"Request":1122,"register":1123,"encode":1124,"models":1125,"bu":1126,"users":1127,"::":1128,"ĠG":1129,"ctx":1130,"ody":1131,"ĠRequest":1132,"ail":1133,"flt":1134,"pi":1135,"Ġenviron":1136,"ulti":1137,"Ġ\"#":1138,"bp":1139,"search":1140,"Ġload":1141,"ck":1142,"tainer":1143,"SS":1144,"resh":1145,"validate":1146,"ĠN":1147,"urity":1148,"arset":1149,"split":1150,"ify":1151,"sgi":1152,"start":1153,"lib":1154,"Ġ!":1155,"ings":1156,"ializ":1157,"Time":1158,"ls":1159,"cook":1160,"cookie":1161,"Se":1162,"ĠW":1163,"link":1164,"Ġ!=":1165,"handler":1166,"argument":1167,"port":1168,"Ġindex":1169,"ongo":1170,"match":1171,"'.":1172,"Ġnew":1173,"tens":1174,"help":1175,"ang":1176,"ĠR":1177,"quokka":1178,"Ġgetattr":1179,"ION":1180,"io":1181,"ice":1182,"TP":1183,"Ġlogin":1184,"Content":1185,"utils":1186,"Text":1187,"ĠCon":1188,"tension":1189,"/',":1190,"table":1191,"HTTP":1192,"application":1193,"ĠĠĠĠĠĠĠĠĠĠĠĠĠĠĠĠĠĠĠĠĠĠĠĠĠĠ":1194,"security":1195,"clude":1196,"Admin":1197,"ĠString":1198,"/')":1199,"ans":1200,"mage":1201,"item":1202,"firm":1203,"QLA":1204,"package":1205,"Ġdo":1206,"Ġpost":1207,"pected":1208,"authorize":1209,"Ġvalidators":1210,"ateg":1211,"ssing":1212,"Ġdetail":1213,"env":1214,"ĠValueError":1215,"no":1216,"title":1217,"Ġreq":1218,"Ġwr":1219,"Ġsetup":1220,"Ġstr":1221,"stream":1222,"\"),":1223,"ec":1224,"ĠĠĠĠĠĠĠĠĊ":1225,"es":1226,"Ġ::":1227,"required":1228,"Ġmod":1229,"dumps":1230,"entic":1231,"NA":1232,"ccess":1233,"Ġauth":1234,"als":1235,"ound":1236,"sign":1237,"ated":1238,"12":1239,"ww":1240,"uri":1241,"channel":1242,"Ġparse":1243,"(_":1244,"PA":1245,"next":1246,"loat":1247,"conver":1248,".')":1249,"Type":1250,"ĠCustom":1251,"save":1252,"bb":1253,"Ġ-":1254,"Ġtext":1255,"Ġfun":1256,"Ġcls":1257,"].":1258,"Ġhttp":1259,"GET":1260,"umber":1261,"slug":1262,"inja":1263,"ir":1264,"tra":1265,"Ġlambda":1266,"close":1267,"jinja":1268,"ole":1269,"raise":1270,"we":1271,"result":1272,"Ġcall":1273,"forms":1274,"='/":1275,"Un":1276,"rece":1277,"render":1278,"ĠĠĠĠĠĠĠĠĠĠĠĠĠĠĠĠĠĠĠĠĠĠĠĠĠĠĠ":1279,"engine":1280,"KE":1281,"ategory":1282,"En":1283,"ams":1284,"repr":1285,"Ġpre":1286,"Ġrule":1287,"comp":1288,"ocket":1289,"ook":1290,"ializer":1291,"List":1292,"gra":1293,"ifi":1294,"oice":1295,"orted":1296,"ard":1297,"columns":1298,"Ġstring":1299,"Ġline":1300,"').":1301,"Ġsub":1302,"Ġbu":1303,"ĠĠĠĠĠĠĠĠĠĠĠĠĠĠĠĠĠĠĠĠĠĠĠĠĠĠĠĠ":1304,"(**":1305,"Hel":1306,"TH":1307,"options":1308,"Ġadd":1309,"apper":1310,"tern":1311,"DateTime":1312,"64":1313,"size":1314,"wsgi":1315,"Ġsuite":1316,"keys":1317,"attribute":1318,").__":1319,"lect":1320,"().":1321,"Ġvalues":1322,"rt":1323,"gettext":1324,"conne":1325,"loader":1326,"Ġcontext":1327,"lated":1328,"agination":1329,"AU":1330,"cation":1331,"Ġ'd":1332,"az":1333,"any":1334,"Ġof":1335,"utable":1336,"rticle":1337,"imple":1338,"detail":1339,"gener":1340,"Hello":1341,"Ġitem":1342,"domain":1343,"201":1344,"Up":1345,"Ġtemplate":1346,"the":1347,"jax":1348,"ome":1349,"men":1350,"Ġexc":1351,"sort":1352,"remo":1353,"Ġ't":1354,"SEC":1355,"ies":1356,"Ġhasattr":1357,"IO":1358,"Ġquokka":1359,"oreign":1360,"label":1361,"apter":1362,"_(\"":1363,"cls":1364,"only":1365,"orage":1366,">'":1367,"adapter":1368,"af":1369,"mutable":1370,"tes":1371,"Ġpage":1372,"types":1373,"assertEquals":1374,"Lo":1375,"ay":1376,"Ġ>":1377,"ied":1378,"ag":1379,"Ġ'<":1380,"Ġ'__":1381,"Ġforum":1382,"Ġusername":1383,"ool":1384,"Ġ5":1385,"relationship":1386,"Ġcode":1387,"__,":1388,"ĠĠĠĠĠĠĠĠĠĠĠĠĠĠĠĠĠĠĠĠ":1389,"tool":1390,"000":1391,"extension":1392,"vider":1393,"02":1394,"Ġemail":1395,"stru":1396,"hash":1397,"raises":1398,"row":1399,"ther":1400,"lis":1401,"mission":1402,"be":1403,"Ġcache":1404,"Ġoauth":1405,"Ġwt":1406,"MA":1407,"cs":1408,"ress":1409,"Ġout":1410,"ĠOAuth":1411,"ĠCustomModelView":1412,"Ġmake":1413,"input":1414,"Ġ's":1415,"unicode":1416,"ocketio":1417,"Ġwarn":1418,"ĠĠĠĠĠĠĠĠĠĠĠĠĠĠĠĠĠĠĠĠĠĠĠĠĠĠĠĠĠĠ":1419,"KEY":1420,"oreignKey":1421,"Mix":1422,"ble":1423,"Ġab":1424,"reset":1425,"Ġ'%":1426,"Ġresource":1427,"ĠĠĠĠĠĠĠĠĠĠĠĠĠĠĠĠĠĠĠĠĠĠĠĠĠĠĠĠĠĠĠ":1428,"core":1429,"SER":1430,"place":1431,"Ġloads":1432,"ĠName":1433,"Mixin":1434,"mand":1435,"stack":1436,"thon":1437,"getter":1438,"ĠColumn":1439,"Ġthis":1440,"Ġ+=":1441,"LT":1442,"cord":1443,"ry":1444,"quo":1445,"older":1446,"write":1447,"helpers":1448,"Data":1449,"body":1450,"doc":1451,"ĠIn":1452,"Ġco":1453,"limit":1454,"Ġflaskbb":1455,"Ġnamespace":1456,"Ġyield":1457,"dit":1458,"ident":1459,"nce":1460,"run":1461,"})":1462,"ark":1463,"dis":1464,"Ġstart":1465,"lations":1466,"pk":1467,"range":1468,"send":1469,"real":1470,"Ġ'.":1471,"Ġcomment":1472,"top":1473,"objects":1474,"ultiDict":1475,"SQLA":1476,"xy":1477,"ork":1478,"lob":1479,"cod":1480,"oices":1481,"/_":1482,"try":1483,"Ġwtforms":1484,"[\"":1485,"Ġfollow":1486,"mpty":1487,"fore":1488,"Ġunittest":1489,"CHE":1490,"404":1491,"Article":1492,"FI":1493,"OO":1494,"ave":1495,"uage":1496,"Ġint":1497,"verse":1498,"missing":1499,"anguage":1500,"extensions":1501,"/<":1502,"Ġheader":1503,"asic":1504,"setdefault":1505,"ived":1506,"ould":1507,"ful":1508,"swith":1509,"ĠĠĠĠĠĠĠĠĠĠĠĠĠĠ":1510,"mportError":1511,"strip":1512,"ments":1513,"last":1514,"Ġfields":1515,"Ġprop":1516,"Ġmodule":1517,"quote":1518,"coding":1519,"Qu":1520,"tings":1521,"org":1522,"orld":1523,"mer":1524,"arser":1525,"idation":1526,"PI":1527,"Ġ#":1528,"Ġauthor":1529,"room":1530,"Ġdi":1531,"verter":1532,"params":1533,"cached":1534,"(['":1535,"boolean":1536,"Ġpe":1537,"pos":1538,"rame":1539,"StringField":1540,"\"]":1541,"({":1542,"Suite":1543,"lchemy":1544,"number":1545,"tal":1546,"work":1547,"ĠTest":1548,"ĠĠĊ":1549,"Ġper":1550,"Ġtopic":1551,"arning":1552,"URL":1553,"((":1554,"SON":1555,"den":1556,"root":1557,"Ġsh":1558,"confirm":1559,"Ġstream":1560,"rules":1561,"localhost":1562,"NAME":1563,"attributes":1564,"Rule":1565,"ging":1566,"Ġadapter":1567,"rop":1568,"imetype":1569,"net":1570,"Ġ})":1571,"ĠImportError":1572,"DEF":1573,"sta":1574,"lower":1575,"ultip":1576,"theme":1577,"xc":1578,"ĠE":1579,"ĠBase":1580,"Ġserver":1581,"Ġ''":1582,"ape":1583,"export":1584,"Invalid":1585,"Ġallow":1586,"ifier":1587,"idationError":1588,"AB":1589,"JSON":1590,"Ġsu":1591,"Ġwidget":1592,"Response":1593,"https":1594,"refresh":1595,"callback":1596,"TY":1597,"baz":1598,"cond":1599,"modules":1600,"St":1601,"Ġstatus":1602,"req":1603,"lease":1604,"lection":1605,"unittest":1606,"Ġformat":1607,"ople":1608,"ternal":1609,"AULT":1610,"DEFAULT":1611,"ID":1612,"bl":1613,"replace":1614,"Ġwh":1615,"Ġexception":1616,"Ġdel":1617,"Ġdecor":1618,"(\"/":1619,"roles":1620,"URI":1621,"ongoengine":1622,"The":1623,"folder":1624,"md":1625,"ng":1626,"rint":1627,"Ġk":1628,"ĠKey":1629,"ĠException":1630,"allow":1631,"serializer":1632,"hed":1633,"heck":1634,"Ġexpi":1635,"ified":1636,"\"))":1637,"/'":1638,"map":1639,"mode":1640,"Ġval":1641,"Ġpagination":1642,"Ġsorted":1643,"Ġbp":1644,"exc":1645,"ush":1646,"Required":1647,"files":1648,"Ġdescription":1649,"errors":1650,"ĠĠĠĠĠĠĠĠĠĠĠĠĠĠĠĠĠĠĠĠĠĠĠĠĠ":1651,"Select":1652,"anslations":1653,"03":1654,"25":1655,"CA":1656,"var":1657,"Ġmax":1658,"ĠĠĠĠĠĠĠĠĠĠĠĠ":1659,"mem":1660,"Ġprint":1661,"charset":1662,"mber":1663,"location":1664,"ORD":1665,"connect":1666,"Cache":1667,"VER":1668,"Ġversion":1669,"ĠĠĠĠĠĠĠĠĠĠĠĠĠĠĠĠĠĠ":1670,"idden":1671,"andle":1672,"enticate":1673,")]":1674,"=%":1675,"AD":1676,"ajax":1677,"image":1678,"ree":1679,"copy":1680,"peration":1681,"build":1682,"34":1683,"ForeignKey":1684,"NT":1685,"Parser":1686,"av":1687,"Ġpy":1688,"Ġunicode":1689,"ailable":1690,"42":1691,"ick":1692,"groups":1693,"Ġabort":1694,"arent":1695,"('.":1696,"anel":1697,"ock":1698,"ists":1699,"ization":1700,"ayload":1701,"!'":1702,"\".":1703,"WORD":1704,"wit":1705,"Ġarg":1706,"ĠDe":1707,"Ġcan":1708,"Ġdoc":1709,"ener":1710,"adata":1711,"ition":1712,"Ġsort":1713,"Ġrun":1714,"ĠResponse":1715,"={'":1716,"SSWORD":1717,"IE":1718,"RO":1719,"find":1720,"now":1721,"Ġinstance":1722,"utc":1723,"Ġmd":1724,"extra":1725,"ĠCh":1726,"ĠValidationError":1727,"000000":1728,"startswith":1729,"LO":1730,"Ma":1731,"follow":1732,"tadata":1733,"ĠH":1734,"state":1735,"member":1736,"rol":1737,"namespace":1738,"auto":1739,"tend":1740,"Ġ42":1741,"ING":1742,"exceptions":1743,"Property":1744,"received":1745,"rf":1746,"Ġcheck":1747,"Ġpk":1748,"Ġoptions":1749,"Ġby":1750,"posts":1751,"defaults":1752,"ized":1753,"Ġonly":1754,"PASSWORD":1755,"19":1756,"20":1757,"Me":1758,"No":1759,"PT":1760,"simple":1761,"vent":1762,"ally":1763,"Input":1764,"Ġ{})":1765,"redirects":1766,"processors":1767,"(_(\"":1768,"06":1769,"are":1770,"ant":1771,"many":1772,"txt":1773,"ĠĠĠĊ":1774,"att":1775,"alled":1776,"gex":1777,"ked":1778,"RET":1779,"Ġcharset":1780,"remove":1781,"stamp":1782,"CON":1783,"You":1784,"drop":1785,"empty":1786,"pp":1787,"part":1788,"use":1789,"Ġ),":1790,"Ġrelation":1791,"ged":1792,"Ġcol":1793,"names":1794,"Ġinfo":1795,"ummy":1796,"dia":1797,"lines":1798,"Ġtitle":1799,"ak":1800,"ee":1801,"once":1802,"Ġno":1803,"cope":1804,"formdata":1805,"settings":1806,"change":1807,"lambda":1808,"scape":1809,"generate":1810,"Boolean":1811,"ttr":1812,"resp":1813,"alt":1814,"arget":1815,"uple":1816,"Ġexpected":1817,"Ġuse":1818,"[:":1819,"png":1820,"ĠD":1821,"Ġaccess":1822,"ĠĠĠĠĠĠĠĠĠĠĠĠĠ":1823,"Ġ'_":1824,"appers":1825,"eno":1826,"Ġpos":1827,"choices":1828,"lineno":1829,"Ġhave":1830,"ĠPost":1831,"methods":1832,"tags":1833,"Ġobject":1834,"plain":1835,"sqlalchemy":1836,"trol":1837,"rest":1838,"ony":1839,"Ġreal":1840,"char":1841,"created":1842,"Ġtb":1843,"Ġsend":1844,"script":1845,"'})":1846,"tablename":1847,"Unicode":1848,"10":1849,"GIN":1850,"ffix":1851,"sq":1852,"Ġremo":1853,"let":1854,"Ġbody":1855,"expected":1856,"mous":1857,"Ġcontents":1858,"ookie":1859,"onymous":1860,"OD":1861,"true":1862,"accept":1863,"Ġprocess":1864,"function":1865,"actory":1866,"www":1867,"mented":1868,"Ch":1869,"am":1870,"glob":1871,"patch":1872,"site":1873,"zy":1874,"Ġupdate":1875,"sent":1876,"Ġrequired":1877,"except":1878,"ĠĠĠĠĠĠĠĠĠĠĠĠĠĠĠĠĠĠĠĠĠĠĠĠĠĠĠĠĠ":1879,"untime":1880,"loads":1881,"uthor":1882,"Manager":1883,"GI":1884,"},":1885,"invalid":1886,"lite":1887,"ĠType":1888,"File":1889,"bind":1890,"reverse":1891,"ature":1892,"Ġfin":1893,"Ġwe":1894,"ĠField":1895,"ved":1896,"vel":1897,"provider":1898,"filer":1899,"opic":1900,"ĠMe":1901,"Warning":1902,"down":1903,"pl":1904,"Ġ]":1905,"Ġapi":1906,"rence":1907,"ĠĠĠĠĠĠĠĠĠĠ":1908,"Ġcategory":1909,"__':":1910,"ĠĠĠĠĠĠĠĠĠĠĠĠĠĠĠĠĠĠĠĠĠ":1911,"ank":1912,"Ġdatastore":1913,")))":1914,"ĠAdmin":1915,"witter":1916,"11":1917,"16":1918,"ASE":1919,"CE":1920,"DAT":1921,"frame":1922,"')])":1923,"container":1924,"Ġmatch":1925,"sumer":1926,"Query":1927,"Ġpeople":1928,"mmutable":1929,"Ġ\\":1930,"Ġan":1931,"Ġhtml":1932,"orum":1933,"storage":1934,"lop":1935,"Ġnode":1936,"pose":1937,"Ġmap":1938,"Ġerrors":1939,"authorized":1940,"ardown":1941,"after":1942,"=_":1943,"PAT":1944,"flas":1945,"description":1946,"metadata":1947,"Ġ'\"":1948,"apt":1949,"Ġmy":1950,"Ġchannel":1951,"dirname":1952,"App":1953,"Tag":1954,"fg":1955,"tin":1956,"ulate":1957,"related":1958,"teardown":1959,"assertTrue":1960,"Ġbool":1961,"modal":1962,"bold":1963,"Ġlogging":1964,"corded":1965,"SECRET":1966,"ttribute":1967,"untimeError":1968,"ĠTypeError":1969,"AGE":1970,"Ã¶":1971,"Ġend":1972,"Ġwas":1973,"Temp":1974,"Ġaction":1975,"Ġopen":1976,"Ġcallback":1977,"2013":1978,"AN":1979,"ast":1980,"pub":1981,"sys":1982,"ures":1983,"select":1984,"__.__":1985,"ĠFilter":1986,"ocal":1987,"ible":1988,"Ġfunc":1989,"tools":1990,"lp":1991,"over":1992,"ĠNot":1993,"second":1994,"order":1995,"med":1996,"Ġfoo":1997,"ach":1998,"upload":1999,"bytes":2000,"listen":2001,"Ġfinally":2002,"BU":2003,"Blueprint":2004,"Password":2005,"bla":2006,"tmp":2007,"vis":2008,"widget":2009,"nauthor":2010,"ations":2011,"Ġdelete":2012,"ATION":2013,"Ġgroup":2014,"logger":2015,"Ġjsonify":2016,"ĠContent":2017,"before":2018,"nauthorized":2019,"\"'":2020,"MultiDict":2021,"aint":2022,"lxc":2023,"ython":2024,"Ġtemp":2025,"datastore":2026,"Ġback":2027,"Ġblueprint":2028,"setup":2029,"straint":2030,"stats":2031,"Ġ%(":2032,"rontend":2033,"check":2034,"Constraint":2035,"Ġlogout":2036,"ĠRequestParser":2037,"ĠWorld":2038,"arguments":2039,"push":2040,"Ġ'')":2041,"gest":2042,"apping":2043,"Ġinit":2044,"Ġinput":2045,"tests":2046,"Ġnow":2047,"Ġsocketio":2048,"ĠFile":2049,"profile":2050,"templates":2051,"cheme":2052,"Converter":2053,"ĠĠĠĠĠĠĠĠĠĠĠĠĠĠĠĠĠĠĠĠĠĠĠĠĠĠĠĠĠĠĠĠĠĠ":2054,"aceback":2055,"Ġ302":2056,"PE":2057,"TO":2058,"Th":2059,"iver":2060,"mon":2061,"Ġ're":2062,"__.":2063,"spec":2064,"']['":2065,"Ġconver":2066,"prote":2067,"suffix":2068,"Ġloc":2069,"Ġlocation":2070,"Ġ400":2071,"safe":2072,"etwork":2073,"active":2074,"convert":2075,"ABASE":2076,">',":2077,"eader":2078,"ique":2079,"ject":2080,"multip":2081,"sole":2082,"Ġlink":2083,"remember":2084,"less":2085,"Ġdump":2086,"']:":2087,"ĠĠĠĠĠĠĠĠĠĠĠĠĠĠĠĠĠĠĠĠĠĠĠĠĠĠĠĠĠĠĠĠĠ":2088,"articles":2089,"ĠGener":2090,"\"])":2091,"dummy":2092,"tered":2093,"Ġrece":2094,"Ġct":2095,"Ġmsg":2096,"tains":2097,"CT":2098,"PRO":2099,"fa":2100,"off":2101,"Ġclose":2102,"Ġcfg":2103,"'].":2104,"command":2105,"ĠSub":2106,"formatters":2107,"contents":2108,"DATABASE":2109,"></":2110,"custom":2111,"gle":2112,"handle":2113,"ide":2114,"mark":2115,"sid":2116,"werkzeug":2117,"Ġq":2118,"Ġ])":2119,"tems":2120,"')]":2121,"Ġent":2122,"testing":2123,"here":2124,"total":2125,"Ġrange":2126,"lta":2127,"Ġmust":2128,"prop":2129,"ĠPassword":2130,"Ġstack":2131,"Ġchange":2132,"Proxy":2133,"wrapper":2134,"ewee":2135,"ĠRuntimeError":2136,"Engine":2137,"details":2138,"Template":2139,"MY":2140,"category":2141,"document":2142,"factory":2143,"mac":2144,"sread":2145,"tz":2146,"sender":2147,"desc":2148,"atar":2149,"Ġ'--":2150,"Ġnext":2151,"('/',":2152,"ride":2153,"Ġhost":2154,"mplemented":2155,"Ġproperty":2156,"irth":2157,"compat":2158,"struct":2159,"SERVER":2160,"DataRequired":2161,"SQLAlchemy":2162,"OOK":2163,".'":2164,"LCHE":2165,"br":2166,"basic":2167,"fresh":2168,"iv":2169,"icon":2170,"iable":2171,"issing":2172,"ner":2173,"rg":2174,"inter":2175,"level":2176,"ength":2177,"spect":2178,"translations":2179,"addTest":2180,"timestamp":2181,"day":2182,"Ġlazy":2183,"submit":2184,"ĠStringIO":2185,"LCHEMY":2186,"'\\":2187,"09":2188,"]['":2189,"bs":2190,"Ġattr":2191,"Ġtag":2192,"kext":2193,"velop":2194,"Ġvaluelist":2195,"vice":2196,"ailed":2197,"ommand":2198,"modified":2199,"Config":2200,"equals":2201,"ffer":2202,"toolbar":2203,"restful":2204,"sqlite":2205,"globals":2206,")):":2207,"200":2208,"FOR":2209,"ccept":2210,"gi":2211,"kip":2212,"mt":2213,"socketio":2214,"scope":2215,"Ġfn":2216,"()])":2217,"ingle":2218,"pts":2219,"Ġmimetype":2220,"success":2221,"comment":2222,"collection":2223,"makeSuite":2224,"iteritems":2225,"DEBU":2226,"ongoEngine":2227,"grant":2228,"Loader":2229,"ĠGeneric":2230,"DEBUG":2231,"56":2232,"Post":2233,"QU":2234,"SH":2235,"Set":2236,"etag":2237,"home":2238,"ĠĊ":2239,"Ġrole":2240,"Ġsecret":2241,"Ġuri":2242,"Ġlisten":2243,"Ġitems":2244,"Ġpop":2245,"Ġsc":2246,"otstr":2247,"trib":2248,"div":2249,"Ġcontainer":2250,"should":2251,"ĠSe":2252,"ĠSQLA":2253,"Ġhash":2254,"ĠRole":2255,"({'":2256,"otstrap":2257,"Al":2258,"DI":2259,"EX":2260,"Ser":2261,"ain":2262,"action":2263,"dd":2264,"long":2265,"primary":2266,"yle":2267,"sed":2268,"dered":2269,"Ġ'',":2270,"Ġident":2271,"lear":2272,"contrib":2273,"Ġ(\"":2274,"linked":2275,"ĠĠĠĠĠĠĠĠĠĠĠĠĠĠĠĠĠĠĠĠĠĠĠĠĠĠĠĠĠĠĠĠĠĠĠĠ":2276,"ĠĠĠĠĠĠĠĠĠĠĠĠĠĠĠĠĠĠĠĠĠĠĠĠĠĠĠĠĠĠĠĠĠĠĠĠĠ":2277,"secure":2278,"Ġlabel":2279,"ĠBlueprint":2280,"''')":2281,"Ġiteritems":2282,"structures":2283,"Document":2284,"multi":2285,"oken":2286,"Ġvalid":2287,"Ġ'm":2288,"ermission":2289,"Ġregister":2290,"Ġrelationship":2291,"open":2292,"SET":2293,"Ġsetattr":2294,"ready":2295,"ĠThe":2296,"bound":2297,"=[\"":2298,"immutable":2299,"Session":2300,"blank":2301,"Ġremote":2302,"OOKIE":2303,"Found":2304,"Sign":2305,"SGI":2306,"actions":2307,"bidden":2308,"eed":2309,"other":2310,"Ġvalidate":2311,"Ġutils":2312,"dev":2313,"Ġread":2314,"spath":2315,"Ġmode":2316,"comments":2317,"Ġ10":2318,"oogle":2319,"ĠPython":2320,"Ġyou":2321,"Ġtimeout":2322,"signal":2323,"compile":2324,"Ġoutput":2325,"..":2326,".',":2327,"60":2328,"61":2329,">')":2330,"BLE":2331,"IL":2332,"RI":2333,"USER":2334,"bub":2335,"cket":2336,"float":2337,"mat":2338,"man":2339,"mall":2340,"Ġ`":2341,"ĠText":2342,"Ġgenerate":2343,"Ġrelated":2344,"adRequest":2345,"Ġold":2346,"odule":2347,"abspath":2348,"='''":2349,"expi":2350,"views":2351,"Ġusers":2352,"gistered":2353,"etwe":2354,"logout":2355,"ference":2356,"Ġdomain":2357,"Ġwrappers":2358,"structions":2359,"Ġdecorator":2360,"ĠKeyError":2361,"bubble":2362,"etween":2363,"%(":2364,"44":2365,"AR":2366,"ND":2367,"cry":2368,"ĠHTTP":2369,"Ġoperation":2370,"like":2371,"authentic":2372,"Ġextra":2373,"ight":2374,"notch":2375,"SQLALCHEMY":2376,"tinue":2377,"ttributeError":2378,"blah":2379,"ENA":2380,"HE":2381,"frontend":2382,"mongoengine":2383,"tb":2384,"unauthorized":2385,"Ġser":2386,"Ġmin":2387,"encoding":2388,"acce":2389,"odo":2390,"Ġloader":2391,"ĠComment":2392,"reak":2393,"pytest":2394,"python":2395,"hello":2396,"----":2397,"ĠStringField":2398,"converter":2399,"remote":2400,"csrf":2401,"Ġwhile":2402,"memory":2403,"rgument":2404,"ENABLE":2405,"AL":2406,"Accept":2407,"Widget":2408,"\\'":2409,"eb":2410,"gor":2411,"record":2412,"Ġio":2413,"Ġ[('":2414,"Ġurls":2415,"ĠMultiDict":2416,"ĠsetUp":2417,"ATE":2418,"Ġ..":2419,"Ġdefaults":2420,"Ġlong":2421,"Ġenv":2422,"SECURI":2423,"Ġcount":2424,"SelectField":2425,"gorith":2426,"SECURITY":2427,"23":2428,"CO":2429,"][":2430,"lat":2431,"language":2432,"vailable":2433,"Ġlength":2434,"dext":2435,"delta":2436,"Ġit":2437,"Ġfloat":2438,"Ġapplication":2439,"Ġbreak":2440,"child":2441,"sha":2442,"msg":2443,"uban":2444,"ĠMock":2445,"erkzeugTestCase":2446,"box":2447,"Ġyour":2448,"Ġ500":2449,"Ġwarnings":2450,"seconds":2451,"crypt":2452,"ENABLED":2453,"\"\"":2454,"-%":2455,"?'":2456,"Di":2457,"Is":2458,"Implemented":2459,"ML":2460,"escape":2461,"mimetype":2462,"ph":2463,"stalled":2464,"('_":2465,"uest":2466,"its":2467,"Ġother":2468,"0044":2469,"exclude":2470,"verifier":2471,"ĠMy":2472,"Ġstate":2473,"Ġtheme":2474,"relationships":2475,"Ġexpires":2476,"protected":2477,"eaders":2478,"004461":2479,"5000":2480,"88":2481,"99":2482,"MAT":2483,"NG":2484,"WW":2485,"cim":2486,"capt":2487,"node":2488,"old":2489,"Ġstatic":2490,"Ġrecord":2491,"ĠĠĠĠĠĠĠĠĠĠĠĠĠĠĠĠĠ":2492,"control":2493,"Ġmongoengine":2494,"Ġexclude":2495,"need":2496,"perator":2497,"Ġtok":2498,"igr":2499,"Ġunique":2500,"Ġcolumns":2501,"Ġsender":2502,"Ġprefix":2503,"menu":2504,"override":2505,"ĠSQLAlchemy":2506,"gorithm":2507,")'":2508,"Can":2509,"target":2510,"wp":2511,"xml":2512,"ĠURL":2513,"Ġbound":2514,"diff":2515,"Ġwsgi":2516,"coder":2517,"external":2518,"ĠForm":2519,"Ġconv":2520,"suite":2521,"ithub":2522,"Ġformdata":2523,"Ġtop":2524,"ĠPerson":2525,"firmed":2526,"formatter":2527,"funcs":2528,"ĠLocal":2529,"topics":2530,"Ġposts":2531,"irst":2532,"lished":2533,"attach":2534,"Ġctx":2535,"gistr":2536,"(?":2537,"100":2538,"59":2539,":]":2540,"XX":2541,"clean":2542,"fter":2543,"fault":2544,"face":2545,"fail":2546,"rc":2547,"ries":2548,"twitter":2549,"regex":2550,"Ġ'\\":2551,"Ġ'{":2552,"Ġrecorded":2553,"ariable":2554,"term":2555,"exists":2556,"Ġ[])":2557,"Ġorder":2558,"ĠAPI":2559,"Ġtuple":2560,"pytz":2561,"messages":2562,"refs":2563,"osition":2564,"wrap":2565,"Author":2566,"Ġarticles":2567,"signals":2568,"converters":2569,"Ġsubdomain":2570,"2014":2571,"FILE":2572,"Ġallowed":2573,"Ġsuccess":2574,"available":2575,"Ġpytest":2576,"vision":2577,"Ġbackref":2578,"Ġconvert":2579,"Ġlocal":2580,"velopment":2581,"cimal":2582,"Foo":2583,"gg":2584,"handl":2585,"mic":2586,"option":2587,"px":2588,"scheme":2589,"zinfo":2590,"Ġroom":2591,"ĠĠĠĠĠĠĠĠĠ":2592,"Ġpart":2593,"Ġpayload":2594,"Ġedit":2595,"disp":2596,"setter":2597,"abc":2598,"Ġconfirm":2599,"Ġcontinue":2600,"Ġ[(":2601,"Ġdebug":2602,"short":2603,"Ġtotal":2604,"Ġthat":2605,"parser":2606,"Ġtzinfo":2607,"Ġencoding":2608,"Ġdoes":2609,"grade":2610,"DateTimeField":2611,"realms":2612,"Ġdisp":2613,"Ġwidgets":2614,"needs":2615,"!',":2616,"'/":2617,".''')":2618,"80":2619,":%":2620,"Basic":2621,"Comment":2622,"OAuth":2623,"Panel":2624,"Topic":2625,"nown":2626,"ware":2627,"Ġ/":2628,"Ġage":2629,"Ġall":2630,"reen":2631,"return":2632,"tear":2633,"ink":2634,"inx":2635,"style":2636,"attern":2637,"('%":2638,"nab":2639,"Ġdis":2640,"Ġport":2641,"Ġconne":2642,"Ġconverter":2643,"timeout":2644,"abled":2645,"reater":2646,"lay":2647,"Ġ201":2648,"parator":2649,"Ġsafe":2650,"ĠAttributeError":2651,"oauthlib":2652,"Debug":2653,"ĠLo":2654,"ĠLanguage":2655,"Ġlast":2656,"subdomain":2657,"Ġbeen":2658,"Ġforumsread":2659,"identifier":2660,"fully":2661,"Stream":2662,"'<":2663,"403":2664,">/":2665,"Email":2666,"Row":2667,"aded":2668,"github":2669,"mm":2670,"nse":2671,"parent":2672,"sted":2673,"requi":2674,"atype":2675,"ĠĠĠĠĠĠĠĠĠĠĠĠĠĠĠĠĠĠĠĠĠĠ":2676,"Ġnetwork":2677,"diatype":2678,"ript":2679,"Ġafter":2680,"prev":2681,"raw":2682,"HTML":2683,"'},":2684,"ĠGroup":2685,"TYPE":2686,"CACHE":2687,"ForeignKeyConstraint":2688,"ĠChannel":2689,"flaskext":2690,"authenticated":2691,"ImplementedError":2692,"Ġboundary":2693,"Authorization":2694,")[":2695,"/%":2696,"PU":2697,"PER":2698,"fs":2699,"}'":2700,"ses":2701,"ren":2702,"err":2703,"Ġfound":2704,"thumb":2705,"Ġdir":2706,"loaded":2707,"Ġbar":2708,"exec":2709,"ilent":2710,"precation":2711,"lick":2712,"editor":2713,"cluded":2714,"PAGE":2715,"Ġlines":2716,"Upload":2717,"blub":2718,"3456":2719,"multipart":2720,"Ġstacklevel":2721,"reenlet":2722,"Action":2723,"mapping":2724,"pted":2725,"payload":2726,"sup":2727,"instructions":2728,"asc":2729,"Ġreset":2730,"lement":2731,"urpose":2732,"Ġfirst":2733,"()[":2734,"Ġslug":2735,"Ġsalt":2736,"acken":2737,")),":2738,"bject":2739,"andom":2740,"Ġconsumer":2741,"Ġrequests":2742,"common":2743,"ĠClient":2744,"show":2745,"mitField":2746,"Container":2747,"douban":2748,"SSION":2749,"ĠConfig":2750,"Ġwrite":2751,"closed":2752,"AUTH":2753,"disconnect":2754,"utcnow":2755,"Ã¶Ã¶":2756,"Ġsuccessfully":2757,"RowAction":2758,"ackend":2759,"15":2760,"400":2761,"COOKIE":2762,"Handler":2763,"Id":2764,"My":2765,"]:":2766,"emit":2767,"fmt":2768,"panel":2769,"ration":2770,"ste":2771,"wt":2772,"Ġ('/":2773,"relation":2774,"include":2775,"arge":2776,"nable":2777,"ĠĠĠĠĠĠĠĠĠĠĠĠĠĠĠĠĠĠĠĠĠĠĠĠĠĠĠĠĠĠĠĠĠĠĠ":2778,"()))":2779,"getlist":2780,"Ġinclude":2781,"urls":2782,"address":2783,"lag":2784,"Ġare":2785,"Ġsave":2786,"opy":2787,"EqualFilter":2788,"mbed":2789,"Progra":2790,"\"><":2791,"Ġwrapper":2792,"Ġauthenticate":2793,"sortable":2794,"missions":2795,"MAIL":2796,"ĠInline":2797,"ddress":2798,"maller":2799,"ĠLogin":2800,"mming":2801,"Programming":2802,"API":2803,"Length":2804,"Name":2805,"[-":2806,"\\\\":2807,"babel":2808,"clear":2809,"known":2810,"null":2811,"rdered":2812,"tuple":2813,"warn":2814,"Ġone":2815,"Ġhelp":2816,"Ġroles":2817,"Ġ',":2818,"Ġrepr":2819,"Ġfilter":2820,"Ġclean":2821,"cha":2822,"Ġthan":2823,"Example":2824,"sample":2825,"populate":2826,"Ġidx":2827,"KeyError":2828,"TENT":2829,"Environ":2830,"Ġbuf":2831,"Log":2832,"ĠKeyword":2833,"ĠDebug":2834,"frames":2835,"PATCH":2836,"ĠSubmitField":2837,"captcha":2838,"nabled":2839,"panels":2840,"=_(\"":2841,"EST":2842,"Failed":2843,"WSGI":2844,"cgroup":2845,"du":2846,"eq":2847,"got":2848,"hinx":2849,"igin":2850,"operation":2851,"pagin":2852,"wo":2853,"online":2854,"Ġflt":2855,"Ġcopy":2856,"anonymous":2857,"ids":2858,"sphinx":2859,"contains":2860,"digest":2861,"ĠSer":2862,"Ġparams":2863,"Ġstorage":2864,"Ġtarget":2865,"entries":2866,"Ġbefore":2867,"img":2868,"Ġalready":2869,"Ġfunction":2870,"Ġdecorated":2871,"Ġcollection":2872,"tmpdir":2873,"accepted":2874,"14":2875,">,":2876,"Edit":2877,"MP":2878,"Map":2879,"TR":2880,"TER":2881,"dle":2882,"ha":2883,"ia":2884,"skip":2885,"uid":2886,"vatar":2887,"}'.":2888,"Ġreverse":2889,"Ġfind":2890,"Ġfix":2891,"Ġevent":2892,"idth":2893,"iddle":2894,"ause":2895,"oldext":2896,"timeonly":2897,"\",',":2898,"Ġgettext":2899,"Ġ}}":2900,"ĠĠĠĠĠĠĠĠĠĠĠĠĠĠĠĠĠĠĠĠĠĠĠĠĠĠĠĠĠĠĠĠĠĠĠĠĠĠ":2901,"SESSION":2902,"functions":2903,"ĠOS":2904,"bog":2905,"newext":2906,"Ġrules":2907,"Ġaddress":2908,"csv":2909,"network":2910,"255":2911,"plus":2912,"168":2913,"ĠNotImplementedError":2914,"FORMAT":2915,"handlers":2916,"30":2917,"Area":2918,"Class":2919,"Do":2920,"FO":2921,"MIN":2922,"RT":2923,"SO":2924,"git":2925,"hi":2926,"nonymous":2927,"side":2928,"umer":2929,"yna":2930,"zen":2931,"Ġ7":2932,"Ġma":2933,"Ġlimit":2934,"ĠJSON":2935,"revision":2936,"media":2937,"Ġ'&":2938,"rozen":2939,"Ġsilent":2940,"account":2941,"coded":2942,"Ġ\"%":2943,"Ġ\"{":2944,"authenticate":2945,"thodView":2946,"errorhandler":2947,"TestBase":2948,"ĠSec":2949,"ĠPermission":2950,"ĠĠĠĠĠĠĠĠĠĠĠĠĠĠĠĠĠĠĠĠĠĠĠĠĠĠĠĠĠĠĠĠĠĠĠĠĠĠĠ":2951,"SEND":2952,"ĠArgument":2953,"Ġstore":2954,"authorization":2955,"REQU":2956,"Ġ'/')":2957,"ĠImmutable":2958,"Ġ30":2959,"NotFound":2960,"Ġvis":2961,"123456":2962,"ification":2963,"identity":2964,"ĠEmail":2965,"ickle":2966,"LOGIN":2967,"irthday":2968,"bogus":2969,"ynamic":2970,".\")":2971,"/{":2972,"17":2973,"=('":2974,"Cookie":2975,"Iter":2976,"LI":2977,"World":2978,"bad":2979,"can":2980,"fp":2981,"lang":2982,"ssert":2983,"ting":2984,"wd":2985,"ĠJ":2986,"Ġjinja":2987,"stall":2988,"('-":2989,"Ġcs":2990,"ionError":2991,"mpath":2992,"tract":2993,"unread":2994,"fold":2995,"exp":2996,"profiler":2997,"InList":2998,"Ġ100":2999,"Ġhref":3000,"ptional":3001,"Control":3002,"ONG":3003,"Ġls":3004,"bool":3005,"Ġtimedelta":3006,"staticmethod":3007,"debugtoolbar":3008,"affold":3009,"Ġmodules":3010,"documents":3011,"Ġlistener":3012,"ssertionError":3013,".%":3014,"For":3015,"Float":3016,"SC":3017,"Sub":3018,"aa":3019,"cip":3020,"event":3021,"enabled":3022,"hn":3023,"nu":3024,"none":3025,"wh":3026,"Ġup":3027,"ors":3028,"meta":3029,"Ġ'*":3030,"Ġcc":3031,"')))":3032,"ĠĠĠĠĠĠĠĠĠĠĠĠĠĠĠĠĠĠĠĠĠĠĠĠĠĠĠĠĠĠĠĠĠĠĠĠĠĠĠĠ":3033,"anger":3034,"Ġext":3035,"Ġsign":3036,"consumer":3037,"illi":3038,"classmethod":3039,"ĠForum":3040,"Redirect":3041,"tokengetter":3042,"Inter":3043,"Ġ204":3044,"TestSuite":3045,"Value":3046,"ValueError":3047,"ĠTime":3048,"ĠTopic":3049,"Ġlxc":3050,"PORT":3051,"bootstrap":3052,"Provider":3053,"logged":3054,"Ġresults":3055,"dential":3056,"Ġconfigure":3057,"ialization":3058,"Encoder":3059,"Login":3060,"Ġ>=":3061,"Ġpeewee":3062,"ultiple":3063,"themes":3064,"followed":3065,"CONFI":3066,"published":3067,"attachment":3068,"execute":3069,"iddleware":3070,")])":3071,"><":3072,"Int":3073,"Loc":3074,"MongoEngine":3075,"NO":3076,"bro":3077,"fr":3078,"num":3079,"ported":3080,"salt":3081,"Ġlineno":3082,"Ġarguments":3083,"seque":3084,"ating":3085,"Ġcookie":3086,"appcontext":3087,"__))":3088,"fixt":3089,"Ġequal":3090,"hes":3091,"heard":3092,"Ġnum":3093,"ped":3094,"Ġwant":3095,"verify":3096,"Ġkeys":3097,"ĠAssertionError":3098,"click":3099,"Ġchoices":3100,"ialize":3101,"Ġsearch":3102,"connected":3103,"arkup":3104,"confirmation":3105,"PATH":3106,"Ġreceiver":3107,"macro":3108,"Serializer":3109,"ĠLocalProxy":3110,"DebugPanel":3111,"umerate":3112,"CONFIR":3113,"'t":3114,"MONG":3115,"WerkzeugTestCase":3116,"]=":3117,"cc":3118,"dout":3119,"eo":3120,"false":3121,"opts":3122,"sw":3123,"war":3124,"warning":3125,"}\".":3126,"Ġat":3127,"Ġserializer":3128,"registered":3129,"mediatype":3130,"Ġfp":3131,"Ġfail":3132,"getattr":3133,"Ġet":3134,"Ġescape":3135,"traceback":3136,"ilder":3137,"Ġapply":3138,"strong":3139,"Ġ_(\"":3140,"addr":3141,"ited":3142,"Ġhandler":3143,"Ġhandle":3144,"Ġavailable":3145,"ĠPro":3146,"Ġtmp":3147,"lock":3148,"Ġcreated":3149,"StringIO":3150,"ĠModelView":3151,"METH":3152,"ĠBoolean":3153,"Ġenumerate":3154,"TextField":3155,"Ġwrap":3156,"123":3157,"Ġcallable":3158,"receiver":3159,"Ġsubprocess":3160,"realm":3161,"allowed":3162,"PasswordForm":3163,"This":3164,"converts":3165,"homepage":3166,"Signature":3167,"mbedded":3168,"AreaField":3169,"METHOD":3170,"13":3171,"Bar":3172,"EMAIL":3173,"Image":3174,"Token":3175,"Your":3176,"ake":3177,"cp":3178,"cre":3179,"danger":3180,"google":3181,"imp":3182,"ply":3183,"rator":3184,"upt":3185,"uccess":3186,"ĠU":3187,"ĠRE":3188,"ĠTemplate":3189,"rev":3190,"leted":3191,"urlen":3192,"('__":3193,"Ġcustom":3194,"Ġcommand":3195,"apped":3196,"getitem":3197,"Ġinvalid":3198,"Ġinspect":3199,"height":3200,"']],":3201,"uture":3202,"Reference":3203,"allback":3204,"proxy":3205,"Ġ23":3206,"ĠTh":3207,"ĠTodo":3208,"Ġ404":3209,"ĠID":3210,"Ġlwp":3211,"Ġlogger":3212,"editable":3213,"Ġbasestring":3214,"TEST":3215,"cookies":3216,"IONS":3217,"packages":3218,"Ġbuffer":3219,"labels":3220,"ODB":3221,"wtf":3222,"lags":3223,"Ġcsrf":3224,"Location":3225,"sequence":3226,"MONGODB":3227,"\"')":3228,".\"),":3229,"Client":3230,"Custom":3231,"OST":3232,"PRE":3233,"Range":3234,"else":3235,"future":3236,"ght":3237,"guest":3238,"ll":3239,"mas":3240,"mcache":3241,"ssed":3242,"zip":3243,"Ġj":3244,"ĠDateTime":3245,"ĠQu":3246,"Ġterm":3247,"decor":3248,"erce":3249,"uration":3250,"('<":3251,"this":3252,"__),":3253,"ates":3254,"Ġpickle":3255,"Ġsource":3256,"confirmed":3257,"setUp":3258,")).":3259,"isinstance":3260,"Ġactions":3261,"ĠArticle":3262,"ĠMarkup":3263,"Ġprovi":3264,"Ġ401":3265,"LENG":3266,"bucket":3267,"signature":3268,"weak":3269,"Ġcalls":3270,"Ġbytes":3271,"linkedin":3272,"expires":3273,"ĠMockModelView":3274,"LENGTH":3275,".\"":3276,"AC":3277,"Access":3278,"Bu":3279,"BadRequest":3280,"MO":3281,"Module":3282,"NY":3283,"_,":3284,"ae":3285,"cb":3286,"est":3287,"escription":3288,"ft":3289,"ias":3290,"nc":3291,"ning":3292,"single":3293,"ugin":3294,"{{":3295,"Ġle":3296,"Ġ60":3297,"installed":3298,"Ġip":3299,"Ġrelease":3300,"('^":3301,"Ġfrozen":3302,"enum":3303,"Ġpub":3304,"ummary":3305,"unquote":3306,"ĠForeignKey":3307,"usage":3308,"Ġmenu":3309,"rong":3310,"Ġtrans":3311,"present":3312,"ĠAddress":3313,"()).":3314,"ystem":3315,"Extension":3316,"Ġ'/'":3317,"ĠBad":3318,"SSAGE":3319,"HTTPException":3320,"KEN":3321,"Ġsubmit":3322,"Ġcomp":3323,"itional":3324,"CONTENT":3325,"matic":3326,"Disp":3327,"WSGIWarning":3328,"REQUEST":3329,"29":3330,"600":3331,"AP":3332,"IME":3333,"Immutable":3334,"Please":3335,"RF":3336,"Role":3337,"[(":3338,"bin":3339,"egg":3340,"mk":3341,"matt":3342,"migr":3343,"nonce":3344,"ybr":3345,"Ã¤":3346,"Ġ:":3347,"Ġqu":3348,"Ġ))":3349,"ĠDate":3350,"Ġattributes":3351,"Ġauto":3352,"Ġspec":3353,"insert":3354,"integer":3355,"ale":3356,"Ġrequi":3357,"Ġframe":3358,"appengine":3359,"ĠĠĠĠĠĠĠĠĠĠĠĠĠĠĠĠĠĠĠĠĠĠĠĠĠĠĠĠĠĠĠĠĠĠĠĠĠĠĠĠĠĠĠĠ":3360,"ĠĠĠĠĠĠĠĠĠĠĠĠĠĠĠĠĠĠĠĠĠĠĠĠĠĠĠĠĠĠĠĠĠĠĠĠĠĠĠĠĠ":3361,"Ġparent":3362,"testsuite":3363,"itive":3364,"hex":3365,"datastructures":3366,"Ġdatastructures":3367,"Ġmissing":3368,"__(*":3369,"_([(":3370,"Ġdecode":3371,"forbidden":3372,"Ġurlparse":3373,"directory":3374,"ĠPY":3375,"ĠĠĠĠĠĠĠĠĠĠĠĠĠĠĠĠĠĠĠĠĠĠĠĠĠĠĠĠĠĠĠĠĠĠĠĠĠĠĠĠĠĠĠ":3376,"Ġ['_":3377,"Ġsecond":3378,"MESSAGE":3379,"wrappers":3380,"Ġ<=":3381,"links":3382,"weet":3383,"Ġcomments":3384,"Ġexpired":3385,"LOG":3386,"ĠHeaders":3387,"BooleanField":3388,"Ġrealm":3389,"ĠPasswordField":3390,"Ġscript":3391,"HEAD":3392,"warded":3393,"urlencoded":3394,"Disposition":3395,".'))":3396,".</":3397,".\"))":3398,"50":3399,"78":3400,"94":3401,"Api":3402,"Between":3403,"Gener":3404,"Greater":3405,"HOST":3406,"IT":3407,"OU":3408,"OAUTH":3409,"]}":3410,"cur":3411,"css":3412,"iation":3413,"mapper":3414,"pagination":3415,"Ġauthorize":3416,"rename":3417,"recorded":3418,"('\\":3419,"nail":3420,"thing":3421,"lasses":3422,"ansa":3423,"Ġpackage":3424,"Ġinter":3425,"assertFalse":3426,"Ġsup":3427,"trans":3428,"ill":3429,"lice":3430,"abort":3431,"iso":3432,"sure":3433,"Ġ12":3434,"riter":3435,"ĠSt":3436,"apimanager":3437,"ches":3438,"STR":3439,"RESET":3440,"john":3441,"licit":3442,"Ġchild":3443,"Ġgreenlet":3444,"IntegerField":3445,"Ġsent":3446,"flaskbb":3447,"ĠOrdered":3448,"logging":3449,"buf":3450,"buffer":3451,"channels":3452,"Ġbuild":3453,"ADMIN":3454,"192":3455,"[:]":3456,"Application":3457,"widgets":3458,"Ġscaffold":3459,"require":3460,"accounts":3461,"BetweenFilter":3462,"40":3463,"Age":3464,"Down":3465,"EN":3466,"SA":3467,"SRF":3468,"]':":3469,"backend":3470,"ep":3471,"ii":3472,"large":3473,"ns":3474,"sy":3475,"super":3476,"ync":3477,"Ġ|":3478,"Ġroot":3479,"Ġhere":3480,"ĠDataRequired":3481,"ĠEnviron":3482,"separator":3483,"rer":3484,"stop":3485,"stdout":3486,"ason":3487,"Ġ'-":3488,"Ġ''.":3489,"serialize":3490,"Ġflas":3491,"Ġcapt":3492,"Ġdif":3493,"ctool":3494,"assertIs":3495,"people":3496,"upper":3497,"found":3498,"about":3499,"ĠFloat":3500,"Index":3501,"configure":3502,"Ġast":3503,"Ġstop":3504,"mbol":3505,"Ġfiles":3506,"INFO":3507,"ullname":3508,"ĠImage":3509,"accessible":3510,"DELE":3511,"=[('":3512,"Ġvariable":3513,"Ġshould":3514,"ABLE":3515,"Char":3516,"Ġweak":3517,"offset":3518,"Ġentry":3519,"Ġhostname":3520,"ĠSelect":3521,"overrides":3522,"gistration":3523,"Ġparts":3524,"UploadField":3525,"Logger":3526,"broken":3527,"fixture":3528,"ansaction":3529,"ctools":3530,"DELETE":3531,"!')":3532,"'d":3533,"Middleware":3534,"Smaller":3535,"[::":3536,"eval":3537,"yes":3538,"zA":3539,"Ġqui":3540,"ĠUn":3541,"Ġrow":3542,"Ġerr":3543,"meh":3544,"Ġrel":3545,"served":3546,"service":3547,"serialization":3548,"rout":3549,"apps":3550,"ĠĠĠĠĠĠĠĠĠĠĠĠĠĠĠĠĠĠĠĠĠĠĠĠĠĠĠĠĠĠĠĠĠĠĠĠĠĠĠĠĠĠĠĠĠĠ":3551,"Ġpattern":3552,"Ġetag":3553,"ormal":3554,"Ġnonce":3555,"Ġsite":3556,"Ġsrc":3557,"imetypes":3558,"Ġmapping":3559,"Ġexists":3560,"acker":3561,"air":3562,"Ġorigin":3563,"preprocessors":3564,"=\"/":3565,"ĠMode":3566,"ĠMongoEngine":3567,"Ġprofiler":3568,"tended":3569,"rant":3570,"etch":3571,"rimaryKey":3572,"([('":3573,"locale":3574,"subdocuments":3575,"CHA":3576,"Ġvol":3577,"results":3578,"Ġ'<%":3579,"CAPT":3580,"Ġupdated":3581,"Ġinputs":3582,"Ġdumps":3583,"Ġclosed":3584,"Ġentity":3585,"abcd":3586,"Ġupgrade":3587,"ĠBooleanField":3588,"TESTING":3589,"cba":3590,"[::-":3591,"routing":3592,"CAPTCHA":3593,".*":3594,"18":3595,"Col":3596,"Embedded":3597,"Local":3598,"Unable":3599,"VAL":3600,"]+":3601,"book":3602,"cat":3603,"case":3604,"fn":3605,"pg":3606,"sing":3607,"sol":3608,"uto":3609,"}):":3610,"Ġge":3611,"Ġmain":3612,"thread":3613,"anch":3614,"Ġpl":3615,"Ġinner":3616,"Ġinstall":3617,"Ġscope":3618,"Ġ\"<":3619,"Ġ{\"":3620,"ned":3621,"nested":3622,"requests":3623,"ModelConverter":3624,"validation":3625,"Ġdest":3626,"Ġthread":3627,"ĠSign":3628,"Ġag":3629,"Ġtranslations":3630,"param":3631,"Ġ},":3632,"BaseForm":3633,"mote":3634,"Ġglob":3635,"calls":3636,"tainers":3637,"Profile":3638,"MEM":3639,"ĠBadRequest":3640,"ameters":3641,"Ġitervalues":3642,"searchable":3643,"ĠContainer":3644,"Ġmodname":3645,"Ġfunctools":3646,"MAX":3647,"avatar":3648,"Ġpkt":3649,"TOKEN":3650,"fake":3651,"Ġidentity":3652,"RIPT":3653,"manent":3654,"Ġservice":3655,"Ġ[]).":3656,"Ġconnection":3657,"stead":3658,"Ġcleanup":3659,"MPL":3660,"dentials":3661,")',":3662,"500":3663,"79":3664,":'":3665,"At":3666,"Bad":3667,"Forum":3668,"IF":3669,"LY":3670,"SI":3671,"cmd":3672,"em":3673,"ered":3674,"erence":3675,"flash":3676,"ootstrap":3677,"pas":3678,"pol":3679,"ru":3680,"rators":3681,"uff":3682,"}.":3683,"}/{":3684,"Ġgen":3685,"ĠQuery":3686,"orter":3687,"ories":3688,"ative":3689,"Ġimage":3690,"look":3691,"Ġpagin":3692,"Ġinject":3693,"todo":3694,"console":3695,"Ġbabel":3696,"expose":3697,"strrev":3698,"fileadmin":3699,"Ġ}),":3700,"ular":3701,"UserMixin":3702,"Ġprofile":3703,"ibo":3704,"://'":3705,"hell":3706,"locals":3707,"Ġencode":3708,"activ":3709,"splitlines":3710,"Ġbucket":3711,"Ġdirect":3712,"ĠTestForm":3713,"Ġshow":3714,"Ġpkg":3715,"parts":3716,"Ġwere":3717,"Ġreceived":3718,"interval":3719,"Allow":3720,"ĠAPIManager":3721,"display":3722,"precationWarning":3723,"CONFIRM":3724,"swlimit":3725,"ĠQuokka":3726,"Ġvolupt":3727,"solute":3728,"moteApp":3729,"$',":3730,"32":3731,"DB":3732,"EL":3733,"Multiple":3734,"PY":3735,"PrimaryKey":3736,"Ro":3737,"SK":3738,"To":3739,"TING":3740,"Web":3741,"]?":3742,"flags":3743,"gments":3744,"normal":3745,"sRe":3746,"ual":3747,"Ġ6":3748,"Ġ?":3749,"ĠView":3750,"Ġjoin":3751,"Ġattribute":3752,"Ġteardown":3753,"Ġlinked":3754,"reloader":3755,"deli":3756,"development":3757,"Ġret":3758,"__',":3759,"Ġemit":3760,"assertIn":3761,"']),":3762,"Ġsig":3763,"Ġscheme":3764,"coord":3765,"('/?":3766,"='%":3767,"latex":3768,"Ġextension":3769,"Resource":3770,"ModelLoader":3771,"Ġfieldname":3772,"Ġtraceback":3773,"jsonify":3774,"Ġkeyword":3775,"ĠAjax":3776,"ĠModule":3777,"moj":3778,"Ġchoice":3779,"Ġtypes":3780,"etree":3781,"ĠInt":3782,"anned":3783,"Default":3784,"backref":3785,"ĠUserMixin":3786,"lationships":3787,"imited":3788,"icense":3789,"generated":3790,"docs":3791,"disabled":3792,"Ġdigest":3793,"Ġpermissions":3794,"JSONEncoder":3795,"Ġexceptions":3796,"Ġexpiration":3797,"memlimit":3798,"Ġrealms":3799,"sqla":3800,"flashed":3801,"multiple":3802,"Ġlinks":3803,"SETTING":3804,"matches":3805,"ĠHTTPException":3806,"--------":3807,"lative":3808,"supported":3809,"SCRIPT":3810,"curs":3811,"Agent":3812,"lookup":3813,"SETTINGS":3814,"\"{":3815,"\"',":3816,"22":3817,"24":3818,"39":3819,"70":3820,"BB":3821,"Click":3822,"FLA":3823,"Group":3824,"Link":3825,"Mode":3826,"Missing":3827,"Object":3828,"URE":3829,"VIE":3830,"ZE":3831,"]'":3832,"_%":3833,"ays":3834,"fin":3835,"rid":3836,"xn":3837,"Ġany":3838,"sep":3839,"represent":3840,"dep":3841,"allen":3842,"ert":3843,"Ġred":3844,"('--":3845,"Ġcatch":3846,"nav":3847,"ces":3848,"()]":3849,"Ġinline":3850,"Ġinstead":3851,"idx":3852,"termin":3853,"head":3854,"Ġsize":3855,"conf":3856,"Ġopts":3857,"unk":3858,"Ġbaz":3859,"('/<":3860,"Ġmark":3861,"Ġ\"/":3862,"extract":3863,"Ġexample":3864,"endswith":3865,"paths":3866,"ociation":3867,"lists":3868,"riv":3869,"permanent":3870,"Ġtodo":3871,"ipv":3872,"Ġ).":3873,"RESH":3874,"Ġtwitter":3875,"reference":3876,"Ġgoogle":3877,"updated":3878,"pages":3879,"Decimal":3880,"Ġ[],":3881,"ĠLength":3882,"blueprints":3883,"Authenticate":3884,"submodule":3885,"CHAN":3886,"Ġprev":3887,"Ġpreprocessor":3888,"FIX":3889,"OOT":3890,"ĠEdit":3891,"Storage":3892,"reeze":3893,"MethodView":3894,"restless":3895,"Ġremove":3896,"public":3897,"Ġtempfile":3898,"PROV":3899,"Ġpopulate":3900,"Ġhashlib":3901,"thumbnail":3902,"ĠSecure":3903,"master":3904,"Ġfrozenset":3905,"EmbeddedDocument":3906,"PrimaryKeyConstraint":3907,"VIEW":3908,"allenge":3909,"(_('":3910,"=(":3911,"Attribute":3912,"Command":3913,"ECT":3914,"Headers":3915,"Network":3916,"OError":3917,"Todo":3918,"_)":3919,"``":3920,"cast":3921,"dynamic":3922,"her":3923,"iss":3924,"ker":3925,"rb":3926,"src":3927,"ured":3928,"width":3929,"{'":3930,"}\"":3931,"Ġ&":3932,"ĠDEBUG":3933,"release":3934,"inline":3935,"internal":3936,"alic":3937,"Ġimp":3938,"Ġres":3939,"Ġregex":3940,"('.')":3941,"',)":3942,"Ġcre":3943,"Ġclick":3944,"ĠĠĠĠĠĠĠĠĠĠĠĠĠĠĠĠĠĠĠĠĠĠĠĠĠĠĠĠĠĠĠĠĠĠĠĠĠĠĠĠĠĠ":3945,"()):":3946,"adcast":3947,"Ġeval":3948,"Ġsimple":3949,"Ġrandom":3950,"transaction":3951,"Ġover":3952,"Ġoperator":3953,"database":3954,"acket":3955,"lish":3956,"setitem":3957,"Ġmac":3958,"Ġ_,":3959,"Ġ(%":3960,"Ġnames":3961,"Info":3962,"Inline":3963,"Ġmemcache":3964,"permission":3965,"important":3966,"Ġhs":3967,"Ġurljoin":3968,"ĠSE":3969,"ched":3970,"ĠAnonymous":3971,"REDI":3972,"ONLY":3973,"mbic":3974,"ĠToken":3975,"Ġ403":3976,"ĠIOError":3977,"Delete":3978,"gisterForm":3979,"entry":3980,"Ġtimestamp":3981,"Ġconfigparser":3982,"resources":3983,"receive":3984,"Ġ'.'":3985,"Ġnose":3986,"global":3987,"ĠMessage":3988,"CEPT":3989,"Ġconverters":3990,"CTION":3991,"ĠSession":3992,"XXXX":3993,"wraps":3994,"paginate":3995,"cipient":3996,"PREFIX":3997,"IndexView":3998,"imitedStream":3999,"rivate":4000,",)":4001,".\",":4002,"05":4003,"Ajax":4004,"Factory":4005,"GER":4006,"Number":4007,"Permission":4008,"Run":4009,"Raise":4010,"Variable":4011,"\\.":4012,"]))":4013,"ax":4014,"df":4015,"element":4016,"embic":4017,"hook":4018,"pass":4019,"uck":4020,"wrong":4021,"Ġau":4022,"Ġ())":4023,"Ġ],":4024,"Ġargument":4025,"recaptcha":4026,"del":4027,"strea":4028,"stuff":4029,"eries":4030,"Ġimple":4031,"ural":4032,"Ġcase":4033,"Ġcause":4034,"__')":4035,"Ġdst":4036,"Ġdown":4037,"getLogger":4038,"Ġinstalled":4039,"italic":4040,"assertRaise":4041,"'][":4042,"['_":4043,"Ġsid":4044,"Ġsingle":4045,"cover":4046,"Ġoff":4047,"quot":4048,"iltin":4049,"tyle":4050,"units":4051,"Ġbad":4052,"Ġ\"\"\"":4053,"extend":4054,"strict":4055,"Ġexist":4056,"ugh":4057,"edtime":4058,"shape":4059,"Ġact":4060,"myfileadmin":4061,"Ġuuid":4062,"ignore":4063,"FormField":4064,"ĠTag":4065,"Ġsess":4066,"DeprecationWarning":4067,"NotEqualFilter":4068,"Ġmessages":4069,"Ġlogged":4070,"URCE":4071,"subdoc":4072,"ameter":4073,"Ġalembic":4074,"reshold":4075,"Sec":4076,"ategories":4077,"127":4078,"PAGIN":4079,"weibo":4080,"plaintext":4081,"ĠTextAreaField":4082,"igrate":4083,"gistrations":4084,"Ġdispatch":4085,"tearDown":4086,"Ġdisabled":4087,"ĠLoginManager":4088,"ĠSerializer":4089,"TERS":4090,"Ġvisible":4091,"illiseconds":4092,"NOT":4093,"ReferenceField":4094,"APP":4095,"ybrid":4096,"license":4097,"MultipleField":4098,"delitem":4099,"assertRaises":4100,"PAGINATION":4101,"!'.":4102,"'m":4103,"(%":4104,".'),":4105,"28":4106,"BER":4107,"Get":4108,"JECT":4109,"SU":4110,"Success":4111,"TW":4112,"TIME":4113,"Wr":4114,"]|":4115,"aw":4116,"ek":4117,"jar":4118,"of":4119,"ous":4120,"pattern":4121,"rst":4122,"summary":4123,"ĠError":4124,"Ġ//":4125,"ĠUnicode":4126,"Ġsecure":4127,"Ġverifier":4128,"rection":4129,"ince":4130,"algorithm":4131,"Ġicon":4132,"Ġreference":4133,"Ġfeed":4134,"Ġcgroup":4135,"Ġcalled":4136,"round":4137,"__()":4138,"()),":4139,"']):":4140,"Ġndb":4141,"ich":4142,"peg":4143,"Ġbl":4144,"Ġbut":4145,"exit":4146,"Ġtests":4147,"Ġ_('":4148,"Ġforce":4149,"usten":4150,"foobar":4151,"Ġ[\"":4152,"Ġ15":4153,"Ġhome":4154,"Ġurllib":4155,"chema":4156,"=\"%":4157,"REMEM":4158,"Ġprovider":4159,"Exists":4160,"bye":4161,"Ġchar":4162,"Ġchain":4163,"FlaskForm":4164,"INVAL":4165,"wrapped":4166,"examples":4167,"Ġitertools":4168,"Ġfuncs":4169,"Ġpreprocessors":4170,"ListField":4171,"omething":4172,"Ġtopics":4173,"SelectMultipleField":4174,"varo":4175,"CacheControl":4176,"ĠChange":4177,"statement":4178,"Channel":4179,"ManagerTestBase":4180,"setupmethod":4181,"WWW":4182,"tearing":4183,"warnings":4184,"ĠOSError":4185,"expand":4186,"Ġcapture":4187,"Ġoffset":4188,"REMEMBER":4189,"INVALID":4190,"\"}":4191,")')":4192,"26":4193,">=":4194,"Fix":4195,"MT":4196,"ROOT":4197,"US":4198,"XC":4199,"]{":4200,"aque":4201,"bre":4202,"cated":4203,"classes":4204,"ef":4205,"fname":4206,"gers":4207,"ivers":4208,"mongo":4209,"pare":4210,"qq":4211,"qlite":4212,"rstrip":4213,"sig":4214,"wind":4215,"}_":4216,"Ġad":4217,"Ġtags":4218,"Ġselect":4219,"Ġheight":4220,"ĠtearDown":4221,"seen":4222,"deprecation":4223,"atus":4224,"lections":4225,"uris":4226,"Ġfullname":4227,"ntity":4228,"Ġclear":4229,"lore":4230,"Ġptr":4231,"Ġskip":4232,"comple":4233,"coerce":4234,"deriv":4235,"ily":4236,"unset":4237,"unbound":4238,"lict":4239,"Ġdatabase":4240,"agent":4241,"Ġbro":4242,"='',":4243,"chain":4244,"ĠFoo":4245,"Ġexport":4246,"Record":4247,"timeline":4248,"provi":4249,"clients":4250,"lazy":4251,"quality":4252,"Ġ19":4253,"Ġ1000":4254,"right":4255,"perators":4256,"permissions":4257,"Ġhmac":4258,"ĠStop":4259,"precated":4260,"authors":4261,"RED":4262,"joe":4263,"Ġproject":4264,"rag":4265,"versation":4266,"Notch":4267,"logs":4268,"ĠLink":4269,"newpassword":4270,"DED":4271,"Ġengine":4272,"'''":4273,"TEN":4274,"TEMPL":4275,"TECTION":4276,"Ġalgorithm":4277,"ĠGMT":4278,"ĠWerkzeugTestCase":4279,"rowser":4280,"Ġcached":4281,"ĠOAuthException":4282,"\"]:":4283,"mdl":4284,"dropbox":4285,"ĠFileStorage":4286,"protection":4287,"PROTECTION":4288,"commands":4289,"Ġchanged":4290,"(?:":4291,"facebook":4292,"ĠLoginForm":4293,"paginator":4294,"FORMATTERS":4295,"SOURCE":4296,"Ġprovide":4297,"migrations":4298,"Ġoriginal":4299,"poly":4300,"Allowed":4301,"FLASK":4302,"derivation":4303,"TEMPLATE":4304,"'s":4305,"/\"":4306,"/..":4307,"49":4308,"69":4309,":',":4310,"=?":4311,"CSRF":4312,"IG":4313,"LU":4314,"TB":4315,"bat":4316,"ban":4317,"ech":4318,"eak":4319,"gn":4320,"gt":4321,"greater":4322,"iri":4323,"pack":4324,"purpose":4325,"rss":4326,"td":4327,"two":4328,"ws":4329,"Ġut":4330,"Ġkw":4331,"Ġta":4332,"ĠHTML":4333,"sens":4334,"tex":4335,"onger":4336,"ine":4337,"inspect":4338,"orph":4339,"ask":4340,"Ġ'':":4341,"Ġreraise":4342,"serve":4343,"ntax":4344,"roved":4345,"nagers":4346,"Ġempty":4347,"tot":4348,"Ġnumber":4349,"trace":4350,"quested":4351,"aclass":4352,"':'":4353,"Ġboolean":4354,"sessions":4355,"Ġcontainers":4356,"taData":4357,"Ġnamed":4358,"dbar":4359,"FieldList":4360,"listdir":4361,"via":4362,"Ġmetadata":4363,"Ġdeprecated":4364,"Ġ20":4365,"igh":4366,"preserved":4367,"ĠĠĠĠĠĠĠĠĠĠĠĠĠĠĠĠĠĠĠĠĠĠĠĠĠĠĠĠĠĠĠĠĠĠĠĠĠĠĠĠĠĠĠĠĠĠĠ":4368,"REGI":4369,"ĠReset":4370,"output":4371,"ERY":4372,"Ġlm":4373,"Ġseed":4374,"ffered":4375,"DateField":4376,"correct":4377,"forums":4378,"Ġiterable":4379,"encoder":4380,"ĠWSGI":4381,"Ġreqctx":4382,"connection":4383,"Ġforums":4384,"Ġoauthlib":4385,"Ġ'%(":4386,"Ġshort":4387,"vars":4388,"Ġpygments":4389,"changed":4390,"ĠDocument":4391,"scriptors":4392,"Ġnodes":4393,"system":4394,"QUERY":4395,"USERNAME":4396,"ĠTextField":4397,"ascii":4398,"Namespace":4399,"cpus":4400,"mkdir":4401,"GreaterFilter":4402,"Ġflaskext":4403,"Ġglobal":4404,"}.{":4405,"CONFIRMATION":4406,"sRead":4407,"Ġkeywords":4408,"Moderator":4409,"ĠSecureCookie":4410,"streamed":4411,"Ġdowngrade":4412,"sensitive":4413,"\"):":4414,"\"],":4415,"'%":4416,"'[":4417,")}":4418,")</":4419,"/':":4420,"37":4421,"40000":4422,"86":4423,":`":4424,"AV":4425,"Argument":4426,"Anonymous":4427,"CATE":4428,"CPU":4429,"DO":4430,"Entity":4431,"LXC":4432,"Mail":4433,"Pe":4434,"Pre":4435,"SD":4436,"SION":4437,"System":4438,"UID":4439,"]*":4440,"afe":4441,"ear":4442,"fd":4443,"lte":4444,"nied":4445,"pair":4446,"private":4447,"sorted":4448,"xin":4449,"Ġ8":4450,"ĠInteger":4451,"Ġutil":4452,"ĠDEFAULT":4453,"Ġauthorized":4454,"Ġupload":4455,"reg":4456,"ont":4457,"deleted":4458,"inner":4459,"orary":4460,"star":4461,"ats":4462,"met":4463,"memo":4464,"alias":4465,"Ġim":4466,"urlop":4467,"Ġfake":4468,"Ġcur":4469,"rough":4470,"')),":4471,"appstats":4472,"ctype":4473,"idate":4474,"spam":4475,"unknown":4476,"valuelist":4477,"Ġappcontext":4478,"Ġbirthday":4479,"Ġwidth":4480,"Ġconn":4481,"Ġcontains":4482,"Ġconfirmed":4483,"Ġexec":4484,"Ġmeth":4485,"ĠCOOKIE":4486,"Ġdenied":4487,"ctionary":4488,"force":4489,"Ġavatar":4490,"=\"%(":4491,"Context":4492,"Confirm":4493,"ĠPub":4494,"STER":4495,"RESOURCE":4496,"readed":4497,"Format":4498,"']).":4499,"days":4500,"ĠModelAdmin":4501,"Ġseparator":4502,"without":4503,"ĠOptional":4504,"itervalues":4505,"NotNone":4506,"NotInList":4507,"NotAllowed":4508,"mixin":4509,"RequestRedirect":4510,"encoded":4511,"ĠGeo":4512,"ango":4513,"envvar":4514,"ested":4515,"signer":4516,"Unknown":4517,"Ġpropval":4518,"stant":4519,"Ġsuch":4520,"Ġsuffix":4521,"IDER":4522,"Ġwhich":4523,"iddenField":4524,"ĠDefault":4525,"LOW":4526,"Media":4527,"NoO":4528,"Ġcollections":4529,"Ġused":4530,"[:-":4531,"plugin":4532,"interface":4533,"Server":4534,"shares":4535,"Ġdisplay":4536,"requires":4537,"Ã¶Ã¶Ã¶Ã¶":4538,"Ġvisit":4539,"Iteration":4540,"decorators":4541,"Ġspecify":4542,"Ġrequire":4543,"LOGGER":4544,"ĠOrderedDict":4545,"assertIsNotNone":4546,"SmallerFilter":4547,"utoff":4548,"cursive":4549,"representations":4550,"CHANGE":4551,"PROVIDER":4552,"Ġcredentials":4553,"totals":4554,"REGISTER":4555,"urlopen":4556,"(('":4557,"-<":4558,"41":4559,"401":4560,"=-":4561,">\"":4562,">%":4563,"Co":4564,"FRESH":4565,"LimitedStream":4566,"Simple":4567,"UAGE":4568,"Vers":4569,"](":4570,"cd":4571,"cla":4572,"fer":4573,"greenlet":4574,"hidden":4575,"hrough":4576,"ik":4577,"jpg":4578,"ling":4579,"mimetypes":4580,"non":4581,"ood":4582,"rate":4583,"smaller":4584,"since":4585,"tify":4586,"ymbol":4587,"Ã¼":4588,"Ġz":4589,"Ġ()":4590,"Ġ._":4591,"Ġaccept":4592,"Ġstats":4593,"Ġverify":4594,"Ġnav":4595,"rep":4596,"reply":4597,"registration":4598,"relative":4599,"ined":4600,"included":4601,"orten":4602,"sthrough":4603,"atched":4604,"aste":4605,"Ġ''))":4606,"ero":4607,"Ġign":4608,"Ġremember":4609,"Ġrefresh":4610,"least":4611,"(',":4612,"('''":4613,"geo":4614,"Ġftype":4615,"Ġcom":4616,"Ġcmd":4617,"')(":4618,"mpt":4619,"mparser":4620,"__:":4621,"Ġdays":4622,"enu":4623,"Ġpprint":4624,"Ġnon":4625,"queries":4626,"une":4627,"olve":4628,"Ġbackend":4629,"formation":4630,"003":4631,"='')":4632,"Ġmulti":4633,"Translations":4634,"Ġflaskr":4635,"Ġ((":4636,"Reset":4637,"Regex":4638,"RemoteApp":4639,"prof":4640,"project":4641,"viate":4642,"Ġmedia":4643,"ĠCom":4644,"Ġdesc":4645,"Ġthumb":4646,"pret":4647,"parameters":4648,"ĠPage":4649,"EqualTo":4650,"STAT":4651,"REL":4652,"clar":4653,"Ġgot":4654,"Ġgrant":4655,"Ġ{'%":4656,"Detail":4657,"Ġ3600":4658,"ĠOperator":4659,"iteral":4660,"NotEqual":4661,"logo":4662,"helper":4663,"ĠLiteral":4664,"Ġonline":4665,"Ġencrypt":4666,"Ġfill":4667,"CHO":4668,"Ġvar":4669,"ĠNumber":4670,"ĠWeb":4671,"ĠRule":4672,"Ġhttponly":4673,"Ġlineiter":4674,"ĠOAuthProperty":4675,"Datastore":4676,"ĠInter":4677,"replacement":4678,"variable":4679,"ADD":4680,"PTIONS":4681,"ĠMethodView":4682,"Ã¶r":4683,"intersphinx":4684,"Ġattrs":4685,"Already":4686,"children":4687,"Ġthemes":4688,"Cannot":4689,"Ġslugify":4690,"Does":4691,"sidebar":4692,"bools":4693,"Ġ'*'":4694,"METHODS":4695,"implicit":4696,"ACK":4697,"789":4698,"riteria":4699,"CharField":4700,"Atleast":4701,"passthrough":4702,"DefaultProvider":4703,"DecimalField":4704,"herit":4705,"Ġimplement":4706,"echo":4707,"Version":4708,"Ġignore":4709,"AtleastModerator":4710,"'^":4711,"(\\":4712,")\"":4713,"102":4714,"27":4715,"87":4716,">%(":4717,">-<":4718,"ES":4719,"Fadmin":4720,"Ge":4721,"GOR":4722,"Le":4723,"Mac":4724,"Must":4725,"OPTIONS":4726,"Purpose":4727,"ROR":4728,"Save":4729,"Safe":4730,"Yes":4731,"banned":4732,"clo":4733,"categories":4734,"cutoff":4735,"dic":4736,"dos":4737,"elete":4738,"etags":4739,"freeze":4740,"gr":4741,"gue":4742,"lstrip":4743,"lush":4744,"lwp":4745,"mult":4746,"oke":4747,"pa":4748,"sle":4749,"slas":4750,"sql":4751,"ulated":4752,"xhtml":4753,"Ġver":4754,"Ġass":4755,"Ġmail":4756,"ĠTestC":4757,"Ġ--":4758,"Ġmanager":4759,"Ġlib":4760,"Ġgener":4761,"Ġhelpers":4762,"ĠEqualTo":4763,"reload":4764,"alert":4765,"Ġreplace":4766,"Ġreason":4767,"Ġregistrations":4768,"Ġrecursive":4769,"Ġfresh":4770,"Ġfrontend":4771,"apis":4772,"Ġconse":4773,"cel":4774,"enter":4775,"Ġest":4776,"argin":4777,"Ġngettext":4778,"come":4779,"coun":4780,"Ġoption":4781,"queue":4782,"Ġbetween":4783,"dig":4784,"('/'):":4785,"setting":4786,"Ġwa":4787,"Ġwhere":4788,"Ġmigrate":4789,"excluded":4790,"ĠFor":4791,"Ġextract":4792,"proble":4793,"Ġ[{'":4794,"omas":4795,"imports":4796,"Ġhow":4797,"forgot":4798,"Ġraises":4799,"Conversion":4800,"fixes":4801,"ĠPre":4802,"Ġwithin":4803,"resolve":4804,"ĠApp":4805,"ĠANY":4806,"Ġparameter":4807,"BaseTestCase":4808,"\").":4809,"Ġtweet":4810,"ĠRequired":4811,"tenv":4812,"Extra":4813,"ibus":4814,"dicts":4815,"ValidationError":4816,"pick":4817,"populated":4818,"ERROR":4819,"Ġlanguage":4820,"Ġsep":4821,"ĠOK":4822,"entity":4823,"notification":4824,"Ġenum":4825,"Ġconfiguration":4826,"ferent":4827,"debugger":4828,"matching":4829,"ContentPurpose":4830,"ocketIO":4831,"SECURE":4832,"Ġ59":4833,"rown":4834,"MANY":4835,"ĠNamespace":4836,"ĠIndex":4837,"Ġperm":4838,"Ġsha":4839,"VERSION":4840,"ĠChild":4841,"Method":4842,"partial":4843,"used":4844,"FileAdmin":4845,"Ġweb":4846,"ĠMedia":4847,"ĠNotFound":4848,"RITE":4849,"USERS":4850,"accessed":4851,"CODE":4852,"Ġ'{\"":4853,"PUT":4854,"support":4855,"Ġmay":4856,"ĠJan":4857,"Ġsigner":4858,"MongoEngineFilter":4859,"ĠThis":4860,"ĠBadSignature":4861,"hexdigest":4862,"Generator":4863,"Ġsupport":4864,"STRING":4865,"Ġdiff":4866,"ĠSelectField":4867,"Ġplural":4868,"Ġagain":4869,"Ġpaginator":4870,"activate":4871,"LinkRowAction":4872,"Ġhomepage":4873,"breviate":4874,"Ġbroadcast":4875,"dbaron":4876,"8601":4877,"CATEGOR":4878,"Peewee":4879,"sleep":4880,"slashes":4881,"ConversionDict":4882,"CATEGORY":4883,"+\\":4884,"1000":4885,"45":4886,"55":4887,"65":4888,"9000":4889,">\\":4890,"BC":4891,"ED":4892,"GR":4893,"Glob":4894,"Header":4895,"IP":4896,"Large":4897,"MS":4898,"Mo":4899,"MOD":4900,"PC":4901,"Pick":4902,"RU":4903,"SIONS":4904,"Style":4905,"Too":4906,"Tool":4907,"UTH":4908,"]]":4909,"blog":4910,"birth":4911,"between":4912,"bcrypt":4913,"block":4914,"dge":4915,"dBar":4916,"ele":4917,"ected":4918,"emoj":4919,"fk":4920,"ftime":4921,"fetch":4922,"gres":4923,"href":4924,"hybrid":4925,"ike":4926,"ldext":4927,"mcached":4928,"nsel":4929,"oint":4930,"rar":4931,"ran":4932,"racker":4933,"sname":4934,"schema":4935,"task":4936,"ud":4937,"uuid":4938,"vary":4939,"wa":4940,"wik":4941,"Ãģ":4942,"Ġ00":4943,"Ġ64":4944,"Ġzip":4945,"inates":4946,"inherit":4947,"orig":4948,"origin":4949,"stder":4950,"stale":4951,"async":4952,"Ġ'[":4953,"erWidget":4954,"Ġredis":4955,"Ġregistered":4956,"Ġrequested":4957,"arsh":4958,"('{{":4959,"Ġforeign":4960,"Ġfolder":4961,"Ġfont":4962,"aph":4963,"')}):":4964,"navailable":4965,"ĠĠĠĠĠĠĠĠĠĠĠĠĠĠĠĠĠĠĠĠĠĠĠĠĠĠĠĠĠĠĠĠĠĠĠĠĠĠĠĠĠĠĠĠĠ":4966,"adio":4967,"Ġpur":4968,"Ġplat":4969,"Ġincluded":4970,"Ġindic":4971,"tok":4972,"']))":4973,"argspec":4974,"Ġnet":4975,"Ġneed":4976,"Ġsure":4977,"trim":4978,"Ġoldext":4979,"peewee":4980,"unction":4981,"Ġappend":4982,"Ġbirth":4983,"direction":4984,"mini":4985,"Ġmon":4986,"Ġmock":4987,"Ġ\"\"":4988,"Ġ\",":4989,"Trans":4990,"Ġtesting":4991,"strftime":4992,"Ġformparser":4993,"ushed":4994,"nection":4995,"velo":4996,"Ġmeta":4997,"Ġdelta":4998,"utes":4999,"Ġ24":5000,"myview":5001,"httponly":5002,"ictracker":5003,"Ġsaved":5004,"ĠĠĠĠĠĠĠĠĠĠĠĠĠĠĠĠĠĠĠĠĠĠĠĠĠĠĠĠĠĠĠĠĠĠĠĠĠĠĠĠĠĠĠĠĠĠĠĠ":5005,"ĠMA":5006,"ĠMS":5007,"RECAPTCHA":5008,"BaseResponse":5009,"Ġproxy":5010,"Ġmodels":5011,"Ġxrange":5012,"ATAR":5013,"Ġunbound":5014,"readlines":5015,"INT":5016,"Ġ{}'.":5017,"popitem":5018,"ĠIter":5019,"Ġids":5020,"Decoder":5021,"ĠOption":5022,"iterator":5023,"Process":5024,"basename":5025,"ĠValue":5026,"('/').":5027,"LANG":5028,"TED":5029,"Ġtokengetter":5030,"ĠNo":5031,"TextAreaField":5032,"Ġpostprocessors":5033,"Ġstrict":5034,"esome":5035,"slugify":5036,"compare":5037,"Ġbuilder":5038,"ometry":5039,"strumented":5040,"ĠInput":5041,"Ġcov":5042,"Ġcoerce":5043,"dition":5044,"ranges":5045,"sendfile":5046,"Ġauthors":5047,"ĠBaseResponse":5048,"Stats":5049,"moderators":5050,"('.',":5051,"Ġcannot":5052,"Ġrunning":5053,"ĠDummy":5054,"Ġobjects":5055,"GINE":5056,"QueryClass":5057,"ANY":5058,"visible":5059,"Ġqs":5060,"EXTEN":5061,"boundary":5062,"Ġ``":5063,"expiration":5064,"languages":5065,"Ġits":5066,"Ġlocale":5067,"ĠSecurity":5068,"ĠJusten":5069,"Forwarded":5070,"FloatField":5071,"allbackDict":5072,"Builder":5073,"Ġleast":5074,"('^[":5075,"Ġpublished":5076,"bined":5077,"Ġrequires":5078,"requirements":5079,"ENGINE":5080,"SALT":5081,"ĠEnvironment":5082,"Ġthreading":5083,"SIZE":5084,"coordinates":5085,"terminator":5086,"Ġmarkdown":5087,"Ġoverride":5088,"signed":5089,"window":5090,"}_{":5091,"AVATAR":5092,"clared":5093,"ortener":5094,"RELATION":5095,"counter":5096,"populatedText":5097,"PeeweeFilter":5098,"PickerWidget":5099,"Toolbar":5100,"dgeit":5101,"dBaron":5102,"raries":5103,"wiki":5104,"stderr":5105,"LANGUAGE":5106,")(":5107,"**":5108,"/*":5109,"101":5110,"38":5111,"66":5112,"77":5113,"8000":5114,"95":5115,">:":5116,"Be":5117,"BJECT":5118,"Create":5119,"Could":5120,"CRET":5121,"Empty":5122,"Element":5123,"ECHO":5124,"HA":5125,"IC":5126,"IS":5127,"Jame":5128,"Ordered":5129,"Page":5130,"Pop":5131,"Parent":5132,"UUID":5133,"VE":5134,"WAR":5135,"]):":5136,"area":5137,"cut":5138,"called":5139,"cause":5140,"dst":5141,"dcba":5142,"flow":5143,"full":5144,"gif":5145,"hw":5146,"iat":5147,"jango":5148,"lvaro":5149,"milliseconds":5150,"olete":5151,"pushed":5152,"rsplit":5153,"random":5154,"sTestCase":5155,"small":5156,"tm":5157,"ties":5158,"udo":5159,"uild":5160,"ward":5161,"ytes":5162,"}),":5163,"Ġ</":5164,"Ġsplit":5165,"Ġquality":5166,"section":5167,"seudo":5168,"retry":5169,"tell":5170,"des":5171,"atom":5172,"ĠĠĠĠĠĠĠĠĠĠĠĊ":5173,"alk":5174,"Ġ'?'":5175,"Ġimplemented":5176,"Ġreload":5177,"Ġrecipient":5178,"Ġredbaron":5179,"('[":5180,"Ġcould":5181,"Ġcriteria":5182,"')[":5183,"mpling":5184,"nage":5185,"threshold":5186,"__]":5187,"Ġdol":5188,"Ġreturned":5189,"Ġpatch":5190,"Ġpret":5191,"Ġinto":5192,"Ġinteger":5193,"Ġinternal":5194,"ssl":5195,"hehe":5196,"tox":5197,"'](":5198,"']('":5199,"Ġsqlite":5200,"tracker":5201,"conn":5202,"coo":5203,"Ġomd":5204,"Ġimportant":5205,"ptime":5206,"unc":5207,"unct":5208,"ution":5209,"liter":5210,"liance":5211,"Ġbo":5212,"Ġbedtime":5213,"dio":5214,"('/_":5215,"setattr":5216,"Ġwill":5217,"absolute":5218,"abbreviate":5219,"pocoo":5220,"='/',":5221,"Ġ\"-":5222,"challenge":5223,"Ġforwarded":5224,"RegisterForm":5225,"timedelta":5226,"Ġ%}":5227,"itespace":5228,"ModelForm":5229,"clientgetter":5230,"ĠCan":5231,"Ġdecimal":5232,"perties":5233,"Ġhidden":5234,"Ġtool":5235,"ĠSimple":5236,"Ġtrace":5237,"postgres":5238,"ptionError":5239,"Ġsays":5240,"=\"_":5241,"ĠPopen":5242,"ONE":5243,"BaseFloat":5244,"BaseInt":5245,"BasePeeweeFilter":5246,"passwordless":5247,"lyph":5248,":///'":5249,"readline":5250,"ĠTpl":5251,"Ġ409":5252,"popped":5253,"Ġ'/',":5254,"etc":5255,"ĠIf":5256,"Ġlab":5257,"ĠLicense":5258,"ĠFlaskBB":5259,"POSTS":5260,"ĠBuild":5261,"FilterEqual":5262,"Ġbecause":5263,"Ġalias":5264,"Ġenvironment":5265,"Search":5266,"ĠWh":5267,"itemgetter":5268,"Ġdolore":5269,"Ġpostprocessor":5270,"entication":5271,"TypeError":5272,"receivers":5273,"Ġprepare":5274,"Ġsubmodule":5275,"THE":5276,"lector":5277,"generation":5278,"HelloWorld":5279,"2011":5280,"tester":5281,"best":5282,"Ġabsolute":5283,"realpath":5284,"Ġpermission":5285,"rootfs":5286,"memcache":5287,"('..":5288,"followers":5289,"ĠHiddenField":5290,"1970":5291,"Child":5292,"ĠFilterEmpty":5293,"acher":5294,"Ġgroups":5295,"Ġchanges":5296,"bsolete":5297,"grantgetter":5298,"DIA":5299,"Ġservers":5300,"Ġstatement":5301,"Ġconnect":5302,"Ġnetworks":5303,"rendered":5304,"ascript":5305,"step":5306,"samples":5307,"duction":5308,"ĠServer":5309,"Editor":5310,"TRACK":5311,"Domain":5312,"12345679":5313,"Iterator":5314,"LIC":5315,"badval":5316,"when":5317,"ĠProfile":5318,"ImageUploadField":5319,"dangerous":5320,"decorator":5321,"ImmutableDict":5322,"OUT":5323,"Ġinterpre":5324,"Ġgreenlets":5325,"symbol":5326,"Ġdifferent":5327,"ĠBadRequestKeyError":5328,"Ġbuckets":5329,"ĠQuokkaModule":5330,"Ġvoluptate":5331,"ĠAjaxModelLoader":5332,"unks":5333,"EmbeddedDocumentField":5334,"ĠSECRET":5335,"ĠAnonymousUserMixin":5336,"REDIS":5337,"Running":5338,"Ġaut":5339,"licting":5340,"ĠHTMLString":5341,"ĠDocumentation":5342,"metaclass":5343,"NoOptionError":5344,"Ã¶rld":5345,"problematic":5346,"ĠIndexError":5347,"TooLarge":5348,"mcachedCache":5349,"wait":5350,"Ãģlvaro":5351,"Ġpurge":5352,"Ġnetloc":5353,"ĠMAIL":5354,"ĠMSIE":5355,"binedMultiDict":5356,"ĠTplCan":5357,"123456790":5358,"$'":5359,"%-":5360,",),":5361,"08":5362,"409":5363,"75":5364,"=\",":5365,"Attr":5366,"Brown":5367,"Check":5368,"FOO":5369,"Feed":5370,"Je":5371,"LD":5372,"License":5373,"On":5374,"One":5375,"Optional":5376,"Pagination":5377,"RuntimeError":5378,"Str":5379,"USE":5380,"anager":5381,"cr":5382,"cle":5383,"cum":5384,"eio":5385,"gon":5386,"ground":5387,"jdata":5388,"mn":5389,"mock":5390,"morph":5391,"ngettext":5392,"operator":5393,"ts":5394,"uation":5395,"vascript":5396,"wb":5397,"}/":5398,"}',":5399,"âĺ":5400,"Ġquote":5401,"Ġlike":5402,"ĠExample":5403,"ĥ.":5404,"seek":5405,"rel":5406,"rey":5407,"ini":5408,"ash":5409,"Ġ')":5410,"Ġ'</":5411,"Ġ':'":5412,"errer":5413,"Ġikey":5414,"Ġimmutable":5415,"(':',":5416,"geom":5417,"Ġfailed":5418,"Ġfetch":5419,"ntExists":5420,"Ġcand":5421,"Ġds":5422,"Ġdrop":5423,"anis":5424,"enctype":5425,"Ġpla":5426,"Ġpurpose":5427,"Ġinstructions":5428,"Ġes":5429,"tocol":5430,"track":5431,"confir":5432,"ingTestCase":5433,"ingException":5434,"maker":5435,"utsname":5436,"lim":5437,"Ġbrowser":5438,"sets":5439,"setlist":5440,"Ġmimetypes":5441,"Ġ\"\\":5442,"Ġ\"__":5443,"extended":5444,"Traceback":5445,"strib":5446,"Ġforbidden":5447,"textarea":5448,"ĠFin":5449,"Ġconsole":5450,"Ġexpose":5451,"Ġ(?":5452,"Refresh":5453,"RedBaron":5454,"Ġgetter":5455,"fieldname":5456,"Ġmediatype":5457,"Ġ11":5458,"ĠCON":5459,"ĠCategory":5460,"urrentRequest":5461,"ĠSet":5462,"ĠSystem":5463,"strings":5464,"postprocessors":5465,"Ġasync":5466,"ĠParent":5467,"ressed":5468,"ĠAuthor":5469,"ĠMissing":5470,"ĠManager":5471,"STO":5472,"READ":5473,"contextmanager":5474,"BaseMongoEngineFilter":5475,"Ġtd":5476,"Ġtup":5477,"://%":5478,"Ġ01":5479,"Ġ405":5480,"referrer":5481,"Ġ{},":5482,"ĠModelConverter":5483,"javascript":5484,"within":5485,"ĠOther":5486,"ĠObsolete":5487,"iterlists":5488,"Profiler":5489,"MEDIA":5490,"bases":5491,"ĠLO":5492,"ĠList":5493,"([\"":5494,"localize":5495,"FilterNotEqual":5496,"ĠGran":5497,"ĠRequestRedirect":5498,"ĠNull":5499,"arsetAccept":5500,"tables":5501,"Ġsetuptools":5502,"TypeConversionDict":5503,"Ġrulefactory":5504,"Update":5505,"ĠOAuthRemoteApp":5506,"inputs":5507,"Ġ'.'.":5508,"Ġfollowing":5509,"orgot":5510,"Stack":5511,"automatic":5512,"uses":5513,"scriptor":5514,"DATE":5515,"AND":5516,"ANS":5517,"Thu":5518,"ĠSubContentPurpose":5519,"branch":5520,"FORWAR":5521,"EXPI":5522,"Ġidentifier":5523,"HERE":5524,"COL":5525,"shared":5526,"TRANS":5527,"ĠImmutableDict":5528,"Interface":5529,"LoginForm":5530,"MongoEngineTestCase":5531,"Ġprovided":5532,"Ġspecified":5533,"945":5534,"Ġinterval":5535,"]+$',":5536,"Ġplugin":5537,"Ġdirectory":5538,"normalize":5539,"AjaxModelLoader":5540,"passwd":5541,"Secure":5542,"Wrapper":5543,"Ġblank":5544,"ĠStopIteration":5545,"polymorph":5546,"started":5547,"STATUS":5548,"ADDR":5549,"DoesntExists":5550,"Level":5551,"digits":5552,"ĠForbidden":5553,"ĠPrepopulatedText":5554,"CODES":5555,"inheritance":5556,"arshal":5557,"EXTENSIONS":5558,"OrderedMultiDict":5559,"hwaddr":5560,"âĺĥ.":5561,"stribution":5562,"urrentRequestId":5563,"ĠObsoleteAttr":5564,"ĠGranted":5565,"polymorphic":5566,"!</":5567,".,":5568,"/\">":5569,"134":5570,"33":5571,"300":5572,"334":5573,"52":5574,"58":5575,"98":5576,"<!":5577,"=',":5578,">\")":5579,"AS":5580,"An":5581,"Bound":5582,"Com":5583,"Dav":5584,"Fin":5585,"Geo":5586,"He":5587,"If":5588,"IST":5589,"Jo":5590,"Jack":5591,"Like":5592,"Mongo":5593,"Mock":5594,"NEL":5595,"OV":5596,"Oli":5597,"Oper":5598,"Other":5599,"PR":5600,"Path":5601,"Pseudo":5602,"UA":5603,"Willi":5604,"Weak":5605,"WRITE":5606,"bf":5607,"cy":5608,"cfg":5609,"hop":5610,"nap":5611,"nullable":5612,"ps":5613,"ppro":5614,"pwd":5615,"packet":5616,"qop":5617,"rp":5618,"rmin":5619,"rusage":5620,"sus":5621,"slash":5622,"something":5623,"uu":5624,"wer":5625,"writer":5626,"xf":5627,"yntax":5628,"year":5629,"report":5630,"relations":5631,"tected":5632,"onacher":5633,"dest":5634,"derer":5635,"inel":5636,"install":5637,"orsel":5638,"stors":5639,"Ġ'''":5640,"Ġ'').":5641,"Ġrename":5642,"Ġrelations":5643,"left":5644,"ience":5645,"Ġclasses":5646,"roy":5647,"__\":":5648,"ender":5649,"losing":5650,"Ġpair":5651,"ssociation":5652,"Ġemoj":5653,"idict":5654,"argv":5655,"['__":5656,"Ġslash":5657,"Ġsymbol":5658,"conversion":5659,"condition":5660,"inglet":5661,"Ġopt":5662,"unlink":5663,"unsafe":5664,"Ġbind":5665,"upError":5666,"chanis":5667,"ished":5668,"addHandler":5669,"Instance":5670,"InForum":5671,"Ġ16":5672,"ĠCSRF":5673,"ĠCurrentRequestId":5674,"Ġdeleted":5675,"Ġ25":5676,"queryset":5677,"shot":5678,"TestDefaultProvider":5679,"ancestors":5680,"mitted":5681,"elcome":5682,"Ġsame":5683,"Constant":5684,"Username":5685,"UserInfo":5686,"ĠPagination":5687,"ĠPunct":5688,"ĠAppro":5689,"BaseDateTime":5690,"Ġsettings":5691,"clus":5692,"ĠRegistration":5693,"joined":5694,"pyfile":5695,"locked":5696,"Expected":5697,"Ġunexpected":5698,"Ġchallenge":5699,"Ġ406":5700,"FlaskTestCase":5701,"Ġgit":5702,"Ġdefaultdict":5703,"Ġ{}).":5704,"ĠIs":5705,"Ġlonger":5706,"parsed":5707,"Ġ304":5708,"ruleset":5709,"basedir":5710,"ĠFlaskTestCase":5711,"ĠBootstrap":5712,"subtype":5713,"Ġbases":5714,"={}):":5715,"Ġiterkeys":5716,"\"></":5717,"ĠGrant":5718,"searchbox":5719,"ĠWWW":5720,"linker":5721,"Ġnewext":5722,"ĠRonacher":5723,"TextInput":5724,"AdminIndexView":5725,"weight":5726,"ookupError":5727,"gravatar":5728,"Ġstrings":5729,"Ġbuffered":5730,"Ġadditional":5731,"Ġtemplates":5732,"Ġcodecs":5733,"rows":5734,"Ġabout":5735,"ĠInternal":5736,"topictracker":5737,"Ġfollowed":5738,"Ġperms":5739,"Ġdecorators":5740,"Ġargparse":5741,"ĠDevelopment":5742,"follower":5743,"Memcache":5744,"MetaData":5745,"ĠDi":5746,"UnicodeError":5747,"Ġprocessor":5748,"FileUploadField":5749,"ĠMethod":5750,"Tags":5751,"Ġfoobar":5752,"Ġbackground":5753,"Thomas":5754,"Ġlinkage":5755,"PROTO":5756,"toolbars":5757,"Setting":5758,"Ġpopitem":5759,"EXIST":5760,"boundField":5761,"manual":5762,"ĠTextEditor":5763,"authentication":5764,"888":5765,"8859":5766,"Ġrecording":5767,"5902":5768,"dispatch":5769,"Ġconfirmation":5770,"ĠConfigAttribute":5771,"ĠDebugToolbar":5772,"Ġ}}')":5773,"ĠOSI":5774,"sideend":5775,"Submit":5776,"cpu":5777,"impl":5778,"guests":5779,"Ġjpeg":5780,"ACCEPT":5781,"Builtin":5782,"MOTE":5783,"2929":5784,"eggs":5785,".\"))])":5786,"ĠEnvironBuilder":5787,"Ġflashes":5788,"evalex":5789,"serializationException":5790,"Ġgevent":5791,"ĠContainerDoesntExists":5792,"Ġpaginate":5793,"]?[":5794,"Ġsigned":5795,"coords":5796,"Ġextensions":5797,"finished":5798,"Ġmacro":5799,"]|[":5800,"complex":5801,"FLASKY":5802,"/../..":5803,"Ġshortcut":5804,"EntityTooLarge":5805,"SystemCache":5806,"Ġimg":5807,"ĠPublish":5808,"Formatter":5809,"plugins":5810,"AtleastModeratorInForum":5811,"closure":5812,"Ġreplacement":5813,"Ġconsequ":5814,"velope":5815,"Ġitsdangerous":5816,"HASH":5817,"James":5818,"ytesIO":5819,"Ġdolor":5820,"ModelFormList":5821,"ĠWhitespace":5822,"THEME":5823,"ĠLOGIN":5824,"FORWARDED":5825,"Finder":5826,"Operating":5827,"napshot":5828,"susan":5829,"ssociationProxy":5830,"ingleton":5831,"ĠPunctuation":5832,"ĠApproved":5833,"ĠRegistrationForm":5834}