{"<s>":0,"<pad>":1,"</s>":2,"<unk>":3,"!":4,"\"":5,"#":6,"$":7,"%":8,"&":9,"'":10,"(":11,")":12,"*":13,"+":14,",":15,"-":16,".":17,"/":18,"0":19,"1":20,"2":21,"3":22,"4":23,"5":24,"6":25,"7":26,"8":27,"9":28,":":29,";":30,"<":31,"=":32,">":33,"?":34,"@":35,"A":36,"B":37,"C":38,"D":39,"E":40,"F":41,"G":42,"H":43,"I":44,"J":45,"K":46,"L":47,"M":48,"N":49,"O":50,"P":51,"Q":52,"R":53,"S":54,"T":55,"U":56,"V":57,"W":58,"X":59,"Y":60,"Z":61,"[":62,"\\":63,"]":64,"^":65,"_":66,"`":67,"a":68,"b":69,"c":70,"d":71,"e":72,"f":73,"g":74,"h":75,"i":76,"j":77,"k":78,"l":79,"m":80,"n":81,"o":82,"p":83,"q":84,"r":85,"s":86,"t":87,"u":88,"v":89,"w":90,"x":91,"y":92,"z":93,"{":94,"|":95,"}":96,"~":97,"¡":98,"¢":99,"£":100,"¤":101,"¥":102,"¦":103,"§":104,"¨":105,"©":106,"ª":107,"«":108,"¬":109,"®":110,"¯":111,"°":112,"±":113,"²":114,"³":115,"´":116,"µ":117,"¶":118,"·":119,"¸":120,"¹":121,"º":122,"»":123,"¼":124,"½":125,"¾":126,"¿":127,"À":128,"Á":129,"Â":130,"Ã":131,"Ä":132,"Å":133,"Æ":134,"Ç":135,"È":136,"É":137,"Ê":138,"Ë":139,"Ì":140,"Í":141,"Î":142,"Ï":143,"Ð":144,"Ñ":145,"Ò":146,"Ó":147,"Ô":148,"Õ":149,"Ö":150,"×":151,"Ø":152,"Ù":153,"Ú":154,"Û":155,"Ü":156,"Ý":157,"Þ":158,"ß":159,"à":160,"á":161,"â":162,"ã":163,"ä":164,"å":165,"æ":166,"ç":167,"è":168,"é":169,"ê":170,"ë":171,"ì":172,"í":173,"î":174,"ï":175,"ð":176,"ñ":177,"ò":178,"ó":179,"ô":180,"õ":181,"ö":182,"÷":183,"ø":184,"ù":185,"ú":186,"û":187,"ü":188,"ý":189,"þ":190,"ÿ":191,"Ā":192,"ā":193,"Ă":194,"ă":195,"Ą":196,"ą":197,"Ć":198,"ć":199,"Ĉ":200,"ĉ":201,"Ċ":202,"ċ":203,"Č":204,"č":205,"Ď":206,"ď":207,"Đ":208,"đ":209,"Ē":210,"ē":211,"Ĕ":212,"ĕ":213,"Ė":214,"ė":215,"Ę":216,"ę":217,"Ě":218,"ě":219,"Ĝ":220,"ĝ":221,"Ğ":222,"ğ":223,"Ġ":224,"ġ":225,"Ģ":226,"ģ":227,"Ĥ":228,"ĥ":229,"Ħ":230,"ħ":231,"Ĩ":232,"ĩ":233,"Ī":234,"ī":235,"Ĭ":236,"ĭ":237,"Į":238,"į":239,"İ":240,"ı":241,"Ĳ":242,"ĳ":243,"Ĵ":244,"ĵ":245,"Ķ":246,"ķ":247,"ĸ":248,"Ĺ":249,"ĺ":250,"Ļ":251,"ļ":252,"Ľ":253,"ľ":254,"Ŀ":255,"ŀ":256,"Ł":257,"ł":258,"Ń":259,"ĠĠ":260,"ĠĠĠĠ":261,"ĠĠĠ":262,"ĠĠĠĠĠĠĠ":263,"el":264,"er":265,"Ġ'":266,"re":267,"te":268,"ĠĠĠĠĠĠĠĠĠĠĠ":269,"':":270,"on":271,"or":272,"in":273,"se":274,"an":275,"st":276,"',":277,"de":278,"iel":279,"ield":280,"ti":281,"me":282,"le":283,"th":284,"ro":285,"al":286,"Ġ=":287,"ue":288,"nt":289,"sel":290,"ge":291,"self":292,"('":293,"od":294,"),":295,"ar":296,"ss":297,"odel":298,"ĠĠĠĠĠĠĠĠ":299,"Ġi":300,"ct":301,"ate":302,"model":303,"Ġ{":304,"field":305,"Ġ\"":306,"models":307,"db":308,"Ġ('":309,"at":310,"Ġself":311,"Ġ[":312,"Ġc":313,"Ġre":314,"mp":315,"tion":316,"to":317,"ang":318,"Ġ{'":319,"fields":320,"ur":321,"],":322,"Ġp":323,"na":324,"def":325,"Field":326,"ect":327,"ul":328,"Tr":329,"):":330,"jang":331,"ce":332,"ry":333,"jango":334,"True":335,"Ġa":336,"name":337,"Ġf":338,"Ġ[],":339,"ject":340,"ser":341,"django":342,"la":343,"'}":344,"ntry":345,"Ġth":346,"age":347,"ing":348,"id":349,"ou":350,"ig":351,"ort":352,"get":353,"ey":354,"il":355,"orm":356,"ta":357,"ri":358,"up":359,"en":360,"mport":361,"ma":362,"sentry":363,"ob":364,"ch":365,"'}),":366,"Ġs":367,"rom":368,"li":369,"ve":370,"user":371,"ĠĠĠĠĠĠĠĠĠĠĠĠĠĠĠ":372,"Ġthe":373,"##":374,"Ġin":375,"que":376,"co":377,"Ġimport":378,"Ġdef":379,"ult":380,"lo":381,"from":382,"no":383,"\"\"":384,"set":385,"Ġb":386,"()":387,"ert":388,"\",":389,"ex":390,"object":391,"')":392,"si":393,"ck":394,"di":395,"key":396,"pe":397,"ation":398,"ad":399,"Ġ#":400,"Ġw":401,"un":402,"val":403,"urn":404,"turn":405,"ass":406,"ault":407,"']":408,"ĠĠĠĠĠĠĠĠĠĠĠĠĠĠĠĠ":409,"Ġif":410,"Ġo":411,"ter":412,"qu":413,"ore":414,"sp":415,"ver":416,"Ġ(":417,"ded":418,"pro":419,"['":420,"--":421,"ign":422,"Ġreturn":423,"lu":424,"ble":425,"quest":426,"date":427,"__":428,"con":429,"roup":430,"der":431,"ption":432,"Ġto":433,"and":434,"fi":435,"Ġ\"\"\"":436,"time":437,"len":438,"test":439,"default":440,"vi":441,"oun":442,"lass":443,"ed":444,"Ch":445,"'),":446,"gs":447,"ty":448,"xt":449,"Ġfor":450,"assert":451,"oreign":452,"one":453,"ew":454,"is":455,"max":456,"ra":457,"ho":458,"ounded":459,"value":460,"text":461,"url":462,"gth":463,"length":464,"ata":465,"Ġis":466,"pp":467,"Ġm":468,"ull":469,"='":470,"####":471,"Ġno":472,"Ġh":473,"ĠT":474,"Char":475,"ase":476,"Ġd":477,"it":478,"class":479,"spon":480,"iz":481,"es":482,"args":483,"Ġ}":484,"sponse":485,"null":486,"oo":487,"CharField":488,"ion":489,"pa":490,"ated":491,"ub":492,"ut":493,"Key":494,"group":495,"datetime":496,"as":497,"Ġdjango":498,"lug":499,"alse":500,"In":501,"all":502,"Me":503,"False":504,"None":505,"form":506,"ting":507,"ssion":508,"Re":509,"Foreign":510,"ForeignKey":511,"objects":512,"ger":513,"project":514,"00":515,"Ġget":516,"per":517,"tr":518,"ĠS":519,"mar":520,"qual":521,"Ġst":522,"Ġcon":523,"rel":524,"Ġe":525,"uni":526,"ĠA":527,"ith":528,"ĠP":529,"=\"":530,"mb":531,"ment":532,"xi":533,"ht":534,"uth":535,"Equal":536,"lan":537,"Ġpro":538,"type":539,"pri":540,"Ġtest":541,"Ġnot":542,"Ġex":543,"Ġ_":544,"mi":545,"))":546,"Ġof":547,"sion":548,"request":549,"Ġ's":550,"uto":551,"us":552,"setting":553,"Ġ%":554,"reate":555,"\"}":556,"assertEqual":557,"ac":558,"late":559,"ror":560,"----":561,"ime":562,"page":563,"file":564,"om":565,"ĠĠĠĠĠĠĠĠĠĠĠĠĠĠĠĠĠĠĠ":566,"option":567,"am":568,"Ġand":569,"ilter":570,"lank":571,"bleForeignKey":572,"lexi":573,"mail":574,"Flexi":575,"FlexibleForeignKey":576,"ount":577,"est":578,"code":579,"Ġ1":580,"(\"":581,"ca":582,"settings":583,"ol":584,"tent":585,"Meta":586,"Ġu":587,"min":588,"tive":589,"mission":590,"ĠC":591,"ted":592,"Ġmodels":593,"Ġ*":594,"mplate":595,"dex":596,"Ġrequest":597,"data":598,"Ġor":599,"Bounded":600,"mary":601,"Ġuser":602,"kw":603,"Ġ},":604,"Ġvalue":605,"ile":606,"ls":607,"Ġt":608,"ist":609,"view":610,"che":611,"Ġn":612,"kwargs":613,"he":614,"ele":615,"ance":616,"tri":617,"path":618,"entry":619,"\")":620,"\":":621,"Auto":622,"mber":623,"Date":624,"Ġbe":625,"unique":626,"Ġname":627,"Pro":628,"Ġform":629,"bounded":630,"Time":631,"ial":632,"ssage":633,"ĠNone":634,"AutoField":635,"Ġ'd":636,"app":637,"ms":638,"']\"}":639,"list":640,"User":641,"primary":642,"ER":643,"so":644,"log":645,"DateTime":646,"sh":647,"related":648,"tp":649,"ther":650,"teger":651,"DateTimeField":652,"Ġ-":653,"po":654,"tle":655,"ave":656,"now":657,"blank":658,"tic":659,"count":660,"ent":661,"template":662,"end":663,"lugin":664,"vent":665,"ory":666,"stance":667,"Integer":668,"index":669,"ml":670,"########":671,"IntegerField":672,"ĠI":673,"ery":674,"Ġwith":675,"Ġpage":676,"du":677,"Ġel":678,"ure":679,"ag":680,"pt":681,"atus":682,"mple":683,"et":684,"Group":685,"ction":686,"create":687,"ext":688,"ust":689,"ĠD":690,"lin":691,"Ġ==":692,"bo":693,"filter":694,"Big":695,"mage":696,"wor":697,"ite":698,"ization":699,"cess":700,"ack":701,"ip":702,").":703,"ON":704,"valid":705,"add":706,"auth":707,"rent":708,"ubli":709,"message":710,"nder":711,"oc":712,"art":713,"Ġ\"'":714,"Ġas":715,"']\"}),":716,"Ġdi":717,"str":718,"BoundedBig":719,"lean":720,"com":721,"Ġse":722,"BoundedBigAutoField":723,"trib":724,"sc":725,"gan":726,"'},":727,"ganization":728,"rect":729,"duct":730,"obj":731,"Ġ)":732,"Ġresponse":733,"attr":734,"tils":735,"lay":736,"response":737,"Ġ2":738,"ES":739,"Test":740,"import":741,"lient":742,"Ġde":743,"any":744,"ers":745,"ly":746,"Ġ__":747,"ot":748,"Ġurl":749,"'})":750,"._":751,"Er":752,"lace":753,"pi":754,"Error":755,"utils":756,"Ġfile":757,"Ġelse":758,"ration":759,"foreign":760,"query":761,"Model":762,"tail":763,"py":764,"Ġ't":765,"foreignkey":766,"Ġco":767,"content":768,"Ġass":769,"html":770,"sult":771,"table":772,"Ġthat":773,"osi":774,"Ġthis":775,"</":776,"dd":777,"Ġon":778,"Ġ**":779,"email":780,"AT":781,"Ġver":782,"ializ":783,"word":784,"title":785,"gether":786,"ay":787,"ĠTrue":788,"ans":789,"mo":790,"Ġfield":791,"elete":792,"Ġfrom":793,"urce":794,"um":795,"Ġ+":796,"act":797,"ĠRe":798,"together":799,"Form":800,"Project":801,"Ġdata":802,"')),":803,"Ġ\"(":804,"--------":805,"~~":806,"error":807,"Ġmodel":808,"context":809,"Ġl":810,"EN":811,"verse":812,")\",":813,"``":814,"ustom":815,"atch":816,"arch":817,"out":818,"ĠM":819,"ST":820,"Ġ\"(('":821,"ise":822,"eri":823,"ange":824,"Ġ_('":825,"ĠO":826,"Ġassert":827,"'\",":828,"uper":829,"ĠL":830,"ĠFalse":831,"cation":832,"ositive":833,"angu":834,"Ġch":835,"ĠE":836,"anguage":837,"ice":838,"pk":839,"red":840,"\">":841,"Positive":842,"low":843,"Ġ{}":844,"IN":845,"js":846,"thod":847,"qui":848,"ok":849,"Ġit":850,"OR":851,"core":852,"ĠF":853,"Vi":854,"ule":855,"scri":856,"ild":857,"permission":858,"PositiveIntegerField":859,"ermission":860,"igration":861,"ĠG":862,"int":863,"Ġme":864,"ĠĠĠĠĠĠĠĠĠĠĠĠĠĠĠĠĠĠĠĠĠĠĠĠĠĠĠĠĠĠĠĠ":865,"dmin":866,"'),)\",":867,"instance":868,"']\",":869,")),":870,"Boo":871,"Ġpa":872,"sk":873,"assword":874,"Ġdefault":875,"ute":876,"ci":877,"save":878,"UR":879,"Ġsettings":880,"Ġset":881,"Ġal":882,"ff":883,"ress":884,"gist":885,"ateg":886,"client":887,"cept":888,"View":889,"Ġuse":890,"event":891,"last":892,"ator":893,"Ġg":894,"ĠH":895,"direct":896,"Ġclass":897,"\"\"\"":898,"hol":899,"bel":900,"load":901,"12":902,"delete":903,"admin":904,"(),":905,"nd":906,"publi":907,"*-":908,"Ġ0":909,"Ġwh":910,"mand":911,"vision":912,"Ġr":913,"RE":914,"status":915,"Ġra":916,"Ġ-*-":917,"ĠĠĠĠĠĠĠĠĠĠĠĠĠĠĠĠĠĠĠĠĠĠĠ":918,"Con":919,"place":920,"label":921,"lock":922,"plugin":923,"64":924,"if":925,"update":926,"ill":927,"Text":928,"his":929,"ample":930,"Ġsho":931,"Ġan":932,"ument":933,"tag":934,"cal":935,"ia":936,"Ġ['":937,"bose":938,"base":939,"ard":940,"holder":941,"32":942,"elp":943,"ype":944,"ant":945,"AN":946,"Boolean":947,"Ġy":948,"Ġac":949,"for":950,"site":951,"ke":952,"image":953,"serializ":954,"BooleanField":955,"Ġhas":956,"cre":957,"])":958,"ow":959,"\"),":960,"uld":961,"par":962,"Ġstr":963,"Ġso":964,"rst":965,"SE":966,"==":967,"Ġcontext":968,"ner":969,"Ġtemplate":970,"Ġtry":971,"################":972,"login":973,"ION":974,"():":975,"01":976,"Val":977,"pre":978,"Ġresult":979,"Ġ@":980,"ken":981,"contrib":982,"md":983,"ĠN":984,"Ġlist":985,"Case":986,"ĠB":987,"dit":988,"__(":989,"Ġun":990,"ptions":991,"string":992,"man":993,"Ġare":994,"Ġdb":995,"Ġraise":996,"ĠThe":997,"cted":998,"DE":999,"sub":1000,"post":1001,"check":1002,"LE":1003,"ĠTest":1004,"erty":1005,"organization":1006,"Ġexcept":1007,"perty":1008,"tem":1009,"TextField":1010,"clu":1011,"member":1012,"ategory":1013,"Ġkey":1014,"Ġapp":1015,"port":1016,"conf":1017,"trans":1018,"has":1019,"den":1020,"//":1021,"line":1022,"slug":1023,"cur":1024,"URL":1025,"json":1026,"als":1027,"Ġcan":1028,"queryset":1029,"vid":1030,"stri":1031,"ĠThis":1032,"ight":1033,"oding":1034,"ticle":1035,"ttp":1036,"quired":1037,"back":1038,"username":1039,"ustomer":1040,"ix":1041,"idget":1042,"://":1043,"http":1044,"Ġrender":1045,"Ġ.":1046,"seen":1047,"added":1048,"ere":1049,"Ġat":1050,"jo":1051,"res":1052,"Ġma":1053,"sta":1054,"Many":1055,"Ġsuper":1056,"tern":1057,"by":1058,"format":1059,"Ġkwargs":1060,"order":1061,"ĠW":1062,"Ġwe":1063,"layer":1064,"IC":1065,"Ġnew":1066,"ĠĠĠĠĠĠĠĠĠĠĠĠ":1067,"uture":1068,"with":1069,"team":1070,"Ġby":1071,"Ġinstance":1072,"ĠUser":1073,"scription":1074,"ne":1075,"Ġv":1076,"regist":1077,"IT":1078,"utf":1079,"ME":1080,"ven":1081,"Ġgroup":1082,"are":1083,"Ġobject":1084,"unicode":1085,"())":1086,"sy":1087,"Ġproject":1088,"eam":1089,"Ġadd":1090,"able":1091,"agtail":1092,"source":1093,"future":1094,"200":1095,"link":1096,"Ġview":1097,"().":1098,"Ġ3":1099,"GE":1100,"ommand":1101,"40":1102,"Ġcontent":1103,"UT":1104,"ten":1105,"ug":1106,"Ġ`":1107,"AC":1108,"umber":1109,"Ġwill":1110,"ĠIf":1111,"Ġ:":1112,"Ġobj":1113,"join":1114,"read":1115,"led":1116,"Ġos":1117,"active":1118,"AR":1119,"Ġpar":1120,"language":1121,"pen":1122,"Ġfields":1123,"version":1124,"bar":1125,"čĊ":1126,"solu":1127,"init":1128,"'],":1129,"ame":1130,"'))":1131,"'s":1132,"Ġreverse":1133,"AL":1134,"ocument":1135,"Ġshould":1136,"[\"":1137,"ost":1138,"mn":1139,"tribute":1140,"ree":1141,"Ġproduct":1142,"Ġlo":1143,"Ġall":1144,"Ġblank":1145,"RO":1146,"lumn":1147,"Ġ<":1148,"og":1149,"={":1150,"fo":1151,"password":1152,"TestCase":1153,"Ġpre":1154,"To":1155,"av":1156,"older":1157,"ager":1158,"Ġab":1159,"actory":1160,"forms":1161,"ee":1162,"dict":1163,"Ġpath":1164,"arget":1165,"Ġtime":1166,"Ġche":1167,"igrations":1168,"root":1169,"Ġverbose":1170,"oice":1171,"solute":1172,"move":1173,"Ġcheck":1174,"Page":1175,"Ġversion":1176,"product":1177,"vider":1178,"vel":1179,"ki":1180,"Am":1181,"Ġ'm":1182,"cache":1183,"Ġserializ":1184,"~~~~":1185,"oes":1186,"Ġ),":1187,"Ġerror":1188,"Ameri":1189,"ab":1190,"method":1191,"ootle":1192,"America":1193,"mit":1194,"clude":1195,"Ġcur":1196,"ĠPro":1197,"boo":1198,"pping":1199,"ren":1200,"Ġpermission":1201,"'])":1202,"ity":1203,"placeholder":1204,"Ġca":1205,"Ġcreate":1206,"change":1207,"first":1208,"AP":1209,"ock":1210,"ode":1211,"IL":1212,"fs":1213,"tra":1214,"ched":1215,"article":1216,"Ġsub":1217,"meta":1218,"thon":1219,"lation":1220,"US":1221,"ĠR":1222,"50":1223,"put":1224,"ses":1225,"sed":1226,"Ġutf":1227,"tatus":1228,"foo":1229,"ph":1230,"render":1231,"Ġmessage":1232,"bject":1233,"Ġcoding":1234,"ware":1235,"revision":1236,"reverse":1237,"token":1238,"PO":1239,"----------------":1240,"tain":1241,"ace":1242,"rganization":1243,"BoundedPositiveIntegerField":1244,"profile":1245,"ID":1246,"Ġen":1247,"arg":1248,"Ġmax":1249,"ari":1250,"Ġplugin":1251,"Ġpri":1252,"CH":1253,"Ġvalid":1254,"100":1255,"\"]":1256,"ped":1257,"Ġli":1258,"tags":1259,"dir":1260,"register":1261,"Ġhelp":1262,"De":1263,"ĠU":1264,"append":1265,"ixin":1266,"mark":1267,"Ġ[]":1268,"Ġtype":1269,"ors":1270,"example":1271,"Ġ(\"":1272,"fig":1273,"search":1274,"tial":1275,"result":1276,"nia":1277,"child":1278,"its":1279,"Ġstring":1280,"ments":1281,"Not":1282,"Response":1283,"action":1284,"attern":1285,"Ser":1286,"Type":1287,"ifi":1288,"andl":1289,"'^":1290,"fix":1291,"Ġforms":1292,"Ġoptions":1293,"row":1294,"Ġmigrations":1295,"comp":1296,"Ġsentry":1297,"public":1298,"mod":1299,"server":1300,"zip":1301,"eck":1302,"Ġauth":1303,"Ġunicode":1304,"Ġdatetime":1305,"store":1306,"ys":1307,"call":1308,"Ġlog":1309,"col":1310,"\"},":1311,"Ġbase":1312,"Auth":1313,"spe":1314,"'t":1315,"Ġ``":1316,"=[":1317,"Set":1318,"account":1319,"sign":1320,"attrs":1321,"ine":1322,"Ġfilter":1323,"cor":1324,"ld":1325,"nse":1326,"Ġhave":1327,"publish":1328,"AS":1329,"MS":1330,"ous":1331,"PL":1332,"Value":1333,"Ġ{}),":1334,"ound":1335,"Check":1336,"Ġnull":1337,"Se":1338,"OT":1339,"Admin":1340,"Ġ]":1341,"level":1342,"Ġge":1343,"Mixin":1344,"ody":1345,"ind":1346,"new":1347,".__":1348,"options":1349,"ĠGroup":1350,"splay":1351,"ick":1352,"Ġargs":1353,"ĠHttp":1354,"Ġimage":1355,"column":1356,"lication":1357,"cri":1358,"Ġ>":1359,"Ġmod":1360,"address":1361,"']\"})":1362,"fun":1363,"parent":1364,"Ġelif":1365,"Ġany":1366,"25":1367,"emplate":1368,"Ġpubli":1369,"dle":1370,"})":1371,"session":1372,"stra":1373,"Ġgetattr":1374,"Ġabsolute":1375,"Ġused":1376,"urls":1377,"our":1378,"permissions":1379,"TT":1380,"Ġtitle":1381,"..":1382,"ception":1383,"gf":1384,"op":1385,"Ġemail":1386,"ccess":1387,"xx":1388,"price":1389,"Object":1390,"Ġcall":1391,"rame":1392,"items":1393,"CO":1394,"UL":1395,"liter":1396,"can":1397,"({":1398,"translation":1399,"Ġmethod":1400,"ize":1401,"created":1402,"assertTrue":1403,"literals":1404,"Ġpass":1405,"ila":1406,"required":1407,"ies":1408,"Ġid":1409,"DI":1410,"ft":1411,"api":1412,"Ex":1413,"ipping":1414,"book":1415,"(*":1416,"iki":1417,"Ġcre":1418,"Ġparent":1419,"'):":1420,"Team":1421,"mal":1422,"wagtail":1423,"clean":1424,"ializer":1425,"super":1426,"info":1427,"not":1428,"Ġcurrent":1429,"Ġqueryset":1430,"Up":1431,"ze":1432,"ĠĠĠĠĠĠĠĠĠĠĠĠĠĠĠĠĠĠĠĠĠĠĠĠ":1433,"bu":1434,"Di":1435,"outp":1436,"====":1437,"output":1438,"ww":1439,"Permission":1440,"ĠĠĠĠĠ":1441,"POST":1442,"Ġorder":1443,"XX":1444,"eed":1445,"zy":1446,"Ġsite":1447,"FI":1448,"Ġwhen":1449,"Base":1450,"mon":1451,"'\"},":1452,"Ġyou":1453,"Ġrel":1454,"lit":1455,"andler":1456,"start":1457,"property":1458,"Ġlfs":1459,"Plugin":1460,"ive":1461,"Serializer":1462,"MA":1463,"sho":1464,"iddle":1465,"')(":1466,"orage":1467,"ich":1468,"ENT":1469,"ces":1470,"Ġslug":1471,"Valid":1472,"af":1473,"Ġ200":1474,"os":1475,"Ġtext":1476,"Factory":1477,"Ġsh":1478,"lob":1479,"tal":1480,"Ġfun":1481,"hook":1482,"ĠIn":1483,"Ġevent":1484,"atterns":1485,"tml":1486,"ref":1487,"ĠReturn":1488,"org":1489,"nc":1490,"$',":1491,"ToMany":1492,"ED":1493,"tifi":1494,"Member":1495,"128":1496,"_(":1497,"msg":1498,"ulti":1499,"ap":1500,"ĠPage":1501,"ĠDjango":1502,"yle":1503,"Ġhtml":1504,"Organization":1505,"rint":1506,"men":1507,"rite":1508,"entic":1509,"itial":1510,"tests":1511,"item":1512,"sg":1513,"Ġbut":1514,"iddleware":1515,"File":1516,"Al":1517,"widget":1518,"ManyToMany":1519,"folder":1520,"param":1521,"Ġlen":1522,"access":1523,"superuser":1524,"edit":1525,"checks":1526,"laceholder":1527,"Ġformat":1528,"30":1529,"ManyToManyField":1530,"Ġfi":1531,"ESS":1532,"ython":1533,"Ġclient":1534,"manage":1535,"cimal":1536,"11":1537,"Qu":1538,"fault":1539,"Ġlanguage":1540,"help":1541,"ING":1542,"MO":1543,"process":1544,"right":1545,"ĠEx":1546,"qs":1547,"cms":1548,"tension":1549,"ron":1550,"views":1551,"ĠHttpResponse":1552,"del":1553,"Ġadmin":1554,"ties":1555,"char":1556,"hash":1557,"task":1558,"ally":1559,"10":1560,"files":1561,"cial":1562,"ĠĠĠĠĠĠĠĠĠĠĠĠĠĠĠĠĠĠĠĠĠĠĠĠĠĠĠ":1563,"Ġup":1564,"ĠCon":1565,"anager":1566,"Ġonly":1567,"select":1568,"pl":1569,"Ġoption":1570,"Ġ_(\"":1571,"([":1572,"Event":1573,"Filter":1574,"ariant":1575,"ak":1576,"Email":1577,"category":1578,"iver":1579,"Ġcommand":1580,"igin":1581,"VER":1582,"ĠAdd":1583,"Ġfiles":1584,"own":1585,"].":1586,"customer":1587,"sia":1588,"Ġback":1589,"eb":1590,"Ġitem":1591,"Ġ4":1592,"Ġ%}":1593,"'.":1594,"JS":1595,"ĠMeta":1596,"ected":1597,"my":1598,"current":1599,"ax":1600,"mme":1601,"main":1602,"ide":1603,"su":1604,"UTH":1605,"groups":1606,"Ġchange":1607,"USER":1608,"(?":1609,"Ġone":1610,"Ġsys":1611,"ary":1612,"ease":1613,"Ġper":1614,"EL":1615,"AB":1616,"ship":1617,"Ġwor":1618,"Ġaction":1619,"mdset":1620,"Ġcache":1621,"Tag":1622,"ail":1623,"types":1624,"box":1625,"ories":1626,"Ġpost":1627,"tach":1628,"zipped":1629,"zone":1630,"UN":1631,"cy":1632,"work":1633,"CT":1634,"Ġcopy":1635,"messages":1636,"hoto":1637,"static":1638,"ollow":1639,"hel":1640,".\"\"\"":1641,"iven":1642,"404":1643,"Ġstore":1644,"anel":1645,"Ġstatus":1646,"names":1647,"split":1648,"_('":1649,"detail":1650,"ir":1651,"home":1652,"plugins":1653,"send":1654,"Ġwhich":1655,"ĠĠĠĠĠĠĠĠĠĠĠĠĠĠĠĠĠĠĠĠĠĠĠĠĠĠĠĠ":1656,"Ġsource":1657,"ouch":1658,"chema":1659,"Ġ})":1660,"################################":1661,"pages":1662,"values":1663,"Asia":1664,"Ġjson":1665,"Ġ're":1666,"Ġcms":1667,"cs":1668,"gra":1669,"Ġ+=":1670,"Ġupdate":1671,"Ġus":1672,"copy":1673,"Ġchar":1674,"Ġcode":1675,"auto":1676,"ec":1677,"IS":1678,"Ġcho":1679,"Ġtable":1680,"Ġauto":1681,"provider":1682,"ann":1683,"idth":1684,"trical":1685,"mmetrical":1686,"Ġextra":1687,"ountry":1688,"TE":1689,"write":1690,"Ġnumber":1691,"verri":1692,"ists":1693,"mplete":1694,"TY":1695,"resol":1696,"Ġresp":1697,"Ġsu":1698,".\"":1699,"ĠDe":1700,"verride":1701,"Ġpublish":1702,"Ġ{})":1703,"Ġpassword":1704,"pected":1705,"Un":1706,"fla":1707,"Ġproperty":1708,"34":1709,"ĠĠĠĠĠĠ":1710,"users":1711,"AME":1712,"dia":1713,"Ġmatch":1714,"filename":1715,"ual":1716,"Ġredirect":1717,"tains":1718,"symmetrical":1719,"LO":1720,"ĠCheck":1721,"Ġ'%":1722,"Ġdirect":1723,"Ġdocument":1724,"('/":1725,"ends":1726,"stripe":1727,"ote":1728,"Ġdate":1729,"tity":1730,"choice":1731,"cket":1732,"head":1733,"invalid":1734,"Ġsearch":1735,"Ġout":1736,"ĠAr":1737,"elect":1738,"gettext":1739,"Does":1740,"size":1741,"Ġhe":1742,"St":1743,"ays":1744,"ning":1745,"ource":1746,"ym":1747,"Ġyour":1748,"'].":1749,"AD":1750,"point":1751,"Ġgiven":1752,"Dict":1753,"command":1754,"Ġnode":1755,"KE":1756,"frame":1757,"outh":1758,"node":1759,"Ġmore":1760,"Ġaccess":1761,"DoesNot":1762,"be":1763,"Ġcreated":1764,"lection":1765,"Ġquery":1766,"Ġoutput":1767,"Ġ''":1768,"ATE":1769,"ATION":1770,"ĠGen":1771,"xist":1772,"application":1773,"Migration":1774,"JSON":1775,"wiki":1776,"eric":1777,"Ġisinstance":1778,"ena":1779,"las":1780,"75":1781,"Exist":1782,"Ġhere":1783,"Ġ!":1784,"GET":1785,"Add":1786,"innia":1787,"social":1788,"ULT":1789,"redirect":1790,"={'":1791,"HO":1792,"im":1793,"Ġindex":1794,"ool":1795,"ML":1796,"ts":1797,"umb":1798,"DoesNotExist":1799,"patterns":1800,"iler":1801,"lazy":1802,"Ġrelated":1803,"Ġsave":1804,"mpty":1805,"tin":1806,"Ġprint":1807,"Ġsee":1808,"ski":1809,"Ġcom":1810,"Ġwidget":1811,"lasses":1812,"pop":1813,"rule":1814,"Ġspe":1815,"doc":1816,"Ac":1817,"ations":1818,"Ġblock":1819,"Ġj":1820,"map":1821,"Ġdict":1822,"use":1823,"Ġtarget":1824,"Ġ!=":1825,"AGE":1826,"run":1827,"Ġwas":1828,"SION":1829,"selected":1830,"Ġhttp":1831,"Message":1832,"Ġallow":1833,"Ġchoice":1834,"Validation":1835,"Ġtr":1836,"Ġunique":1837,"ĠURL":1838,"+)":1839,"Ġother":1840,"Ġunit":1841,"Ġrequired":1842,"do":1843,"Ġx":1844,"ĠReturns":1845,"Ġmake":1846,"Ġobjects":1847,"tool":1848,"ĠV":1849,"/$',":1850,"Ġplaceholder":1851,"ards":1852,"alled":1853,"verbose":1854,"dis":1855,"da":1856,"extra":1857,"Ġ::":1858,"255":1859,"Ġmsg":1860,"config":1861,"Manager":1862,"ates":1863,"unit":1864,"host":1865,"Ġrun":1866,"Option":1867,"Ġ5":1868,"ating":1869,"Ġtoken":1870,"vice":1871,"tification":1872,"Ġ\\":1873,"Ġcategory":1874,"Ġdo":1875,"~~~~~~~~":1876,"Ġbu":1877,"Redirect":1878,"annel":1879,"gin":1880,"cls":1881,"num":1882,"target":1883,"sent":1884,"description":1885,"Ġpermissions":1886,"Ġtag":1887,"cript":1888,"Ġdetail":1889,"Ġinclude":1890,"pay":1891,"tentType":1892,"Ġpages":1893,"Ġattribute":1894,"=(":1895,"Ġmust":1896,"ark":1897,"Ġint":1898,"alert":1899,"userprofile":1900,"Res":1901,"spent":1902,"images":1903,"total":1904,"manager":1905,"Ar":1906,"Ġ],":1907,"ValidationError":1908,"Ġman":1909,"ear":1910,"zinnia":1911,"argument":1912,"Ġ'{":1913,"ugh":1914,"pootle":1915,"Ã¸":1916,"List":1917,"Config":1918,"Ġmodule":1919,"FA":1920,"Ġcustomer":1921,"afe":1922,"wo":1923,"ocial":1924,"TTP":1925,"201":1926,"zil":1927,"pack":1928,"\"))":1929,"Create":1930,"Ġstart":1931,"okup":1932,"Ġserializer":1933,"filters":1934,"rough":1935,"(**":1936,"NAME":1937,"rder":1938,"ators":1939,"Ġchild":1940,"Ġfirst":1941,"agta":1942,"56":1943,"Ġattrs":1944,"Ġad":1945,"next":1946,"Ġforce":1947,"css":1948,"ds":1949,"ong":1950,"ĠCo":1951,"cul":1952,"lib":1953,"cope":1954,"space":1955,"ved":1956,"ending":1957,"mock":1958,"Ġorganization":1959,"eleted":1960,"END":1961,"ANG":1962,"Ġle":1963,"Ġclean":1964,"release":1965,"ic":1966,"Ġk":1967,"Ġneed":1968,"agin":1969,"errors":1970,"wagta":1971,"Ġconfig":1972,"cart":1973,"ĠSee":1974,"checksum":1975,"fri":1976,"uro":1977,"Ġdoes":1978,"20":1979,"ging":1980,"Ġfunction":1981,"dition":1982,"Select":1983,"ured":1984,"Ġhasattr":1985,"number":1986,"Ġro":1987,"Ġcart":1988,"icense":1989,"You":1990,"Co":1991,"EmailField":1992,"TML":1993,"Ġcls":1994,"Ġav":1995,"MP":1996,"Ġarticle":1997,"Ġlink":1998,"loat":1999,"Log":2000,"Template":2001,"cifi":2002,"Command":2003,"pick":2004,"ries":2005,"vers":2006,"itle":2007,"Ġauthor":2008,"match":2009,"cleaned":2010,"Ġusing":2011,"face":2012,"wit":2013,"Ġ'/":2014,"Ġcol":2015,"ordering":2016,"orted":2017,"KEY":2018,"CON":2019,"PRO":2020,"Euro":2021,"nect":2022,"uid":2023,"xture":2024,"block":2025,"imple":2026,"Ġsta":2027,"andle":2028,"author":2029,"99":2030,"ste":2031,"perties":2032,"gro":2033,"other":2034,"wards":2035,"gram":2036,"Europe":2037,"gest":2038,"Ġpublished":2039,"Ġorm":2040,"Ġsouth":2041,"ACK":2042,"Ġ/":2043,"module":2044,"Search":2045,"Ġugettext":2046,").__":2047,"nection":2048,"coding":2049,"ify":2050,"FAULT":2051,"IP":2052,"cc":2053,"body":2054,"lobal":2055,"tivi":2056,"width":2057,"attribute":2058,"ultip":2059,"und":2060,"style":2061,"ĠK":2062,"cense":2063,"owner":2064,"APP":2065,"Ġgener":2066,"wagtaila":2067,"tivity":2068,"AG":2069,"cel":2070,"fer":2071,"oad":2072,"Ġroot":2073,"Ġcomp":2074,"tiv":2075,"vennia":2076,"ton":2077,".\")":2078,"imes":2079,"Block":2080,"Ra":2081,"Ġpo":2082,"Ġdescription":2083,"ĠRequest":2084,"CMS":2085,"ater":2086,"fir":2087,"apps":2088,"One":2089,"uple":2090,"Ġ|":2091,"},":2092,"Ġfollow":2093,"EST":2094,"ll":2095,"tems":2096,"ises":2097,"ĠGener":2098,"patch":2099,"bookmark":2100,"alog":2101,"ĠLicense":2102,"vert":2103,"arning":2104,"/',":2105,"Ġload":2106,"storage":2107,"SI":2108,"choices":2109,"wagtailadmin":2110,"{%":2111,"nav":2112,"Tests":2113,"ĠsetUp":2114,"oucher":2115,"UG":2116,"gion":2117,"allow":2118,"Ġexpected":2119,"ep":2120,"ng":2121,"ticket":2122,"Ġdel":2123,"Ġlabel":2124,"Ġmessages":2125,"Ġmo":2126,")))":2127,"state":2128,"Ġinvalid":2129,"local":2130,"Ġsome":2131,"cat":2132,"stract":2133,"Ġsign":2134,"Ġchoices":2135,"input":2136,"logger":2137,"ĠTestCase":2138,"ask":2139,"iginal":2140,"Image":2141,"classes":2142,"temp":2143,"Ġusername":2144,"Slug":2145,"staff":2146,"Ġcustom":2147,"handler":2148,"ĠProject":2149,"Ġlayer":2150,"resource":2151,"assertIn":2152,"NU":2153,"Ġpk":2154,"Ġdetails":2155,"Ġwagtail":2156,"Afri":2157,"fter":2158,"Query":2159,"Ġsup":2160,"Request":2161,"perm":2162,"contenttypes":2163,"full":2164,"ream":2165,"Ġprocess":2166,"The":2167,"www":2168,"Ġsession":2169,"Africa":2170,"ath":2171,"()),":2172,"Ġdelete":2173,"ĠBase":2174,"ĠIt":2175,"cret":2176,"ified":2177,"exists":2178,"raper":2179,"shipping":2180,"location":2181,"python":2182,"Ġtrans":2183,"ster":2184,"ged":2185,"atar":2186,"Ġrevision":2187,"Ġta":2188,"ategories":2189,"ultiple":2190,"\"):":2191,"report":2192,"only":2193,"Ġpart":2194,"idden":2195,"inter":2196,"').":2197,"Ġregist":2198,"Provider":2199,"ĠProduct":2200,"Ġentry":2201,"Ġmember":2202,"ink":2203,"Ġhead":2204,"lic":2205,"AUTH":2206,"MPL":2207,"Ġend":2208,"/(?":2209,"ĠMigration":2210,"ternal":2211,"Node":2212,"Ġoper":2213,"func":2214,"gex":2215,"Ġserialize":2216,"Ġdirectory":2217,"dian":2218,"essage":2219,"Ġmark":2220,"Profile":2221,"Context":2222,"Ġshow":2223,"published":2224,"onym":2225,"initial":2226,"cale":2227,"80":2228,"keys":2229,"eries":2230,"ffer":2231,"Ġremove":2232,"Ġvalues":2233,"zilli":2234,"ivery":2235,"Ġdisplay":2236,"API":2237,"oauth":2238,"nter":2239,"Ġ'<":2240,"tend":2241,"onymous":2242,"Ġprimary":2243,"tachment":2244,"Ġbeen":2245,"QU":2246,"Ġpython":2247,"quire":2248,"-%":2249,"CL":2250,"_(\"":2251,"Ġitems":2252,"framework":2253,"ceptions":2254,"--------------------------------":2255,"Ġ6":2256,"thing":2257,"Ġafter":2258,"Ġusers":2259,"Ġparam":2260,"App":2261,"Ġ\"%":2262,"stamp":2263,"\".":2264,"Ġinter":2265,"Item":2266,"Ġnext":2267,"mbda":2268,"avn":2269,"Status":2270,"queue":2271,"ĠTemplate":2272,"\")),":2273,"au":2274,"Ġlast":2275,"lambda":2276,"DEL":2277,"========":2278,"ben":2279,"fy":2280,"inline":2281,"display":2282,"Ġdatabase":2283,"zillians":2284,"PER":2285,"curren":2286,"params":2287,"ASS":2288,"Ġbody":2289,"connect":2290,"Ġedit":2291,"Contains":2292,"ready":2293,"Ġserver":2294,"viron":2295,"Ġunder":2296,"lat":2297,"ignee":2298,"ublic":2299,"Ġsend":2300,"Ġaddress":2301,"caller":2302,"Ġcmdset":2303,"DO":2304,"amount":2305,"sys":2306,"resolvers":2307,"rc":2308,"ĠAP":2309,"ident":2310,"02":2311,"At":2312,"Entry":2313,"[:":2314,"asi":2315,"aila":2316,"FOR":2317,"Hel":2318,"nu":2319,"LED":2320,"Ġcontain":2321,"script":2322,"ach":2323,"vious":2324,"uri":2325,"Ġactive":2326,"mer":2327,".')":2328,"pr":2329,"Ġqs":2330,"remove":2331,"uration":2332,"mbed":2333,"Ġtrue":2334,"SlugField":2335,"KÃ¸":2336,"havn":2337,"Ġres":2338,"fore":2339,"board":2340,"Ġprice":2341,"ailable":2342,"benhavn":2343,"KÃ¸benhavn":2344,"Sub":2345,"eline":2346,"PE":2347,"pagin":2348,"ORS":2349,"Ġaccount":2350,"DEFAULT":2351,"toolbar":2352,"cmd":2353,"extension":2354,"children":2355,"lear":2356,"Ġcount":2357,"Ġqu":2358,"Ġact":2359,"show":2360,"ĠĠĠĠĠĠĠĠĠĠĠĠĠĠĠĠĠĠĠĠĠĠĠĠĠĠĠĠĠĠĠ":2361,"acy":2362,"/')":2363,"desk":2364,"Ġinto":2365,"pic":2366,"Mock":2367,"cip":2368,"ks":2369,"replace":2370,"function":2371,"oken":2372,"ĠGeneral":2373,">>":2374,"HE":2375,"Middleware":2376,"ĠAN":2377,"parse":2378,"inx":2379,"=_('":2380,"Ġct":2381,"ĠImage":2382,"ats":2383,"TI":2384,"bug":2385,"the":2386,"prefix":2387,"socialaccount":2388,"filer":2389,"ash":2390,"formation":2391,"ja":2392,"ority":2393,"lauth":2394,"ĠUn":2395,"Pick":2396,"document":2397,"voice":2398,"return":2399,"Ġsender":2400,"ĠEvent":2401,"lower":2402,"month":2403,"This":2404,"uct":2405,"backends":2406,"catalog":2407,"ĠQ":2408,"Ġpootle":2409,"igits":2410,"Ġmock":2411,"open":2412,"ĠĠĠĠĠĠĠĠĠĠĠĠĠĠĠĠĠĠĠĠĠ":2413,"ayment":2414,"Ġpack":2415,"comments":2416,"Ġparams":2417,"iss":2418,"middleware":2419,"Ġpagin":2420,"Ġold":2421,"of":2422,"Trans":2423,"elease":2424,"gen":2425,"ROOT":2426,"Rel":2427,"spatch":2428,"Ġprofile":2429,"MAIL":2430,"pickle":2431,"Ġinst":2432,"assertFalse":2433,"ific":2434,"ĠSite":2435,"Ġerrors":2436,"ince":2437,"Ġ[\"":2438,"Ġthere":2439,"urlresolvers":2440,"ĠOrganization":2441,"Ġstatic":2442,"Ġ10":2443,"posi":2444,"ĠHTML":2445,"DictField":2446,"tinue":2447,"rop":2448,"ative":2449,"complete":2450,"ĠImport":2451,"Ġ--":2452,"Ġvariant":2453,"ain":2454,"ale":2455,"Ġeq":2456,"entication":2457,"Ġinitial":2458,"Ġover":2459,"perly":2460,"acific":2461,"ValueError":2462,"andard":2463,"helper":2464,"Pacific":2465,"TER":2466,"ĠĠĠĠĊ":2467,"onode":2468,"Revision":2469,"strip":2470,"zippedDictField":2471,"ĠCreate":2472,"aded":2473,"ence":2474,"ĠWe":2475,"ledObject":2476,"processors":2477,"Raises":2478,"Ġlogin":2479,"ĠAt":2480,"short":2481,"ake":2482,"ĠPootle":2483,"ledObjectField":2484,"Ġsame":2485,"gzipped":2486,"andom":2487,"ĠPublic":2488,"down":2489,"chemaMigration":2490,"TION":2491,"country":2492,"photo":2493,"penden":2494,"urlpatterns":2495,"CreateModel":2496,"ender":2497,"Ġlogging":2498,"GzippedDictField":2499,"Ġcor":2500,"Ġdefin":2501,"timezone":2502,"Ġfilename":2503,"gzippeddict":2504,"Ġsix":2505,"Ġits":2506,"sites":2507,"DIR":2508,"payment":2509,"PickledObjectField":2510,"safe":2511,"Ġ))":2512,"ati":2513,"play":2514,"variant":2515,"Ġalso":2516,"cord":2517,"fact":2518,"Ġalready":2519,"ICES":2520,"upload":2521,"STAT":2522,"Ġspecifi":2523,"try":2524,"tree":2525,"success":2526,"22":2527,"nip":2528,"Ġnow":2529,"VERSION":2530,"iter":2531,"Ġhandle":2532,"apter":2533,"Ġ'_":2534,"Ġrest":2535,"var":2536,"ditable":2537,"Ġexist":2538,"Product":2539,"menu":2540,"rece":2541,"utor":2542,"Input":2543,"asic":2544,"part":2545,"Ġpy":2546,"ĠĠĠĠĠĠĠĠĠĠĠĠĠĠĠĠĠ":2547,"Ġnames":2548,"plat":2549,"TEMPL":2550,"web":2551,"assertRaises":2552,"osition":2553,"Ġinformation":2554,"exceptions":2555,"Ġparser":2556,"Ġprefix":2557,"CHO":2558,"nippe":2559,"Ġ7":2560,"Ġstyle":2561,"Uni":2562,"rf":2563,"ĉĉ":2564,"Ġcase":2565,"xxxx":2566,"UB":2567,"media":2568,"atetime":2569,"assertContains":2570,"({'":2571,"18":2572,"ful":2573,"ĠCh":2574,"ast":2575,"gener":2576,"Ġdistri":2577,"antity":2578,"Ġtra":2579,"Ġviews":2580,"Ġho":2581,"helpdesk":2582,"ĠForm":2583,"platform":2584,"CE":2585,"vacy":2586,"ĠĠĠĠĠĠĠĠĊ":2587,"Ġprogram":2588,"assertEquals":2589,"absolute":2590,"Ġlicense":2591,"factory":2592,"nce":2593,"ids":2594,"exclude":2595,"Ġow":2596,"ĠSe":2597,"ĠUserFactory":2598,"44":2599,">\\":2600,"override":2601,"MODEL":2602,"raft":2603,"words":2604,"registration":2605,"ĠĠĠĠĠĠĠĠĠĠĠĠĠĠĠĠĠĠĠĠĠĠĠĠĠ":2606,"ĠCopy":2607,"updated":2608,"ĠImportError":2609,"TR":2610,"Ġline":2611,"Ġ'.":2612,"Ġam":2613,"Ġcontinue":2614,"Ġlater":2615,"Th":2616,"mas":2617,"Ġwithout":2618,"ĠGNU":2619,"iable":2620,"BACK":2621,"No":2622,"pending":2623,"wh":2624,"ANT":2625,"Account":2626,"witch":2627,"Ġfound":2628,"ELD":2629,"Ġrece":2630,"Ġ{\"":2631,"ĠAdding":2632,"mic":2633,"domain":2634,"ĠAPI":2635,"Ġteam":2636,"ormal":2637,"cover":2638,"https":2639,"HTTP":2640,"year":2641,"ĠJ":2642,"cond":2643,"comment":2644,"ground":2645,"Float":2646,"Ġdis":2647,"ĠOrder":2648,"1234":2649,"present":2650,"Ġtimezone":2651,"Ġ..":2652,"Ġserializers":2653,"EMAIL":2654,"sender":2655,"old":2656,"products":2657,".',":2658,"stin":2659,"ali":2660,"Ġstate":2661,"Ġvi":2662,"Ġresource":2663,"Ġresults":2664,"Ġmay":2665,"FIELD":2666,"ular":2667,"Ġmin":2668,"ĠGet":2669,"((":2670,"TH":2671,"FloatField":2672,">[":2673,"DB":2674,"Ġselected":2675,"ither":2676,"delta":2677,"decode":2678,"ĠTh":2679,"Method":2680,"Ġconnection":2681,"ĠModel":2682,"ĠValidationError":2683,"ters":2684,"',)":2685,"mpro":2686,"000":2687,"ĠAn":2688,"Ġshipping":2689,"grouptag":2690,"cies":2691,"pg":2692,"mented":2693,"headers":2694,"ran":2695,"Ġ'',":2696,"Ġamount":2697,"Ġstri":2698,"ORT":2699,"lang":2700,"ature":2701,"ĠArgs":2702,"ps":2703,"we":2704,"pool":2705,"sure":2706,"OrganizationMember":2707,"Ġavailable":2708,"APPS":2709,"Back":2710,"package":2711,"Ġsize":2712,"confir":2713,"keep":2714,"Ca":2715,"Ġcomplete":2716,"010":2717,"build":2718,"Is":2719,"ural":2720,"ERR":2721,"Ġargument":2722,"Exception":2723,"CHOICES":2724,"sce":2725,"til":2726,"ContentType":2727,"Decimal":2728,"\"],":2729,"EX":2730,"OAuth":2731,"ql":2732,"Ġ've":2733,"Ġcalled":2734,"Ġposition":2735,"ĠTO":2736,"Ġdon":2737,"lines":2738,"mproperly":2739,"]+)":2740,"custom":2741,"err":2742,"Ġtuple":2743,"Ġcaller":2744,"ync":2745,"ĠĠĠĠĠĠĠĠĠĠ":2746,"vite":2747,"ib":2748,"utorial":2749,"go":2750,"Ġfolder":2751,"78":2752,"shop":2753,"cmdset":2754,"lfs":2755,"Ġthen":2756,"Configured":2757,"cr":2758,"desc":2759,"ĠPermission":2760,"swith":2761,"Ġplayer":2762,"dump":2763,"ants":2764,"Address":2765,"land":2766,"net":2767,"through":2768,"ĠAUTH":2769,"ICEN":2770,"results":2771,"ĠCopyright":2772,"\"])":2773,"fin":2774,"Ġ8":2775,"Ġser":2776,"ipeline":2777,"Ġlogger":2778,"mproperlyConfigured":2779,"/'":2780,"DU":2781,"OK":2782,"sor":2783,"events":2784,"serializer":2785,"VAL":2786,"bin":2787,"Ġval":2788,"sync":2789,"ecute":2790,"position":2791,"case":2792,"off":2793,"Ġfla":2794,"Ġsure":2795,"env":2796,"ffix":2797,"ĠĠĠĠĠĠĠĠĠ":2798,"encoding":2799,"Ġmeta":2800,"signals":2801,"hello":2802,"PAT":2803,"very":2804,"subscription":2805,"16":2806,"ĠNot":2807,"ICENSE":2808,"xy":2809,"ĠValueError":2810,"Ġread":2811,"rist":2812,"Ġeither":2813,"CA":2814,"FIL":2815,"Ġfin":2816,"trie":2817,"ĠDefault":2818,"lookup":2819,"Ġeach":2820,"ĠLICENSE":2821,"uggest":2822,"Backend":2823,"wa":2824,"Ġzinnia":2825,"Ġproducts":2826,"mpt":2827,"ouched":2828,"height":2829,"Alert":2830,"panel":2831,"Ġ9":2832,"ell":2833,"codename":2834,"eleting":2835,"loads":2836,"licy":2837,"ĠOAuth":2838,"Ġallauth":2839,"iden":2840,"Ġthan":2841,"ĠTag":2842,"flag":2843,"Ġcorrect":2844,"clo":2845,"dar":2846,"find":2847,"ĠPython":2848,"chedule":2849,"startswith":2850,"Ġregister":2851,"sted":2852,"let":2853,"ariable":2854,"Choice":2855,"End":2856,"Ġtags":2857,"Index":2858,"filtervalue":2859,"Can":2860,"Ġ{%":2861,"ĠĠĠĠĠĠĠĠĠĠĠĠĠĠ":2862,"docs":2863,"Widget":2864,"Panel":2865,"simple":2866,"Ġevennia":2867,"Book":2868,"ftware":2869,"ient":2870,"scraper":2871,"backend":2872,"ĠException":2873,"projects":2874,"activ":2875,"decor":2876,"Ġcmd":2877,"perms":2878,"Ġnon":2879,"changed":2880,"39":2881,"CRE":2882,"Ġtests":2883,"Ġmenu":2884,"ĠĠĠĠĠĠĠĠĠĠĠĠĠ":2885,"ĠAUTHORS":2886,"ECT":2887,"non":2888,"Ġ_(":2889,"pendencies":2890,"ome":2891,"layers":2892,"umbna":2893,"Site":2894,"tc":2895,"allback":2896,"ĠCommand":2897,"Ġjust":2898,"SER":2899,"Ġsort":2900,"side":2901,"Ġoriginal":2902,"joined":2903,"ĠTODO":2904,"Ġbefore":2905,"Ġsetup":2906,"trace":2907,"ĠExample":2908,"Ġadded":2909,"Ġdistribu":2910,"14":2911,"19":2912,"AY":2913,"LANG":2914,"`.":2915,"player":2916,"Ġempty":2917,"pytest":2918,"````":2919,"ITY":2920,"Ġpas":2921,"actor":2922,"Ġpublic":2923,"enticated":2924,"TYPE":2925,">'":2926,"TA":2927,"Ġret":2928,"Ġthey":2929,"ĠObject":2930,"collection":2931,"13":2932,"gre":2933,"ĠĠĠĠĠĠĠĠĠĠĠĠĠĠĠĠĠĠĠĠĠĠ":2934,"Ġ12":2935,"ĠCMS":2936,"Ġlocal":2937,"Ġlike":2938,"ristmas":2939,"categories":2940,"fail":2941,"Ġsetting":2942,"limit":2943,"pper":2944,"tring":2945,"etch":2946,"Ġ20":2947,"Ġfunc":2948,"Ġbuild":2949,"lendar":2950,"Ġctx":2951,"PAGE":2952,"brow":2953,"__(*":2954,"extensions":2955,"GI":2956,"Used":2957,"ĠĠĠĠĠĠĠĠĠĠĠĠĠĠĠĠĠĠĠĠĠĠĠĠĠĠĠĠĠĠĠĠĠĠĠ":2958,"Ġopen":2959,"utton":2960,"ressor":2961,"signal":2962,"Article":2963,"ĠLanguage":2964,"wagtailcore":2965,"CAC":2966,"Token":2967,"her":2968,"()[":2969,"expi":2970,"provid":2971,"55":2972,"day":2973,"efault":2974,"Ġrow":2975,"ĠJSON":2976,"pts":2977,"ĠNo":2978,"Ġbases":2979,"Ġ>>>":2980,"dumps":2981,"DAT":2982,"Table":2983,"plan":2984,"rt":2985,"Ġlocation":2986,"ived":2987,"Ġpackage":2988,"umbnail":2989,"hone":2990,"migrations":2991,"uar":2992,"ĠCategory":2993,"called":2994,"Ġ...":2995,"ĠContentType":2996,"Ġoptional":2997,"Cmd":2998,"eo":2999,"Ġlevel":3000,"tore":3001,"assignee":3002,"allery":3003,"Hello":3004,"mall":3005,"ooser":3006,"mote":3007,"ITE":3008,"Alter":3009,"widgets":3010,"ĠHttpResponseRedirect":3011,"Resource":3012,"generic":3013,")]":3014,"SL":3015,"days":3016,"Ġchannel":3017,"Default":3018,"Ġupload":3019,"Ġoperations":3020,"Code":3021,"scope":3022,"Ġlook":3023,"Ġdistributed":3024,"ufact":3025,"0000":3026,"submit":3027,"management":3028,"ufactur":3029,"::":3030,"Ġ).":3031,"less":3032,"Ġoverride":3033,"git":3034,"ha":3035,"role":3036,"Return":3037,"mode":3038,"Ġshop":3039,"Ġlookup":3040,"Ġfixture":3041,"Category":3042,"tation":3043,"Ġchecks":3044,"compile":3045,"(_('":3046,"Password":3047,"dj":3048,"stream":3049,"environ":3050,"chang":3051,"PATH":3052,"Release":3053,"digits":3054,"cast":3055,"Ġdependencies":3056,"hooks":3057,"ways":3058,"acter":3059,"Ġmanage":3060,"placeholders":3061,"cipient":3062,"Endpoint":3063,"SO":3064,"road":3065,"][":3066,"BoundedIntegerField":3067,"serializers":3068,"trieve":3069,"ka":3070,"Ġiden":3071,"Ġbackwards":3072,"QuerySet":3073,"BUG":3074,"Ġok":3075,"ĠSet":3076,"ĠFile":3077,"quires":3078,"stead":3079,"Rule":3080,"Ġcal":3081,"bled":3082,"ĠSub":3083,"Ġexclude":3084,"ĠCustomer":3085,"BigIntegerField":3086,"ĠResponse":3087,"STAL":3088,"straint":3089,"Related":3090,"uggestion":3091,"DER":3092,"Ġlock":3093,"Ġeditable":3094,"global":3095,"Ġtask":3096,"eletion":3097,"ĠList":3098,"ĠRequestContext":3099,"roadcast":3100,"/%":3101,"gno":3102,"lied":3103,"prit":3104,"Ġdefaults":3105,"ber":3106,"vouched":3107,"quence":3108,"Ġtwo":3109,"ĠMock":3110,"subject":3111,"Ġinput":3112,"setta":3113,"except":3114,"div":3115,"ĠAttribute":3116,"kes":3117,"Ġthem":3118,"lot":3119,"privacy":3120,"ditional":3121,"rate":3122,"ĠYou":3123,"Ġlang":3124,"lable":3125,"resses":3126,"ĠĠĠĠĠĠĠĠĠĠĠĠĠĠĠĠĠĠĠĠĠĠĠĠĠĠĠĠĠĠ":3127,"TIME":3128,"Ġprovi":3129,"By":3130,"two":3131,"loaded":3132,"peri":3133,"phone":3134,"15":3135,"Number":3136,"Ġfind":3137,"Ġ}}":3138,"struct":3139,"Ġdeleted":3140,"ĠImproperlyConfigured":3141,"Ġconfiguration":3142,"123456":3143,"Ġpassed":3144,"=_(\"":3145,"tstra":3146,"Ġextension":3147,"directory":3148,"checker":3149,"Ġplugins":3150,"Ġsupp":3151,"playground":3152,"ERROR":3153,"STALLED":3154,"RY":3155,"cached":3156,"Ġcommands":3157,"Django":3158,"empty":3159,"invoice":3160,"Ġrange":3161,"ĠNote":3162,"ToOne":3163,"Ġupdated":3164,"tstrap":3165,"ASE":3166,"JECT":3167,"lease":3168,"ufacturer":3169,"lip":3170,"properties":3171,"ĠAuth":3172,"Ġcolumn":3173,"60":3174,"Gen":3175,"MM":3176,"elper":3177,"ized":3178,"Ġexp":3179,"ĠDeleting":3180,"culprit":3181,"GIN":3182,"OP":3183,"UE":3184,"clear":3185,"live":3186,"sible":3187,"Ġwant":3188,"Ġexample":3189,"actions":3190,"42":3191,"OL":3192,"lated":3193,"debug":3194,"Ġreturns":3195,"ĠTeam":3196,"reload":3197,"force":3198,"Ġhttps":3199,"CLASS":3200,"TEMPLATE":3201,"tutorial":3202,"Ġfull":3203,"ĠDi":3204,"arnings":3205,"Task":3206,"xml":3207,"Ġarg":3208,"Ġiter":3209,"notification":3210,"assertNot":3211,"latex":3212,"erson":3213,"tenant":3214,"publisher":3215,"CACHE":3216,"period":3217,"**":3218,"RES":3219,"{}":3220,"export":3221,"Ġapplication":3222,"Ġbuil":3223,"secret":3224,"Ġinstead":3225,"Ġtree":3226,"COUN":3227,"TemplateUsed":3228,"schema":3229,"ually":3230,"Ġscript":3231,"Inline":3232,"Ġdiffer":3233,"Ġmethods":3234,"plural":3235,"Ġwork":3236,"Access":3237,"draft":3238,"ose":3239,"sample":3240,"reset":3241,"tocol":3242,"cabo":3243,"ĠFound":3244,"flags":3245,"Ġ'{}":3246,"Unicode":3247,"Name":3248,"[-":3249,"sort":3250,"tax":3251,"latest":3252,"ral":3253,"tro":3254,"Ġwiki":3255,"INGS":3256,"UP":3257,"deleted":3258,"ane":3259,"stack":3260,"Ġpatterns":3261,"priority":3262,"mplemented":3263,"Ġdir":3264,"Ġwhere":3265,"Detail":3266,"UBL":3267,"uplic":3268,"Ġrule":3269,"organizationmember":3270,"Ġworld":3271,"33":3272,"{{":3273,"Ġapi":3274,"Ġfail":3275,"']),":3276,"ĠAc":3277,"DIA":3278,"ENTRY":3279,"ni":3280,"son":3281,"yna":3282,"std":3283,"extend":3284,"(\"%":3285,"MAX":3286,"################################################################":3287,"Ġ'--":3288,"inst":3289,"SETT":3290,"ĠArticle":3291,"ĠFoundation":3292,":%":3293,"Data":3294,"My":3295,"With":3296,"Ġter":3297,"dent":3298,"mart":3299,"cause":3300,"Ġfollowing":3301,"uardian":3302,"Ġkeep":3303,"Ġag":3304,"Ġexists":3305,"ĠHTTP":3306,"Queries":3307,"ĠĠĠĠĠĠĠĠĠĠĠĠĠĠĠĠĠĠĠĠĠĠĠĠĠĠĠĠĠ":3308,"Ġsuccess":3309,"ToOneField":3310,"Num":3311,"lar":3312,"Ġpayment":3313,"']:":3314,"spy":3315,"ish":3316,"places":3317,"Ġbackend":3318,"JSONField":3319,"Ġlambda":3320,"Ġcri":3321,"Ġimports":3322,"ModelForm":3323,"Ġ>=":3324,"Ġchanged":3325,"Handler":3326,"snippe":3327,"Ġtranslation":3328,"Ġproperties":3329,"Ġcollection":3330,"DJ":3331,"setup":3332,"Ġcontrib":3333,"\"}),":3334,"#########":3335,"ayer":3336,"For":3337,"Ġselect":3338,"Ġthrough":3339,"Ġdecimal":3340,"Ġhash":3341,"Ġtemplates":3342,"ANGO":3343,"=%":3344,"Par":3345,"Ġinclu":3346,"fixture":3347,"raw":3348,"Ġgeonode":3349,"MIS":3350,"Order":3351,"ible":3352,"Ġ'')":3353,"assertNum":3354,"common":3355,"UnicodePickledObjectField":3356,"assertNumQueries":3357,"Ġimp":3358,"Ġtotal":3359,"rapper":3360,"Ġmon":3361,"ĠDE":3362,"Ġparse":3363,"Ġordering":3364,"XXXX":3365,"On":3366,"QL":3367,"rary":3368,"ingle":3369,"parser":3370,"avatar":3371,"CESS":3372,"score":3373,"Ġsk":3374,"Ġtop":3375,"phinx":3376,"Ġlimit":3377,"icket":3378,"LANGU":3379,"MIN":3380,"cep":3381,"Ġrelease":3382,"Ġ&":3383,"resh":3384,"Ġreport":3385,"ĠGeo":3386,"#########################################################################":3387,"LI":3388,"Ġ\"\"":3389,"Ġforwards":3390,"templates":3391,"SET":3392,"OneToOneField":3393,"many":3394,"Ġattr":3395,"Render":3396,"reak":3397,"repr":3398,"Ġport":3399,"make":3400,"policy":3401,"dirname":3402,"Ġdefined":3403,"BACKEND":3404,"ĠTrans":3405,"ĠĠĠĠĠĠĠĠĠĠĠĠĠĠĠĠĠĠ":3406,"STR":3407,"Ġpaginator":3408,"_%":3409,"cut":3410,"tes":3411,"usr":3412,"Ġne":3413,"ĠFor":3414,"Result":3415,"RESS":3416,"tify":3417,"serve":3418,"Ġbecause":3419,"ĠDocument":3420,"Ġdocumentation":3421,"Redirects":3422,"Ġpytest":3423,"ving":3424,"oday":3425,"ider":3426,"unk":3427,"ook":3428,"ART":3429,"ling":3430,"resp":3431,"ality":3432,"attach":3433,"ĠSt":3434,"Ġevery":3435,"nown":3436,"subscri":3437,"URLField":3438,"audit":3439,"ARE":3440,"txt":3441,"region":3442,"sert":3443,"header":3444,")):":3445,"Ad":3446,"Hash":3447,"]['":3448,"jax":3449,"Ġbo":3450,"exception":3451,"ĠSimple":3452,"Ġsystem":3453,"TagKey":3454,"CM":3455,"ina":3456,"ntax":3457,"Ġsocial":3458,"utors":3459,"spec":3460,"ba":3461,"Ġrepresent":3462,"tapp":3463,"Ġapps":3464,"Ġdoesn":3465,"assertIs":3466,"ĠSo":3467,"minute":3468,"cabotapp":3469,"ĠField":3470,"Ġrefer":3471,"lice":3472,"Ġthese":3473,"ctionary":3474,"CRET":3475,"providers":3476,"(__":3477,"SD":3478,"icon":3479,"Ġmail":3480,"anonymous":3481,"channel":3482,"ĠSer":3483,"Ġ%(":3484,"ummy":3485,"interface":3486,"system":3487,"embed":3488,"print":3489,"Ġexpi":3490,"skip":3491,"atible":3492,"Count":3493,"USE":3494,"ember":3495,"Ġtheir":3496,"iled":3497,"Ġali":3498,"Ġsupport":3499,"ChoiceField":3500,"90":3501,"previous":3502,"rows":3503,"callback":3504,"Ġfilters":3505,"Ġblocks":3506,"Ġmozillians":3507,"COUNT":3508,"\\\\":3509,"Ġtemp":3510,"Ġinfo":3511,"assertRedirects":3512,"ested":3513,"teammember":3514,"MEDIA":3515,"Ġencoding":3516,"FILE":3517,"Ġallowed":3518,"17":3519,"Link":3520,"Ġnormal":3521,"city":3522,"Ġrelative":3523,"tifier":3524,"CADE":3525,"CAS":3526,"ĠEntry":3527,"celery":3528,"36":3529,"enu":3530,"quantity":3531,"sole":3532,"ĠOpen":3533,"links":3534,"}}":3535,"ntries":3536,"Ġsp":3537,"Ġeven":3538,"REQU":3539,"Ġflat":3540,"userena":3541,"ĠSentry":3542,"relation":3543,"Ġpaths":3544,"~~~~~~~~~~~~~~~~":3545,"NO":3546,"Small":3547,"button":3548,"voucher":3549,"Ġsrc":3550,"AND":3551,"attributes":3552,"#!":3553,"ie":3554,"igh":3555,"assertTemplateUsed":3556,"Ġhelper":3557,"entries":3558,"Ġraw":3559,"Ġvariable":3560,"wagtailimages":3561,"ynamic":3562,"Web":3563,"regex":3564,"igned":3565,"Ġhandler":3566,"jsonfield":3567,"ĠContext":3568,"CASCADE":3569,">',":3570,"Com":3571,"TO":3572,"erate":3573,"geo":3574,"lain":3575,"Ġheaders":3576,"browser":3577,"eature":3578,"Ġerr":3579,"('<":3580,"ithub":3581,"...":3582,"copyright":3583,"#!/":3584,":`":3585,"MB":3586,"]))":3587,"dev":3588,"dispatch":3589,"Ġflag":3590,"=('":3591,"bil":3592,"mt":3593,"'))\",":3594,"ĠCa":3595,"SECRET":3596,"403":3597,"TagValue":3598,"(_(":3599,"sets":3600,"archive":3601,"ĠĠĠĠĠĠĠĠĠĠĠĠĠĠĠĠĠĠĠĠĠĠĠĠĠĠĠĠĠĠĠĠĠĠ":3602,"PRE":3603,"WOR":3604,"ding":3605,"Ġcountry":3606,"Ġrequests":3607,"DEBUG":3608,"iness":3609,"rtual":3610,"Custom":3611,"UD":3612,"require":3613,"membership":3614,"tasks":3615,"commands":3616,"Ġtransaction":3617,"lick":3618,"ases":3619,"Ġparame":3620,"Column":3621,"STATIC":3622,"SENTRY":3623,"cra":3624,"igation":3625,"Ġdoc":3626,"Ġresol":3627,"Ġstripe":3628,"rant":3629,"Ġ'-":3630,"Ġfactory":3631,"matic":3632,"ĠType":3633,"ĠApp":3634,"usiness":3635,"ĠIN":3636,"ocal":3637,"scend":3638,"tials":3639,"Ġframe":3640,"exp":3641,"ĠĠĠĠĠĠĠĠĠĠĠĠĠĠĠĠĠĠĠĠ":3642,"classmethod":3643,"DecimalField":3644,"Ġqueue":3645,"ely":3646,"stats":3647,"languages":3648,"Ġprevious":3649,"tools":3650,"allowed":3651,"Multiple":3652,"ev":3653,"Ġhome":3654,"Ġredi":3655,"acters":3656,"INSTALLED":3657,"licit":3658,"MISSION":3659,"'\"}),":3660,"sale":3661,"rosetta":3662,"ilar":3663,"encode":3664,"']['":3665,"deletion":3666,"gine":3667,"Instance":3668,"Ġ'{}'}),":3669,",),":3670,"oper":3671,"ssue":3672,"Ġigno":3673,"Property":3674,"TeamMember":3675,"ĠĠĠĠĠĠĠĠĠĠĠĠĠĠĠĠĠĠĠĠĠĠĠĠĠĠ":3676,"confirm":3677,"decorators":3678,"If":3679,"Pri":3680,"dt":3681,"ont":3682,"origin":3683,"Indian":3684,"tings":3685,"ancest":3686,"Ġbet":3687,"ORE":3688,"Ġcannot":3689,"Ġsaved":3690,"Ġcomment":3691,"SETTINGS":3692,"Min":3693,"PORT":3694,"]),":3695,"ĠKey":3696,"Ġwidth":3697,"true":3698,"COMP":3699,"Ġactions":3700,"SmallIntegerField":3701,"Folder":3702,"ins":3703,"units":3704,"versions":3705,"ition":3706,"ming":3707,"Ġticket":3708,"()))":3709,"rap":3710,"Ġmanager":3711,"Ġprovider":3712,"Ġyield":3713,"Ġcontributors":3714,"Post":3715,"original":3716,"attachment":3717,"ModelAdmin":3718,"123":3719,"Ġkeys":3720,"ET":3721,"WS":3722,"bad":3723,"Ġq":3724,"oder":3725,"setdefault":3726,"teria":3727,"esca":3728,"Ġexception":3729,"Ġbeing":3730,"Ġglobal":3731,"loader":3732,"parts":3733,"NumberField":3734,"(_":3735,"Implemented":3736,"Run":3737,"SchemaMigration":3738,"ĠSchemaMigration":3739,"Ġdest":3740,"Ġattributes":3741,"================":3742,".'),":3743,"ptr":3744,"Ġref":3745,"Ġwarnings":3746,"ĠĠĠĠĠĠĠĠĠĠĠĠĠĠĠĠĠĠĠĠĠĠĠĠĠĠĠĠĠĠĠĠĠĠĠĠĠĠĠ":3747,"Ġgo":3748,"Content":3749,"creation":3750,"Ġweb":3751,"2014":3752,"RAN":3753,"Tree":3754,"cate":3755,"feed":3756,"ied":3757,"rbose":3758,"compatible":3759,"Customer":3760,"ilder":3761,"master":3762,"exc":3763,"grouped":3764,"Invalid":3765,"tical":3766,"Ġalways":3767,"enticate":3768,"img":3769,"LogEntry":3770,"decimal":3771,"mation":3772,"Ġscope":3773,"ĠSho":3774,"Ġexc":3775,"ĠEmail":3776,"Ġanother":3777,"DJANGO":3778,">.":3779,"hn":3780,"ian":3781,"('%":3782,"namespace":3783,"defaults":3784,"Ġhref":3785,"Ġrendered":3786,"PERMISSION":3787,"herit":3788,"range":3789,"util":3790,"Ġ\"('":3791,"Ġsince":3792,"layout":3793,"FIX":3794,"Ġlet":3795,"lipboard":3796,"Ġdifferent":3797,"IAL":3798,"blog":3799,"inger":3800,"conds":3801,"Ġwhile":3802,"abstract":3803,"256":3804,"AddField":3805,"Ġchildren":3806,"gle":3807,"ring":3808,"exist":3809,"span":3810,"Chooser":3811,"='/":3812,"Ġnotification":3813,"authenticated":3814,"ffle":3815,"changer":3816,"CR":3817,"ai":3818,"craper":3819,"over":3820,"udit":3821,"IDD":3822,"Login":3823,"currency":3824,"Ġimple":3825,"mapping":3826,"Ġwho":3827,"spa":3828,"pied":3829,"PROJECT":3830,"navigation":3831,"ĠNotImplemented":3832,"rou":3833,"Ġconstraint":3834,"Ġdispatch":3835,"TestModel":3836,"Ġsubject":3837,"cessed":3838,"An":3839,"Social":3840,"jav":3841,"ĠView":3842,"Ġrecord":3843,"tact":3844,"sity":3845,"Ġdj":3846,"Ġuseful":3847,"DULE":3848,"groupedmessage":3849,"false":3850,"lect":3851,"christmas":3852,"ENAB":3853,"RECT":3854,"Ġrelation":3855,"localhost":3856,"cuts":3857,"/?":3858,"hipping":3859,"pol":3860,"yntax":3861,"Ġ])":3862,"tep":3863,"Ġreplace":3864,"bosity":3865,"MODULE":3866,"Ġlinks":3867,"TIONS":3868,"uditLogEntry":3869,"dep":3870,"()]":3871,"spath":3872,"ĠSource":3873,"Ġtimestamp":3874,"andlers":3875,"Authentication":3876,"Ġgenerate":3877,"Bookmark":3878,"ersion":3879,"Ġ'\\":3880,"cog":3881,"termin":3882,"Ġutils":3883,"submission":3884,"ĠUp":3885,"ople":3886,"La":3887,"WARE":3888,"github":3889,"uuid":3890,"native":3891,"Ġentries":3892,"validate":3893,"Ġimages":3894,"staticfiles":3895,"Class":3896,"ply":3897,"Ġob":3898,"exact":3899,"signup":3900,"ESSION":3901,"shortcuts":3902,"(\\":3903,"(_(\"":3904,"Ġspa":3905,"Ġbits":3906,"Ġsubscri":3907,"Ġbutton":3908,"Ġperm":3909,"rules":3910,"Activity":3911,"slot":3912,"cook":3913,"ĠAdmin":3914,"contenttype":3915,"ĠLog":3916,"ĠĠĠĠĠĠĠĠĠĠĠĠĠĠĠĠĠĠĠĠĠĠĠĠĠĠĠĠĠĠĠĠĠ":3917,"Ġsuperuser":3918,"Ġ302":3919,"Ġgen":3920,"Ġspecified":3921,"Ġexisting":3922,"SERVER":3923,"70":3924,"Ass":3925,"BAR":3926,"CS":3927,"hinx":3928,"Ġtool":3929,"Required":3930,"ĠIs":3931,"AlterField":3932,"><":3933,"standard":3934,"sphinx":3935,"ĠPost":3936,"striction":3937,"Ġgroups":3938,"ĠUse":3939,"APIView":3940,"Cre":3941,"]:":3942,"random":3943,"ĠID":3944,"Ġvoucher":3945,"Ġtimedelta":3946,"ĠUnit":3947,"card":3948,"Ġsorted":3949,"Ġour":3950,"Regist":3951,"activity":3952,"contents":3953,"Ġactiv":3954,"USERNAME":3955,"Ġheader":3956,"Ġagain":3957,"WORD":3958,"Delete":3959,"Enc":3960,"xe":3961,"Ġap":3962,"Ġfalse":3963,"forum":3964,"ADD":3965,"Ġnodes":3966,"Ġmove":3967,"NOT":3968,"Store":3969,"Ġpatch":3970,"cent":3971,"Ġena":3972,"Ġcursor":3973,"metadata":3974,"details":3975,"witter":3976,"gross":3977,"Ġowner":3978,"ĠNotImplementedError":3979,"'re":3980,")[":3981,"TEST":3982,"arn":3983,"Ġ\"\\":3984,"Ġbreak":3985,"andid":3986,"Ġstorage":3987,"dentials":3988,"Ġshort":3989,"Ġcopyright":3990,"csrf":3991,"io":3992,"Ġti":3993,"orph":3994,"rot":3995,"counter":3996,"tables":3997,"Ġmatches":3998,"LOW":3999,"FORM":4000,"ĠSearch":4001,"Returns":4002,"\"'":4003,"400":4004,"SQL":4005,"med":4006,"sele":4007,"__)":4008,"connection":4009,"Ġdictionary":4010,"Ġabout":4011,"blocks":4012,"mptt":4013,".\",":4014,"88":4015,"YY":4016,"Ġplace":4017,"Ġnum":4018,"UTF":4019,"compat":4020,"boarding":4021,"issue":4022,"alias":4023,"stdout":4024,"ailed":4025,"Ġ[])":4026,"top":4027,"Ġstored":4028,"otes":4029,"enabled":4030,"Ġown":4031,"Aust":4032,"Document":4033,"MT":4034,"insert":4035,"Ġphoto":4036,"license":4037,"Ġuserena":4038,"sgi":4039,"Ġgenerated":4040,"close":4041,")\"":4042,"Action":4043,"VE":4044,"follow":4045,"teg":4046,"ĠAl":4047,"indow":4048,"Ġroll":4049,"PASS":4050,"Sign":4051,"elist":4052,"invite":4053,"Ġim":4054,"Ġtheme":4055,"delay":4056,"Ġspecific":4057,"phonebook":4058,"ĠSoftware":4059,"Http":4060,"fr":4061,"used":4062,"Ġbel":4063,"Ġwere":4064,"timestamp":4065,"abled":4066,"bool":4067,"dirs":4068,"Ġstrings":4069,"Renderer":4070,"></":4071,"djangoproject":4072,"oogle":4073,"dum":4074,"Ġrandom":4075,"ĠTests":4076,"Update":4077,"delivery":4078,"bility":4079,"vouch":4080,"serialize":4081,"suffix":4082,"Ġtables":4083,"umbs":4084,"issing":4085,"embers":4086,"IDDLE":4087,"pipeline":4088,"wise":4089,"Ġte":4090,"second":4091,"locale":4092,"ĠSphinx":4093,"Comp":4094,"FORMS":4095,"Ġarguments":4096,"PREFIX":4097,"IDDLEWARE":4098,"IZ":4099,"xf":4100,"appen":4101,"methods":4102,"color":4103,"Ġdocuments":4104,"------------------------------------------------":4105,"elery":4106,"ulate":4107,"ason":4108,"ENA":4109,"modified":4110,"sessions":4111,"attachments":4112,"HTML":4113,"aw":4114,"rest":4115,"',)\",":4116,"Ġ\"/":4117,"lite":4118,"Ġcould":4119,"Ġabstract":4120,"DIRECT":4121,"FF":4122,"IO":4123,"Ġzip":4124,"'),)":4125,"world":4126,"outbox":4127,"ĠEn":4128,"ĠGPL":4129,"abspath":4130,"Ġmodify":4131,"pagination":4132,"ĠAttributeError":4133,"=['":4134,"}'.":4135,"execute":4136,"Ġopts":4137,"__,":4138,"rag":4139,"formset":4140,"miss":4141,"Ġ100":4142,"Ġdep":4143,"mozillians":4144,"argv":4145,"resolve":4146,"Ġheight":4147,"nodes":4148,"Ġauthorship":4149,"Ġposs":4150,"Ġtax":4151,"Ġinterval":4152,"dummy":4153,"CK":4154,"ĠMessage":4155,"Ġpanel":4156,"ings":4157,"getattr":4158,"tab":4159,"Ġsafe":4160,"Ġoff":4161,"Ġsecond":4162,"Ġsignal":4163,"GN":4164,"eg":4165,"Ġright":4166,"ĠBSD":4167,"Storage":4168,"Enter":4169,"Path":4170,"bstract":4171,"ould":4172,"inja":4173,"left":4174,"escri":4175,"(\"/":4176,"ĠName":4177,"LETE":4178,"bootstrap":4179,"Ġbased":4180,"rong":4181,"IM":4182,"igit":4183,"paths":4184,"Ġwithin":4185,"members":4186,"Ġmain":4187,"step":4188,"Phone":4189,"multi":4190,"ns":4191,"png":4192,"elivery":4193,"Ġcategories":4194,"()):":4195,"Ġway":4196,"ascript":4197,"Ġmap":4198,"ĠWagtail":4199,"ystem":4200,"columns":4201,"Ġcharacters":4202,"LOG":4203,"Ġpoint":4204,"ralia":4205,"23":4206,"24":4207,"Den":4208,"New":4209,"SH":4210,"nari":4211,"sum":4212,"ĠZ":4213,"ĠChar":4214,"thumbnail":4215,"tom":4216,"digest":4217,"ĠPlayer":4218,"illing":4219,"specifi":4220,"Ġsuch":4221,"Ġhow":4222,"stination":4223,"ween":4224,"trol":4225,"Ġboth":4226,"ping":4227,"Ġhook":4228,"Ġclasses":4229,"Ġfree":4230,"visible":4231,"Ġ11":4232,"ĠWh":4233,"abc":4234,"after":4235,"HOST":4236,"Ġinterface":4237,"Ġfixtures":4238,"wsgi":4239,"Ġregion":4240,"service":4241,"oci":4242,"USERENA":4243,"UNIT":4244,"ĠANSI":4245,"cepted":4246,"Ġtoolbar":4247,".'":4248,"Ġrequire":4249,"Ġboo":4250,"ĠCmd":4251,"Ġorg":4252,"Ġurlpatterns":4253,"Ġsignals":4254,"asket":4255,"Australia":4256,"cm":4257,"imp":4258,"pin":4259,"qlite":4260,"sld":4261,"gent":4262,"tatic":4263,"Child":4264,"hether":4265,"gramming":4266,"AGES":4267,"%(":4268,"RI":4269,"ftime":4270,"found":4271,"Ġpay":4272,"setUp":4273,"adapter":4274,"Ġwould":4275,"Ġmer":4276,"ĠOn":4277,"ĠĠĠĠĠĠĠĠĠĠĠĠĠĠĠĠĠĠĠĠĠĠĠĠĠĠĠĠĠĠĠĠĠĠĠĠĠ":4278,"ffect":4279,"manufacturer":4280,"Session":4281,"CONF":4282,"ĠOrdered":4283,"VALUE":4284,"61":4285,"UM":4286,"geonode":4287,"apping":4288,"ATES":4289,"ĠFOR":4290,"ILITY":4291,"Ġremoved":4292,"Ġcontaining":4293,"ĠOrganizationMember":4294,"Ġterms":4295,"CUR":4296,"FO":4297,"lb":4298,"zer":4299,"Ġoc":4300,"Ġreturned":4301,"Ġ}))":4302,"ĠWAR":4303,"Extension":4304,"Ġreceived":4305,"Mon":4306,"Menu":4307,"ea":4308,"cheme":4309,"Ġsepar":4310,"ĠRemove":4311,"``.":4312,"Ġmedia":4313,"Ġvalidate":4314,"ULL":4315,"interval":4316,"uplicate":4317,"Ġmonth":4318,"Ġskip":4319,"switch":4320,"sen":4321,"adder":4322,"Ġmultiple":4323,"ĠPO":4324,"ProjectKey":4325,"ĠMake":4326,"ĠFilter":4327,"Ġguardian":4328,"Ġrenderer":4329,"Ġinstances":4330,"registry":4331,"charge":4332,"Attribute":4333,"FILES":4334,"escription":4335,"ecret":4336,"ko":4337,"Ġpop":4338,"Ġside":4339,"Ġsimple":4340,"ĠCustom":4341,"track":4342,"Ġpriority":4343,"CODE":4344,"oolbar":4345,"currence":4346,"panels":4347,"Nor":4348,"\\.":4349,"`,":4350,"ota":4351,"sla":4352,"expected":4353,"keywords":4354,"Ġmode":4355,"ĠString":4356,"ERS":4357,"some":4358,"cally":4359,"hostname":4360,"Ġshown":4361,"Ġvia":4362,"LANGUAGE":4363,"Adapter":4364,"interfaces":4365,",)":4366,"gh":4367,"ĠĊ":4368,"Ġpattern":4369,"exit":4370,"ĠPhoto":4371,"Ġwhat":4372,"ĠRes":4373,"runner":4374,"ĠRequestFactory":4375,"Null":4376,"ier":4377,"vitation":4378,"\").":4379,"Programming":4380,"ĠOptions":4381,"managers":4382,"Ġinstall":4383,"activation":4384,"CodeField":4385,"Bu":4386,"hidden":4387,"mu":4388,"Ġ'?":4389,"Ġcss":4390,"raph":4391,"XXX":4392,"('/')":4393,"discount":4394,"Ġquantity":4395,"ĠANY":4396,"lands":4397,"boardingTask":4398,"AM":4399,"Api":4400,"ical":4401,"include":4402,"ana":4403,"alt":4404,"0001":4405,"ĠAll":4406,"ush":4407,"ĠCom":4408,"ĠData":4409,"Ġsuffix":4410,"Ġdelivery":4411,"receiver":4412,"Ġsplit":4413,"ingerprint":4414,"''":4415,"Edit":4416,"IMA":4417,"Mapping":4418,"gallery":4419,"je":4420,"jpg":4421,"none":4422,"ĠX":4423,"Ġclear":4424,"ĠPRO":4425,"------------":4426,"Seen":4427,"Ġnumbers":4428,"picklefield":4429,"helpers":4430,"ĠKeyError":4431,"Ġimplement":4432,".'))":4433,"BASE":4434,"this":4435,"ctype":4436,"Ġdown":4437,"Ġconvert":4438,"unicip":4439,"\":\"":4440,"countby":4441,"saved":4442,"Ġunits":4443,"Ġcleaned":4444,"AddressField":4445,"UBLIC":4446,"ENABLED":4447,"countbyminute":4448,"Down":4449,"PY":4450,"Warning":4451,"ajax":4452,"once":4453,"Ġstack":4454,"ONE":4455,"eriod":4456,"owski":4457,"compress":4458,"Ġ'''":4459,"Ġwidgets":4460,"offset":4461,"Ġsupported":4462,"escape":4463,"XT":4464,"Your":4465,"lish":4466,"ĠSelect":4467,"Ġexecute":4468,"messagefiltervalue":4469,"Ġsent":4470,"Ġurls":4471,"ĠĠĠĠĠĠĠĠĠĠĠĠĠĠĠĠĠĠĠĠĠĠĠĠĠĠĠĠĠĠĠĠĠĠĠĠ":4472,"taggit":4473,"bases":4474,"crete":4475,"readcr":4476,"CHE":4477,"EDIT":4478,"ymorph":4479,"Ġbetween":4480,"ymorphic":4481,"82":4482,"=_(":4483,"fetch":4484,"schedule":4485,"star":4486,"Ġ\"{":4487,"Ġcs":4488,"Change":4489,"Ġmany":4490,"indexes":4491,"Ġsubmit":4492,"fully":4493,"paginator":4494,"matically":4495,"missing":4496,"Ġlines":4497,"Ġsingle":4498,"'][":4499,"Ġstill":4500,"Ġcopied":4501,"Ġyear":4502,"Ġvfolder":4503,"avor":4504,"Ġsubmission":4505,"ĠCMSPlugin":4506,"ĠTranslation":4507,"IE":4508,"MIDDLEWARE":4509,"utput":4510,"ĠPlaceholder":4511,"ĠEvennia":4512,"META":4513,"editor":4514,"theme":4515,"gres":4516,"ru":4517,"ross":4518,"Ġpick":4519,"sis":4520,"projectoptions":4521,"pos":4522,"ORY":4523,"instances":4524,"Ġalong":4525,"ABILITY":4526,"Ġneeds":4527,"Generic":4528,"/\"":4529,"fmt":4530,"handlers":4531,"today":4532,"Ġindi":4533,"Ġinline":4534,"ounce":4535,"ĠSign":4536,"velop":4537,"Ġcached":4538,"Ġsubscription":4539,"\"].":4540,"Ġdisplayed":4541,"vironment":4542,"Ġ2012":4543,"UID":4544,"cated":4545,"pass":4546,"alter":4547,"Ġrequires":4548,"anging":4549,"Ġfloat":4550,"ĠSE":4551,"ProjectOption":4552,"preview":4553,"ĠTestForm":4554,"ITHO":4555,"renderer":4556,"cords":4557,"ULAR":4558,"Ġevents":4559,"Helper":4560,"specific":4561,"ITHOUT":4562,"(['":4563,"blob":4564,"topic":4565,"Ġbar":4566,"__.__":4567,"ĠST":4568,"logout":4569,"GroupMeta":4570,"moving":4571,"ICATION":4572,"ĠUserProfile":4573,"Server":4574,"stinct":4575,"Ġbuiltin":4576,"NESS":4577,"PES":4578,"ire":4579,"plain":4580,"wt":4581,"Ġele":4582,"defin":4583,"eno":4584,"Ġwhether":4585,"Ġetc":4586,"ollection":4587,"ĠLa":4588,"Ġgame":4589,"translate":4590,"Ġenum":4591,"Ġperms":4592,"frames":4593,"Ġallows":4594,"ancestors":4595,"spatial":4596,"52":4597,"=\"\"":4598,"BO":4599,"cti":4600,"ever":4601,"tex":4602,"Ġcat":4603,"Ġplan":4604,"sive":4605,"ders":4606,"endpoint":4607,"ocation":4608,"Ġdecor":4609,"Ġuses":4610,"127":4611,"pha":4612,"ABLE":4613,"cccc":4614,"onymousUser":4615,"Ġresolve":4616,"Encoder":4617,"Denied":4618,"bit":4619,"broadcast":4620,"sage":4621,"Ġreset":4622,"hop":4623,"ĠText":4624,"projectkey":4625,"ĠAd":4626,"Ġprop":4627,"Ġcurren":4628,"ĠComp":4629,"packages":4630,"ua":4631,"('-":4632,"\"})":4633,"Ġ2010":4634,"ĠProperty":4635,"Ġprovided":4636,"OPTIONS":4637,"ARTIC":4638,"solete":4639,"Sa":4640,"bute":4641,"job":4642,"ueue":4643,"ATED":4644,"Ġkeywords":4645,"ĠWS":4646,"without":4647,"Ġengine":4648,"OTLE":4649,"Ġhope":4650,"Cache":4651,"PasswordHash":4652,"NullBooleanField":4653,"avorite":4654,"Iden":4655,"td":4656,"tuple":4657,"inactive":4658,"Ġstep":4659,"testutils":4660,"lineno":4661,"tended":4662,"Ġactual":4663,"Ġprovide":4664,"Ġpossible":4665,"gument":4666,"pattern":4667,"ord":4668,"Ġtopic":4669,"groupmeta":4670,"typeclass":4671,"ĠĠĠĠĠĠĠĠĠĠĠĠĠĠĠĠĠĠĠĠĠĠĠĠĠĠĠĠĠĠĠĠĠĠĠĠĠĠ":4672,"teams":4673,"ĠGeneric":4674,"ĠCommandError":4675,"ĠWARRAN":4676,"ĠWSGI":4677,"Simple":4678,"Ticket":4679,"bound":4680,"nses":4681,"oid":4682,"',),":4683,"Ġ\"_":4684,"')]":4685,"ĠTitle":4686,"calendar":4687,"istri":4688,"commit":4689,"ĠLayer":4690,"ĠĠĠĠĠĠĠĠĠĠĠĠĠĠĠĠĠĠĠĠĠĠĠĠĠĠĠĠĠĠĠĠĠĠĠĠĠĠĠĠĠ":4691,"POSE":4692,"DIRS":4693,"Ġcallable":4694,"COMPRESS":4695,"Ġenumerate":4696,"Do":4697,"Gu":4698,"IENT":4699,"Ġissue":4700,"igno":4701,"uppe":4702,"Ġoauth":4703,"olved":4704,"filtered":4705,"Ġlocale":4706,"Ġtypes":4707,"State":4708,"notifications":4709,"Minute":4710,"IK":4711,"suggestion":4712,"ĠTr":4713,"coded":4714,"Ġmost":4715,"groupbookmark":4716,"Ġaddresses":4717,"ĠRelease":4718,"Attachment":4719,"AlertRelated":4720,"licenses":4721,"velopment":4722,"AlertRelatedGroup":4723,"IRE":4724,"handle":4725,"mys":4726,"anage":4727,"Ġwa":4728,"protocol":4729,"Ġtp":4730,"templatetags":4731,"GroupBookmark":4732,"Ġsoftware":4733,"CHAN":4734,"Settings":4735,"DATAB":4736,"Ġexplicit":4737,"CLASSES":4738,"snippets":4739,":]":4740,"Load":4741,"Options":4742,"\\\"":4743,"ags":4744,"tack":4745,"\",\"":4746,"Ġuuid":4747,"ĠMER":4748,"1000":4749,"Ġcharge":4750,"Ġindexes":4751,"ByMinute":4752,"CountByMinute":4753,"gentina":4754,"unicipality":4755,"54":4756,">')":4757,"Ġjs":4758,"Ġsmart":4759,"note":4760,"ĠPUR":4761,"ĠPARTIC":4762,"Ġexec":4763,"Ġnamespace":4764,"ITNESS":4765,"CHANT":4766,"ListView":4767,"existing":4768,"yntaxError":4769,"ĠMERCHANT":4770,"ĠPURPOSE":4771,"ĠPARTICULAR":4772,"ĠMERCHANTABILITY":4773,"OB":4774,"ica":4775,"opts":4776,"vate":4777,"Ġconfir":4778,"aved":4779,"ĠFITNESS":4780,"Ġ`.":4781,"Ġpreserve":4782,"IPAddressField":4783,"Subscription":4784,"generator":4785,"ĠThey":4786,"04":4787,"Ant":4788,"NULL":4789,"Port":4790,"Su":4791,"Title":4792,"gnu":4793,"Ġ'__":4794,"Ġinherit":4795,"sitive":4796,"publication":4797,"linked":4798,"ACE":4799,"Ġ<=":4800,"Ġensure":4801,"Ġchanges":4802,"Ġfolders":4803,"Ġimplied":4804,"FL":4805,"IF":4806,"arran":4807,"Ġschema":4808,"dices":4809,"'])),":4810,"isnull":4811,"Ġmy":4812,"projectoption":4813,"ĠNOT":4814,"eeded":4815,"Ġtypeclass":4816,"SetEqual":4817,"ObjectPermission":4818,"Ġrole":4819,"RequiredMixin":4820,"VAR":4821,"vatar":4822,"ala":4823,"att":4824,"Ġrecipient":4825,"obar":4826,"Ġdigits":4827,"eek":4828,"Membership":4829,"identity":4830,"Ġcollections":4831,"Identity":4832,"'\"":4833,"sing":4834,"req":4835,"Ġ\".":4836,"external":4837,"apphook":4838,"ĠRegist":4839,"ĠWITHOUT":4840,"ĠRender":4841,"ĠIndex":4842,"Ġlanguages":4843,"endswith":4844,"payload":4845,"Argentina":4846,"scripts":4847,"STATUS":4848,"]+)/":4849,"````````":4850,"rapped":4851,"Ġcurrency":4852,"ĠWARRANTY":4853,"fe":4854,"mory":4855,"ntly":4856,"Ġpur":4857,"Ġmissing":4858,"Ġext":4859,"ERY":4860,"ĠFree":4861,"Ġmapping":4862,"ALLOW":4863,"Ġlive":4864,"FIG":4865,"resourcebase":4866,"Ġinstalled":4867,"Ġlocks":4868,"Foo":4869,"GR":4870,"Pal":4871,"Version":4872,"batch":4873,"urs":4874,"uring":4875,"quote":4876,"derr":4877,"Ġmd":4878,"izard":4879,"Regex":4880,"ifiers":4881,"compressor":4882,"cancel":4883,"Example":4884,"Ġcreation":4885,"Ġmatching":4886,"+)/":4887,"scenari":4888,"lbforum":4889,"77":4890,"AV":4891,"Client":4892,"Lib":4893,"SITE":4894,"SyntaxError":4895,"Utils":4896,"cla":4897,"src":4898,"ĠRE":4899,"Ġ\"\",":4900,"proxy":4901,"Report":4902,"PositiveSmallIntegerField":4903,"curity":4904,"stribute":4905,"Ġworks":4906,"Ġextract":4907,"TEMPLATES":4908,"xxxxxxxx":4909,"large":4910,"/>.":4911,"AE":4912,"He":4913,"Pre":4914,"lt":4915,"vfolder":4916,"arDown":4917,"odelist":4918,"Ġreal":4919,"ulk":4920,"lost":4921,"Ġwarran":4922,"Ġtesting":4923,"ENGIN":4924,"need":4925,"Ġidentifier":4926,"ResultSetEqual":4927,"Webhook":4928,"Ġredistribute":4929,"Ġwarranty":4930,"ENGINE":4931,"DES":4932,"Placeholder":4933,"Te":4934,"UC":4935,"normal":4936,"alk":4937,"cha":4938,"timedelta":4939,"assertResultSetEqual":4940,"Ġstats":4941,"ĠCart":4942,"Ġurlparse":4943,"ARCH":4944,"aving":4945,"'^(?":4946,"refer":4947,"imum":4948,"Ġparts":4949,"Ġoverwrite":4950,">[^":4951,"ĠGeospatial":4952,"'d":4953,"ler":4954,"Ġ',":4955,"Ġsum":4956,"Ġbasic":4957,"ooki":4958,"Ġexport":4959,"Ġ201":4960,"Ġlong":4961,"clusion":4962,"ROM":4963,"builder":4964,"CmdSet":4965,"Ġcalcul":4966,"REQUEST":4967,"ĠOrderedDict":4968,".%":4969,"IES":4970,"bits":4971,"iti":4972,"descend":4973,"Ġ\"\")":4974,"six":4975,"question":4976,"=\"/":4977,"listing":4978,"ĠRun":4979,"FilterValue":4980,"ENDING":4981,"assertIsInstance":4982,"Ġparameter":4983,".*":4984,"62":4985,"bbox":4986,"uz":4987,"Ġ404":4988,"ĠVERSION":4989,"recipient":4990,"Ġswitch":4991,"Ġstandard":4992,"Ġcontains":4993,"ĠCON":4994,"Ġaccept":4995,"Ġfiltered":4996,"Ġcharacter":4997,"Ġautomatically":4998,"TEXT":4999,"djstripe":5000,"'),)\"},":5001,"500":5002,"CAN":5003,"Po":5004,"crop":5005,"requires":5006,"filterkey":5007,"rectory":5008,"ffected":5009,"Ġlogged":5010,"Validator":5011,"ĠAnonymousUser":5012,"DATA":5013,"ĠDEFAULT":5014,"OnboardingTask":5015,"03":5016,"59":5017,"AA":5018,"REN":5019,"hex":5020,"rsion":5021,"solved":5022,"Ġ\"<":5023,"Fields":5024,"authors":5025,"ostPasswordHash":5026,"owned":5027,"TRAN":5028,"activate":5029,"istrict":5030,"800":5031,"LIN":5032,"SESSION":5033,"gable":5034,"ood":5035,"vo":5036,"Ġreason":5037,"ceback":5038,"Ġsync":5039,"distinct":5040,"utod":5041,"Process":5042,"Ġassign":5043,"ĠBy":5044,"Ġvari":5045,"Ġchecker":5046,"snippet":5047,"PropertyValue":5048,"depth":5049,"ĠIslands":5050,"79":5051,">=":5052,"AuditLogEntry":5053,"Hidden":5054,"ik":5055,"Ġ)))":5056,"else":5057,"arcti":5058,"')))":5059,"quality":5060,"Ġconf":5061,"using":5062,"UserOption":5063,"addresses":5064,"ĠMy":5065,"ĠLink":5066,"calcul":5067,"registered":5068,"correct":5069,"crispy":5070,"DIS":5071,"Ġrunner":5072,"Ġcrispy":5073,"Ġincluded":5074,"=[\"":5075,"En":5076,"GMT":5077,"ctive":5078,"gate":5079,"ux":5080,"ank":5081,"Ġ[{":5082,"ĠTo":5083,"LECT":5084,"AuthProvider":5085,"ĠDecimal":5086,"Ġjob":5087,"Atlan":5088,"nippet":5089,"baz":5090,"Cart":5091,"Pa":5092,"Script":5093,"more":5094,"warn":5095,"urlen":5096,"Ġpipeline":5097,"useroption":5098,"lush":5099,"testapp":5100,"='',":5101,"istory":5102,"Ġsetattr":5103,"ĠBasic":5104,"solution":5105,"foobar":5106,"currences":5107,"generate":5108,"Ġcorrectly":5109,"Ġalias":5110,"ĠShould":5111,"arctica":5112,"WE":5113,"dynamic":5114,"fill":5115,"light":5116,"Ġreq":5117,"how":5118,"Ġhappen":5119,"Ġdebug":5120,"ĠĠĠĠĠĠĠĠĠĠĠĠĠĠĠĠĠĠĠĠĠĠĠĠĠĠĠĠĠĠĠĠĠĠĠĠĠĠĠĠĠĠĠ":5121,"Ġcallback":5122,"ISH":5123,"ĠSession":5124,"Antarctica":5125,"Etc":5126,"OUT":5127,"ek":5128,"nor":5129,"}),":5130,"ansi":5131,"lopp":5132,"Ġwrite":5133,"Ġexact":5134,"ĠClient":5135,"validators":5136,"Ġseconds":5137,"tagkey":5138,"formats":5139,"ICE":5140,"chedul":5141,"ifier":5142,"Allow":5143,"Ġsorting":5144,"ĠTypeError":5145,"Ġappro":5146,"rottle":5147,"pinax":5148,"avedSearch":5149,"Broadcast":5150,"Ur":5151,"Ġcelery":5152,"Ġop":5153,"ptcha":5154,"ĠTestSerializer":5155,"cursor":5156,"Ġpresent":5157,"Ġversions":5158,"moder":5159,"('/',":5160,"Ġrepresentation":5161,"Atlantic":5162,".\"),":5163,"IANT":5164,"sql":5165,"record":5166,"onical":5167,"ĠNow":5168,"Ġcheckout":5169,"POOTLE":5170,"Ġauthenticate":5171,"aginator":5172,"CLIENT":5173,"Ġstrip":5174,"ĠPermissionDenied":5175,"FILTER":5176,"icontains":5177,"readcrumbs":5178,"73":5179,"Player":5180,"grant":5181,"ker":5182,"vor":5183,"ĠValid":5184,"ĠQuerySet":5185,"reque":5186,"ences":5187,"__.":5188,"construct":5189,"Ġ\"\"\")":5190,"Ġdone":5191,"Ġ16":5192,"Ġdetermin":5193,"STORE":5194,"ness":5195,"Ġ400":5196,"KET":5197,"variants":5198,"12345678":5199,"ĠUpdate":5200,"Loader":5201,"/_":5202,"66":5203,"Card":5204,"LEN":5205,"stock":5206,"tim":5207,"allauth":5208,"('.":5209,"Ġ\",":5210,"Ġcooki":5211,"uploaded":5212,"testserver":5213,"Media":5214,"sha":5215,"ĠIP":5216,"credentials":5217,"Ġcontents":5218,"={\"":5219,"ĠGroupFactory":5220,"Ġfinal":5221,"ĠObjectDoesNotExist":5222,"MBER":5223,"Ġignored":5224,"javascript":5225,"Source":5226,"multiple":5227,"roll":5228,"Ġdraft":5229,"Ġyet":5230,"cluded":5231,"ITH":5232,"ASES":5233,"COMM":5234,"refresh":5235,"processor":5236,"Ġcolor":5237,"SIZ":5238,"Ġregistration":5239,"Ġmetadata":5240,"Ġextensions":5241,"ĠResource":5242,"Fin":5243,"Frame":5244,"LostPasswordHash":5245,"Pending":5246,"PENDING":5247,"SS":5248,"qa":5249,"yes":5250,"('',":5251,"Ġip":5252,"Ġcandid":5253,"Ġfn":5254,"Ġfallback":5255,"term":5256,"vices":5257,"Ġformset":5258,"Ġassoci":5259,"Ġmeans":5260,"nected":5261,"ĠArgument":5262,"ADMIN":5263,"imilar":5264,"]+)/$',":5265,"UBLISH":5266,"Callback":5267,"basic":5268,"does":5269,"known":5270,"vil":5271,"Ġclo":5272,"raises":5273,"Ġday":5274,"ĠAss":5275,"Ġ13":5276,"kwarg":5277,"DateField":5278,"Ġdirectly":5279,"Ġotherwise":5280,"Ġmanual":5281,"arguments":5282,"Ġadditional":5283,"PERTY":5284,"Ġactually":5285,"confirmation":5286,"havi":5287,"Parser":5288,"Ġaliases":5289,"hippingMethod":5290,"ndb":5291,"Ġtenant":5292,"Ġ403":5293,"recog":5294,"dee":5295,"round":5296,"Ġput":5297,"Ġfeed":5298,"Ġthread":5299,"queries":5300,"ublish":5301,"Ġonce":5302,"Ġappend":5303,"2008":5304,"passwordhash":5305,"accounts":5306,"1111":5307,"Ġrunning":5308,"2013":5309,"ĠAuthor":5310,"lostpasswordhash":5311,"String":5312,"reen":5313,"tected":5314,"stants":5315,"Ġcrop":5316,"ough":5317,"Ġnoqa":5318,"Ġedi":5319,"Ġneeded":5320,"ModelSerializer":5321,"ĠFI":5322,"criteria":5323,"Ġcomments":5324,"Ġservice":5325,"waffle":5326,"scopes":5327,"Lazy":5328,"ĠPOST":5329,"IMAGE":5330,"Ġvarious":5331,"DS":5332,"Ma":5333,"game":5334,"hs":5335,"sqlite":5336,"reder":5337,"Ġ{{":5338,"Ġscore":5339,"isinstance":5340,"emails":5341,"TextPlugin":5342,"postgres":5343,"Sequence":5344,"alerts":5345,"Ġmembership":5346,"Price":5347,"Ġdecorator":5348,"IKI":5349,"38":5350,"FR":5351,"IVER":5352,"Mo":5353,"PUT":5354,"PUBLIC":5355,"clipboard":5356,"gu":5357,"ico":5358,"va":5359,"ertion":5360,"stop":5361,"ato":5362,"Ġnamed":5363,"locked":5364,"Ġstruct":5365,"ALL":5366,"ĠUsage":5367,"should":5368,"Ġtranslate":5369,"presentation":5370,"memberships":5371,"indows":5372,"ĠEnsure":5373,"AEAE":5374,"76":5375,"DAY":5376,"IB":5377,"dest":5378,"sim":5379,"dio":5380,"times":5381,"Ġprotocol":5382,"mix":5383,"callable":5384,"URLCONF":5385,"PagePermission":5386,"Ġauthentication":5387,"Ġdirectories":5388,"before":5389,"Ġavatar":5390,"Ġavoid":5391,"modules":5392,"Ġsomething":5393,"received":5394,"expired":5395,"eaea":5396,"ignore":5397,"jwt":5398,"('^":5399,"ssid":5400,"Ġfoo":5401,"rit":5402,"notify":5403,"Ġbool":5404,"Ġtoo":5405,"ĠSk":5406,"ĠStore":5407,"Ġsection":5408,"Ġ30":5409,".\"))":5410,"Ġregistered":5411,"expires":5412,"CHANGE":5413,"#:":5414,"GTH":5415,"Help":5416,"Inter":5417,"Le":5418,"MENT":5419,"Sp":5420,"sup":5421,"week":5422,"real":5423,"Ġ[(":5424,"terion":5425,"Ġmixin":5426,"oose":5427,"Ġstar":5428,"logue":5429,"ĠDelete":5430,"Ġurllib":5431,"crement":5432,"manual":5433,"backs":5434,"ACCOUNT":5435,"Topic":5436,"\"]:":5437,"ird":5438,"irth":5439,"CMSPlugin":5440,"when":5441,"Ġreceiver":5442,"ĠDisplay":5443,"installed":5444,"Only":5445,"Ġrollup":5446,"ĠOnly":5447,"LENGTH":5448,"29":5449,"Output":5450,"]{":5451,"dcra":5452,"gments":5453,"ud":5454,"ĠY":5455,"lag":5456,"ouble":5457,"upper":5458,"Ġtmp":5459,"Ġcover":5460,"transaction":5461,"ĠAddress":5462,"HOL":5463,"Ġtakes":5464,"ĠProductPropertyValue":5465,"[:-":5466,"Ġgeneric":5467,"HiddenInput":5468,"dcramer":5469,".']":5470,"Blob":5471,"rid":5472,"sdesc":5473,"Ġhooks":5474,"rem":5475,"pear":5476,"people":5477,"__))":5478,"ĠAbstract":5479,"ĠPassword":5480,"ĠPerson":5481,"ĠCan":5482,"GroupTagKey":5483,"TestUtils":5484,"ĠRevision":5485,"ĠRemoving":5486,"ĠNO":5487,"dirty":5488,"where":5489,"Ġtuples":5490,"wait":5491,"ĠActivity":5492,"polymorphic":5493,"05":5494,"San":5495,"iexact":5496,"sts":5497,"tities":5498,"obsolete":5499,"ĠSocial":5500,"Ġassigned":5501,"ĠOR":5502,"hold":5503,"loaders":5504,"Ġkeyword":5505,"character":5506,"CONT":5507,"decorator":5508,"green":5509,"Ġchecksum":5510,"similar":5511,"avi":5512,"gt":5513,"gular":5514,"thread":5515,"Ġphone":5516,"igger":5517,"Ġ(%":5518,"ram":5519,"Ġdummy":5520,"Ġstop":5521,"Ġverbosity":5522,"Ġ{},":5523,"Ġgive":5524,"Ġstaff":5525,"Ġgenerator":5526,"ĠBaseCommand":5527,"sidebar":5528,"ĠtearDown":5529,"eliveryTime":5530,"ierarch":5531,"ApiKey":5532,"ĠIndexError":5533,"urlencode":5534,"IVERY":5535,")'":5536,"DATE":5537,"Freder":5538,"Jo":5539,"click":5540,"fd":5541,"pv":5542,"reply":5543,"river":5544,"Ġsuggestion":5545,"verified":5546,"Ġemote":5547,"ĠDistrict":5548,"ĠĠĠĠĠĠĠĠĠĠĠĠĠĠĠĠĠĠĠĠĠĠĠĠĠĠĠĠĠĠĠĠĠĠĠĠĠĠĠĠ":5549,"MET":5550,"Ġwords":5551,"autocomplete":5552,"TYPES":5553,"ditions":5554,"Ġpaginate":5555,"Unique":5556,"grouptagkey":5557,"Ġmanagement":5558,"Indiana":5559,"CHECK":5560,"84":5561,"Layer":5562,"gis":5563,"rad":5564,"Ġ</":5565,"rea":5566,"('--":5567,"tached":5568,"chooser":5569,"Ġsy":5570,"Ġinteger":5571,"raps":5572,"bove":5573,"acebook":5574,"BaseCommand":5575,"IPE":5576,"Ġloader":5577,"Ġqueries":5578,"atibility":5579,"origins":5580,"issues":5581,"ĠWagtailTestUtils":5582,"TRANSL":5583,"loppy":5584,"86":5585,"UES":5586,"ama":5587,"rans":5588,"Ã¤":5589,"Ġ()":5590,"review":5591,"advert":5592,"unpublished":5593,"Ġdays":5594,"ĠAccess":5595,"objs":5596,"TextInput":5597,"tagvalue":5598,"ĠRel":5599,"icki":5600,"managed":5601,"rontend":5602,"facebook":5603,"inputs":5604,"StatusCheck":5605,"CEP":5606,"berg":5607,"uplicates":5608,"rousel":5609,"*)":5610,"+',":5611,"CEL":5612,"MD":5613,"Oper":5614,"aa":5615,"basket":5616,"tz":5617,"za":5618,"destination":5619,"lets":5620,"spect":5621,"Ġ}),":5622,"ĠCountry":5623,"strftime":5624,"Ġitself":5625,"precated":5626,"Ġapphook":5627,"ACCESS":5628,"Ġcalendar":5629,"EventMapping":5630,"999":5631,"Ġtrack":5632,"collections":5633,"roles":5634,"lector":5635,"600":5636,"CAP":5637,"Ele":5638,"MAP":5639,"TZ":5640,"bidden":5641,"hide":5642,"}'":5643,"Ġlength":5644,"retrieve":5645,"Ġcity":5646,"Track":5647,"Ġable":5648,"Ġinternal":5649,"Ġnothing":5650,"ĠTree":5651,"ĠAL":5652,"Proxy":5653,"apple":5654,"eventmapping":5655,"joe":5656,"john":5657,"ĠWeb":5658,"Device":5659,"'^$',":5660,"Ġcurrently":5661,"ncy":5662,"resolved":5663,"ĠVoucher":5664,"SearchDocument":5665,"Ġprocessors":5666,"\"')":5667,"FS":5668,"Language":5669,"PK":5670,"Sh":5671,"iks":5672,"pur":5673,"tmp":5674,"uff":5675,"}))":5676,"Ġ------------------------------------------------":5677,"atured":5678,"Ġregex":5679,"Ġfeature":5680,"lack":5681,"differ":5682,"splugin":5683,"Ġmunicipality":5684,"relative":5685,"Ġenter":5686,"Ġtri":5687,"READ":5688,"Ġ['_":5689,"precation":5690,"food":5691,"Ġenv":5692,"Service":5693,"Ġshutil":5694,"assertNotEqual":5695,"Ġincluding":5696,"Ġreference":5697,"ANDL":5698,"Ġignore":5699,"Signup":5700,"IRED":5701,"ierarchy":5702,"21":5703,"Location":5704,"Match":5705,"WT":5706,"rected":5707,"sile":5708,"person":5709,"ĠPri":5710,"=\"%":5711,"ĠDo":5712,"scra":5713,"sitemap":5714,"parame":5715,"checkout":5716,"ACTI":5717,"Ġgeo":5718,"FileField":5719,"disabled":5720,"MPTY":5721,"Logger":5722,"Ġauthorization":5723,"ĠTemplateView":5724,"finders":5725,"Ġserve":5726,"DUCT":5727,"OLBAR":5728,"assertNotIn":5729,"Ġenabled":5730,"IZATION":5731,",))":5732,"/#":5733,"Get":5734,"PAR":5735,"Photo":5736,"Some":5737,"df":5738,"done":5739,"digit":5740,"google":5741,"twitter":5742,"ulated":5743,"loy":5744,"Ġmight":5745,"Ġhand":5746,"groupemail":5747,"Remove":5748,"Ġexit":5749,"ĠMon":5750,"ĠGET":5751,"cify":5752,"Ġsets":5753,"basename":5754,"UTO":5755,"Ġvalidation":5756,"Ġknow":5757,"documents":5758,"EXT":5759,"Ġparameters":5760,"ĠLogin":5761,"VARIANT":5762,"-\\":5763,"Wrapper":5764,"sEndpoint":5765,"separ":5766,"cho":5767,"diff":5768,"ada":5769,"iscover":5770,"Ġisn":5771,"ĠPayment":5772,"xice":5773,"UserProfile":5774,"pics":5775,"cii":5776,"ĠThese":5777,"Ġappen":5778,"Ġapply":5779,"versionTestModel":5780,"Ġmodified":5781,"Ġ%}{%":5782,"3456":5783,"LOGIN":5784,"jaxice":5785,"aliases":5786,"failure":5787,"TOOLBAR":5788,"Created":5789,"seless":5790,"ĠWhen":5791,"Bar":5792,"GA":5793,"Li":5794,"Mod":5795,"WIKI":5796,"YMO":5797,"\\'":5798,"gor":5799,"irst":5800,"respon":5801,"orld":5802,"Ġperiod":5803,"Ġfetch":5804,"Ġthose":5805,"loc":5806,"')[":5807,"verbosity":5808,"paid":5809,"ĠPlan":5810,"duce":5811,"ONYMO":5812,"adding":5813,"Ġdescend":5814,"Ġattachment":5815,"veloper":5816,"Ġcreating":5817,"ĠInline":5818,"Ġperform":5819,"pendency":5820,"submitter":5821,"ĠSubmission":5822,"Assignee":5823,"Registration":5824,"FORMAT":5825,"ONYMOUS":5826,"Scraper":5827,"UUID":5828,"Wagtail":5829,"cing":5830,"torage":5831,"Ġar":5832,"undle":5833,"CharBlock":5834,"ĠAction":5835,"usable":5836,"Ġ15":5837,"BoundedAutoField":5838,"Ġtw":5839,"heet":5840,"bot":5841,"Ġlon":5842,"Virtual":5843,"CHA":5844,"Unless":5845,"Ġspecial":5846,"Ġoperation":5847,"ĠUni":5848,"Relation":5849,"Ġvariants":5850,"Ġcolumns":5851,"LANGUAGES":5852,"Ġrelationship":5853,"SIZE":5854,"loppyforms":5855,"iksberg":5856,"(\"\"\"":5857,"Ab":5858,"MUD":5859,"PR":5860,"TCHA":5861,"ah":5862,"cure":5863,"gi":5864,"vance":5865,"zz":5866,"ĠForeignKey":5867,"integer":5868,"section":5869,"seller":5870,"lash":5871,"()`":5872,"Ġwell":5873,"assigned":5874,"Ġhigh":5875,"Ġts":5876,"duction":5877,"GroupSeen":5878,"ayPal":5879,"ĠMap":5880,"intro":5881,"labels":5882,"Ġvar":5883,"ACT":5884,"mitted":5885,"Ġ60":5886,"ĠThere":5887,"OrganizationMemberTeam":5888,"identifier":5889,"CMD":5890,"REQUIRED":5891,"sistent":5892,"cheduler":5893,"'{":5894,"NI":5895,"OG":5896,"una":5897,"}\".":5898,"Ġfix":5899,"element":5900,"Ġbehavi":5901,"validation":5902,"Ġdbref":5903,"parents":5904,"Unit":5905,"Application":5906,"ĠChanging":5907,"unknown":5908,"PASSWORD":5909,"PendingTeamMember":5910,"Ġassociated":5911,"Frederiksberg":5912,"Cur":5913,"SA":5914,"eople":5915,"pal":5916,"scale":5917,"scheme":5918,"Ġ'*":5919,"Ġsample":5920,"cols":5921,"']))":5922,"groupseen":5923,"Ġconnect":5924,"mited":5925,"validated":5926,"ayout":5927,"Ġplaceholders":5928,"Ġkind":5929,"Ġaccounts":5930,"submitted":5931,"GenericIPAddressField":5932,"definition":5933,"reference":5934,"HANDL":5935,"System":5936,"]]":5937,"}.":5938,"reversion":5939,"internal":5940,"('\\":5941,"Ġ\"#":5942,"Ġabove":5943,"rity":5944,"Ġinvite":5945,"convert":5946,"constraint":5947,"Ġgettext":5948,"Ġexceptions":5949,"estring":5950,"locks":5951,"Ġraised":5952,"vidual":5953,"stricted":5954,"Ġattach":5955,"Ġtitles":5956,"Ġwhenever":5957,"selector":5958,"resources":5959,"Ġactor":5960,"tegrity":5961,"ĠLaTe":5962,"ĠLaTeX":5963,"rand":5964,"rating":5965,"saf":5966,"uch":5967,"Ġla":5968,"three":5969,"Ġcl":5970,"Ġbound":5971,"ĠStatus":5972,"accept":5973,"osite":5974,"ĠĠĠĠĠĠĠĠĠĠĠĠĠĠĠĠĠĠĠĠĠĠĠĠĠĠĠĠĠĠĠĠĠĠĠĠĠĠĠĠĠĠĠĠĠĠĠ":5975,"0161":5976,"manent":5977,"Ġslugify":5978,"graph":5979,"Ġcharset":5980,"socialregistration":5981,"Ġleft":5982,"Ġrevisions":5983,"Ġmarkup":5984,"Submission":5985,"ĠEventPage":5986,"ĉĉĉ":5987,"pendingteammember":5988,"ĠFieldPanel":5989,"geoserver":5990,"ĠSignal":5991,"uppet":5992,"Ġstructure":5993,"Per":5994,"editable":5995,"ĠXXX":5996,"aly":5997,"Ġrecords":5998,"FieldOutput":5999,"named":6000,"assertFieldOutput":6001,"ĠPlease":6002,"Ġ\"''\",":6003,"ĠMulti":6004,"ĠFolder":6005,"Ġrv":6006,"subpage":6007,"rench":6008,"xxx":6009,"such":6010,"Ġones":6011,"2010":6012,"styles":6013,"iteritems":6014,"selection":6015,"Ġbelow":6016,"mixins":6017,"/\",":6018,"Payment":6019,"Please":6020,"Spe":6021,"kit":6022,"gentry":6023,"Ġcard":6024,"chive":6025,"noo":6026,"proved":6027,"urlpath":6028,"utc":6029,"ĠPar":6030,"Ġprovid":6031,"bucket":6032,"Ġaccessing":6033,"matches":6034,"authorization":6035,"latform":6036,"Ġtraceback":6037,"VALUES":6038,"Ġactivation":6039,"Finder":6040,"EMPL":6041,"MESS":6042,"Person":6043,"focal":6044,"nested":6045,"Ġlayers":6046,"nap":6047,"oup":6048,"iling":6049,"Ġbbox":6050,"vide":6051,"pare":6052,"ascii":6053,"ĠStatic":6054,"Ġstd":6055,"GroupTagValue":6056,"Ġfilenames":6057,"ĠĠĠĠĠĠĠĠĠĠĠĠĠĠĠĠĠĠĠĠĠĠĠĠĠĠĠĠĠĠĠĠĠĠĠĠĠĠĠĠĠĠ":6058,"Ġanonymous":6059,"ANONYMOUS":6060,"017":6061,"ternate":6062,"Ġadding":6063,"Ġautocomplete":6064,"LOC":6065,"Ġleast":6066,"merge":6067,"TAIL":6068,"RuleStatus":6069,"Ġexpired":6070,"ĠComment":6071,"DATABASES":6072,"'',":6073,"09":6074,"NE":6075,"VIS":6076,"sw":6077,"vince":6078,"warning":6079,"ĠBook":6080,"Ġescape":6081,"indices":6082,"Ġpgettext":6083,"Ġsdesc":6084,"logentry":6085,"Ġwrong":6086,"ĠTicket":6087,"Ġexternal":6088,"usd":6089,"Ġtoday":6090,"ĠDon":6091,"INIT":6092,"Ġactivity":6093,"ĠBusiness":6094,"ĠProfile":6095,"folders":6096,"Ġ'{%":6097,"UGIN":6098,"cookies":6099,"Ġenable":6100,"Ġpayload":6101,"requency":6102,"atomic":6103,"safestring":6104,"napsho":6105,"41":6106,"45":6107,"QA":6108,"\\/":6109,"billing":6110,"fg":6111,"uted":6112,"Ġz":6113,"Ġty":6114,"rective":6115,"representation":6116,"incr":6117,"Ġschedule":6118,"Ġinit":6119,"Ġproble":6120,"typename":6121,"Ġorigin":6122,"ĠDummy":6123,"Ġsecret":6124,"Ġcomb":6125,"ĠMP":6126,"ORAGE":6127,"Ġattemp":6128,"MEMBER":6129,"ResponseMixin":6130,"cannot":6131,"Ġreload":6132,"Stream":6133,"+)/$',":6134,"Ġdomain":6135,"Ġtab":6136,"AUTHOR":6137,"Ġdefinition":6138,"Ġcriteria":6139,"\"%":6140,"89":6141,"amp":6142,"eded":6143,"erver":6144,"design":6145,"getLogger":6146,"ches":6147,"Ġsimp":6148,"adRequest":6149,"oot":6150,"Ġ19":6151,"Ġchunk":6152,"\">\\":6153,"utes":6154,"Ġtimeout":6155,"speak":6156,"Values":6157,"accessgroup":6158,"Ġsudo":6159,"Queryset":6160,"Translation":6161,"website":6162,"grouptagvalue":6163,"hexdigest":6164,"35":6165,">\"":6166,"AX":6167,"Found":6168,"Id":6169,"Map":6170,"empt":6171,"fake":6172,"fingerprint":6173,"guardian":6174,"ussion":6175,"ĠFlexibleForeignKey":6176,"refun":6177,"seconds":6178,"anti":6179,"tice":6180,"leg":6181,"Ġthumbnail":6182,"Ġdefine":6183,"verify":6184,"'),),":6185,"isted":6186,"Region":6187,"ĠInter":6188,"authentication":6189,"otal":6190,"Ġverify":6191,"INT":6192,"REDIRECT":6193,"Ġparsed":6194,"ava":6195,"markdown":6196,"Types":6197,"TypeError":6198,"Ġanything":6199,"FileBlob":6200,"Ġpackages":6201,"install":6202,"sensitive":6203,"Lu":6204,"MULT":6205,"Or":6206,"VED":6207,"WITH":6208,"XP":6209,"fn":6210,"fallback":6211,"glob":6212,"way":6213,"ately":6214,"Ġrep":6215,"Ġinvoice":6216,"Ġdue":6217,"paper":6218,"ĠStri":6219,"filebrowser":6220,"elem":6221,"logo":6222,"scr":6223,"Ġaccessed":6224,"ĠGroupMembership":6225,"Export":6226,"Ġsources":6227,"Ġcodes":6228,"Ġcommit":6229,"Ġcommon":6230,"zilla":6231,"Ġfunctions":6232,"QUAL":6233,"catalogue":6234,"openid":6235,"RelatedField":6236,"Ġhashlib":6237,"subscriptions":6238,"Ġvariables":6239,"zero":6240,"'\\":6241,"85":6242,"cl":6243,"equal":6244,"ffi":6245,"recur":6246,"stderr":6247,"alcul":6248,"come":6249,"Ġbot":6250,"Ġreturning":6251,"usage":6252,"imestamp":6253,"pose":6254,"ĠEMPTY":6255,"ification":6256,"ĠPagePermission":6257,"Ġuploaded":6258,"ĠProjectKey":6259,"Ġtrade":6260,"closed":6261,"ĠZinnia":6262,"Ġsidebar":6263,"gableManager":6264,"deemer":6265,"CAPTCHA":6266,"nooze":6267,"06":6268,"AUTO":6269,"Mail":6270,"nodelist":6271,"Ġ\"__":6272,"Ġaround":6273,"Ġthings":6274,"ves":6275,"Ġbad":6276,"uncate":6277,"quare":6278,"spider":6279,"onent":6280,"ĠPre":6281,"Ġextend":6282,"Ġseen":6283,"Ġgrant":6284,"DELETE":6285,"prices":6286,"Ġword":6287,"targets":6288,"Archive":6289,"CONTEXT":6290,"ĠFormHelper":6291,"Thread":6292,"Methods":6293,"Ġfinally":6294,"tegration":6295,"Ġindividual":6296,"scenario":6297,"'%":6298,"Last":6299,"Multi":6300,"OAD":6301,"cd":6302,"sm":6303,"Ġhost":6304,"invitation":6305,"Ġbatch":6306,"dist":6307,"iso":6308,"ĠTEMPL":6309,"grouprule":6310,"ĠPUBLISH":6311,"database":6312,"enter":6313,"GroupRuleStatus":6314,"Ġ)),":6315,"ised":6316,"curs":6317,"Ġmaps":6318,"Ġlib":6319,"Ġformats":6320,"paginate":6321,"players":6322,"Ġdiscount":6323,"final":6324,"Cannot":6325,"Canada":6326,"AccessGroup":6327,"started":6328,"FLAG":6329,"grouprulestatus":6330,"&#":6331,")',":6332,"31":6333,"BR":6334,"FROM":6335,"HER":6336,"MC":6337,"SUB":6338,"autod":6339,"bind":6340,"klass":6341,"restriction":6342,"obody":6343,"Ġmiddleware":6344,"Ġnote":6345,"ools":6346,"private":6347,"Ġnested":6348,"authenticate":6349,"messagecountbyminute":6350,"ĠRetrieve":6351,"Ġchristmas":6352,"ĠEmpty":6353,"REGI":6354,"Ġcap":6355,"ĠInvalid":6356,"EventPage":6357,"Ġcodename":6358,"Ġspecify":6359,"cases":6360,"subscribe":6361,"ĠServer":6362,"Comment":6363,"CRIP":6364,"PhoneNumberField":6365,"cmsplugin":6366,"clared":6367,"VirtualFolder":6368,"INITIAL":6369,"72":6370,"unt":6371,"useless":6372,"Ġes":6373,"ĠError":6374,"ered":6375,"erred":6376,"ily":6377,"contact":6378,"Ġhit":6379,"caption":6380,"trics":6381,"Ġsequence":6382,"Ġassu":6383,"ĠLayout":6384,"quick":6385,"ĠGCM":6386,"URATION":6387,"pression":6388,"ĠNumber":6389,"Ġmaster":6390,"Ġtimes":6391,"Ġordered":6392,"Ġsupplied":6393,"ĠStream":6394,"creteModel":6395,"uzzy":6396,"ĠFIX":6397,"DAYS":6398,"(',":6399,"08":6400,"IGN":6401,"breadcrumbs":6402,"cus":6403,"effect":6404,"zes":6405,"{\"":6406,"ÃŃ":6407,"Ġjoin":6408,"Ġlatest":6409,"Ġ\"['":6410,"Ġperson":6411,"nable":6412,"Ġfloppyforms":6413,"assign":6414,"Ġ(('":6415,"cessary":6416,"Ġdiff":6417,"STORAGE":6418,"DED":6419,"ACTION":6420,"ROUP":6421,"placeholderapp":6422,"PLUGIN":6423,"Ġsha":6424,"populate":6425,"disable":6426,"Ġctype":6427,"Ġcases":6428,"Ġdisconnect":6429,"overwrite":6430,"summary":6431,"ĠSTAT":6432,"ĠRegistration":6433,"ALLOWED":6434,"LazyEncoder":6435,"silently":6436,"ĠFIXME":6437,"37":6438,"46":6439,"Mal":6440,"PH":6441,"dm":6442,"favorite":6443,"gress":6444,"sa":6445,"ution":6446,"umessages":6447,"ello":6448,"tect":6449,"oriz":6450,"ara":6451,"ssl":6452,"ctools":6453,"tarea":6454,"enant":6455,"Ġbit":6456,"edResponse":6457,"grouphash":6458,"asy":6459,"Ġgets":6460,"ĠAnd":6461,"ĠPaginator":6462,"ĠDeliveryTime":6463,"Ġrather":6464,"Ġapple":6465,"Together":6466,"ASK":6467,"PLOAD":6468,"ENTS":6469,"functional":6470,"generated":6471,"letter":6472,"Ġbuilt":6473,"Common":6474,"Ġredirected":6475,"Builder":6476,">[^\\/":6477,"Parent":6478,"tegrityError":6479,")'),":6480,"Brow":6481,"Collection":6482,"heri":6483,"lue":6484,"ward":6485,"wrapper":6486,"yper":6487,"redis":6488,"('_":6489,"Ġrecur":6490,"Ġremain":6491,"Ġrecog":6492,"quested":6493,"\"\"\")":6494,"ĠAuditLogEntry":6495,"Ġoffer":6496,"agram":6497,"GroupHash":6498,"addr":6499,"occurrence":6500,"ĠRedirect":6501,"``,":6502,"STATE":6503,"ĠOne":6504,"Ġdefaultdict":6505,"cities":6506,"ĠWindows":6507,"Ġvalidated":6508,"andling":6509,"COL":6510,"Ġstores":6511,"redirects":6512,"popup":6513,"Ġarticles":6514,"Ġscripts":6515,"STRATION":6516,"ĠAdditional":6517,"Ġwaffle":6518,"Ġexplicitly":6519,"(('":6520,"81":6521,":'":6522,"Des":6523,"FUN":6524,"JWT":6525,"]+":6526,"bab":6527,"lr":6528,"ny":6529,"opt":6530,"vok":6531,"wd":6532,"Ã©":6533,"('{%":6534,"mpath":6535,"Ġplatform":6536,"Ġoob":6537,"groupas":6538,"ĠShippingMethod":6539,"accepted":6540,"cap":6541,"ĠMo":6542,"ĠBe":6543,"markup":6544,"critical":6545,"apikey":6546,"All":6547,"Ġtrigger":6548,"ĠURLs":6549,"download":6550,"traceback":6551,"browse":6552,"Ġsuccessfully":6553,"Ġnever":6554,"LoginView":6555,"cookie":6556,"------------------------------------------------------------":6557,"IEW":6558,"tacktrace":6559,"UCCESS":6560,"ĠNOQA":6561,"Ġlonger":6562,"AUTHORIZATION":6563,"groupasignee":6564,"'|":6565,"South":6566,"TOT":6567,"bj":6568,"ities":6569,"rb":6570,"smar":6571,"Ġ32":6572,"oring":6573,"sequence":6574,"tist":6575,"Ġicon":6576,"Ġretrieve":6577,"lict":6578,"noop":6579,"Ġmulti":6580,"groupassignee":6581,"ĠPlugin":6582,"Ġbegin":6583,"logged":6584,"ATCH":6585,"ĠMatch":6586,"Ġgot":6587,"REF":6588,"SEARCH":6589,"Ġrendering":6590,"COOK":6591,"Ġparents":6592,"akes":6593,"flakes":6594,"unittest":6595,"Ġincludes":6596,"Ġcompress":6597,"Ġcompressor":6598,"AppConfig":6599,"photos":6600,"coverage":6601,"Ġdisabled":6602,"stacktrace":6603,"anaged":6604,"Ġappropri":6605,"METHO":6606,"designer":6607,"#------------------------------------------------------------":6608,")])":6609,"Mar":6610,"Open":6611,"Target":6612,"]).":6613,"duplicate":6614,"ov":6615,"ridden":6616,"uses":6617,"ontal":6618,"uest":6619,"cki":6620,"ditem":6621,"Ġduring":6622,"Ġcontrol":6623,"dataset":6624,"GroupAssignee":6625,"ATAR":6626,"ĠOS":6627,"ĠOverride":6628,"ĠĠĠĠĠĠĠĠĠĠĠĠĠĠĠĠĠĠĠĠĠĠĠĠĠĠĠĠĠĠĠĠĠĠĠĠĠĠĠĠĠĠĠĠĠĠĠĠĠĠĠĠĠĠĠĠĠ":6629,"ĠĠĠĠĠĠĠĠĠĠĠĠĠĠĠĠĠĠĠĠĠĠĠĠĠĠĠĠĠĠĠĠĠĠĠĠĠĠĠĠĠĠĠĠĠ":6630,"Ġrate":6631,"abs":6632,"ĠRa":6633,"Ġlogout":6634,"ĠContent":6635,"ecut":6636,"2012":6637,"ĠSubscription":6638,"assertNotContains":6639,"Ġrules":6640,"STRIPE":6641,"Ġrefresh":6642,"Ġagainst":6643,"ĠAllow":6644,"Ġregions":6645,"slave":6646,"ĠStringIO":6647,"(%":6648,"AF":6649,"GH":6650,"MIT":6651,"Python":6652,"Queue":6653,"SK":6654,"Sk":6655,"ZZ":6656,"jar":6657,"nb":6658,"ui":6659,"uk":6660,"Ġ50":6661,"outer":6662,"Ġsql":6663,"Ġinside":6664,"lore":6665,"cker":6666,"ading":6667,"izes":6668,"Require":6669,"ĠPy":6670,"Ġtb":6671,"countries":6672,"itespace":6673,"stru":6674,"actstream":6675,"formed":6676,"SELECT":6677,"Ġuntil":6678,"bytes":6679,"ARG":6680,"../":6681,"Direct":6682,"ebug":6683,"Ġ%}'":6684,"Ġcomma":6685,"(**{":6686,"ashboard":6687,"photologue":6688,"Ġfails":6689,"ĠGeoNode":6690,"subscriber":6691,"Ġhomepage":6692,"Ġspaces":6693,"needs":6694,"Ġdetermine":6695,"Framework":6696,"vanced":6697,"HANDLER":6698,"\"\\":6699,"'m":6700,",\"":6701,"br":6702,"frontend":6703,"history":6704,"leave":6705,"Ġred":6706,"Ġfingerprint":6707,"igrate":6708,"engine":6709,"')\",":6710,"Ġembed":6711,"sions":6712,"occurrences":6713,"scussion":6714,"Ġdataset":6715,"INFO":6716,"ĠĠĠĠĠĠĠĠĠĠĠĠĠĠĠĠĠĠĠĠĠĠĠĠĠĠĠĠĠĠĠĠĠĠĠĠĠĠĠĠĠĠĠĠ":6717,"ĠTestModel":6718,"cluster":6719,"vely":6720,"signed":6721,"orgmember":6722,"flavor":6723,"ATEG":6724,"PRODUCT":6725,"Ġresources":6726,"ĠNotes":6727,"ookup":6728,"ĠService":6729,"Ġhelpers":6730,"Ġdocs":6731,"ĠEmailAddress":6732,"Ġpickle":6733,"Ġcandidates":6734,"Element":6735,"ĠMPTT":6736,"48":6737,"NS":6738,"OAUTH":6739,"Publish":6740,"SUCCESS":6741,"VIEW":6742,"candid":6743,"flow":6744,"lator":6745,"mm":6746,"Ã³":6747,"sep":6748,"Ġpos":6749,"notation":6750,"Ġwrapper":6751,"tyle":6752,"relations":6753,"Ġnet":6754,"shire":6755,"ocs":6756,"most":6757,"strings":6758,"pendent":6759,"spection":6760,"Ġcalling":6761,"wagtailsnippets":6762,"111":6763,"chars":6764,"FilterSet":6765,"ABEL":6766,"Ġupdates":6767,"umblr":6768,"Ġtokens":6769,"ImageField":6770,"NUM":6771,"cording":6772,"vars":6773,"ĠChange":6774,"ĠChannel":6775,"Ġvisible":6776,"Cached":6777,"gregate":6778,"Gener":6779,"DetailView":6780,"auditlogentry":6781,"Postal":6782,"================================":6783,"endpoints":6784,"Library":6785,"John":6786,"ranslated":6787,"Ġstdout":6788,"orizontal":6789,"300":6790,"49":6791,"CY":6792,"Country":6793,"PING":6794,"rp":6795,"}):":6796,"Ġâ":6797,"Ġ--------------------------------":6798,"Ġurlencode":6799,"Ġ'[":6800,"Ġ'':":6801,"Ġclick":6802,"Ġrequested":6803,"chat":6804,"__),":6805,"xtra":6806,"Reset":6807,"ĠScript":6808,"Ġstuff":6809,"Ġproxy":6810,"ĠCalled":6811,"relatedgroup":6812,"Ġ24":6813,"Ġprojects":6814,"ARD":6815,"compiler":6816,"canonical":6817,"Display":6818,"Ġsites":6819,"alertrelatedgroup":6820,"Ġ'{{":6821,"2015":6822,"MPORT":6823,"authorize":6824,"AGTAIL":6825,"Ġtake":6826,"Ġoperator":6827,"Ġpagination":6828,"providing":6829,"ĠDEBUG":6830,"Ġsocialregistration":6831,"Ġsubscriber":6832,"CONTENT":6833,"similarity":6834,"scraped":6835,"/\")":6836,"AIL":6837,"AWS":6838,"EV":6839,"Follow":6840,"Man":6841,"SCO":6842,"ban":6843,"mtime":6844,"nounce":6845,"Ġgs":6846,"Ġquestion":6847,"('.')":6848,"aram":6849,"Ġppv":6850,"()\"":6851,"virtual":6852,"='+',":6853,"ubclass":6854,"pagepermission":6855,"oll":6856,"ĠCollection":6857,"Ġdigest":6858,"strong":6859,"Ġ25":6860,"ĠRepublic":6861,"INTER":6862,"ĠGallery":6863,"ategy":6864,"eams":6865,"moves":6866,"PageChooser":6867,"revisions":6868,"Ġenvironment":6869,"=[(":6870,"Ġids":6871,"Upload":6872,"ĠIntegrityError":6873,"Ġpostal":6874,"Ġcmdsets":6875,"Ġcounter":6876,"ĠQueue":6877,"iterator":6878,"ĠDirectory":6879,"Parame":6880,"STATICFILES":6881,"Ġimplementation":6882,"texinfo":6883,"suggestions":6884,"Ġrecipients":6885,"FIGURATION":6886,"AVATAR":6887,"BU":6888,"Bo":6889,"Feed":6890,"GB":6891,"PACK":6892,"Root":6893,"SHO":6894,"Tab":6895,"WN":6896,"Zip":6897,"glish":6898,"long":6899,"}\"":6900,"}',":6901,"roken":6902,"dbref":6903,"Ġscheme":6904,"Ġsimilar":6905,"litext":6906,"sib":6907,"dience":6908,"unks":6909,"Ġmime":6910,"Ġ14":6911,"Ġformfield":6912,"Ġdist":6913,"Ġdestination":6914,"uman":6915,"FormField":6916,"Ġchang":6917,"ANS":6918,"Ġmakes":6919,"syco":6920,"Ġpreview":6921,"CHAR":6922,"stored":6923,"Author":6924,"PLACE":6925,"AdminForm":6926,"wagtailsearch":6927,"Ġrelations":6928,"Standard":6929,"Ġspec":6930,"Ġmodules":6931,"TemplateSyntaxError":6932,"Ġsessions":6933,"Ġquotes":6934,"Ġconnections":6935,"Ġexpires":6936,"ancestor":6937,"Ġoffset":6938,"Portlet":6939,"ertionError":6940,"CELERY":6941,"precationWarning":6942,"Bra":6943,"Lo":6944,"LABEL":6945,"Str":6946,"bob":6947,"cator":6948,"jected":6949,"tar":6950,"ĠXXXX":6951,"rection":6952,"sso":6953,"totype":6954,"Ġfe":6955,"Ġforeign":6956,"served":6957,"Ġ((":6958,"assertHTML":6959,"ĠTable":6960,"Ġdrop":6961,"Ġ1000":6962,"(\"-":6963,"carousel":6964,"agraph":6965,"ĠDJ":6966,"Ġdesc":6967,"Ġdeprecated":6968,"ifest":6969,"prep":6970,"curator":6971,"Ġcalls":6972,"Ġfunctools":6973,"ĠInst":6974,"ective":6975,"Ġunittest":6976,"SelectMultiple":6977,"nglish":6978,"Ġregistry":6979,"ĠAND":6980,"goti":6981,"changelist":6982,"ĠMockedResponse":6983,"schemas":6984,"Ġterm":6985,"Ġnecessary":6986,"ĠDocumentation":6987,"}}',":6988,"TreeEqual":6989,"Ġactivate":6990,"North":6991,"ĠDatabase":6992,"Url":6993,"TOTAL":6994,"sycopg":6995,"assertHTMLEqual":6996,"26":6997,"Sum":6998,"SavedSearch":6999,"cer":7000,"fb":7001,"feature":7002,"puppet":7003,"Ġnavigation":7004,"remote":7005,"topics":7006,"Ġpending":7007,"Ġfil":7008,"Ġfuture":7009,"Ġinser":7010,"pedia":7011,"quota":7012,"assertTreeEqual":7013,"ĠSystem":7014,"Ġstat":7015,"ĠCur":7016,"ĠNode":7017,"curators":7018,"ĠUserena":7019,"rendered":7020,"stores":7021,"OTE":7022,"heading":7023,"ymce":7024,"Ġmanufacturer":7025,"Ġroom":7026,"Could":7027,"TestsMixin":7028,"UGG":7029,"Ġinvalidate":7030,"Ġcustomers":7031,"Ġmembers":7032,">>>":7033,"Ġcorrespon":7034,"Forbidden":7035,"Ġeverything":7036,"ĠSimplePage":7037,"Runner":7038,"ĠUpload":7039,"'<":7040,"*.":7041,"28":7042,"47":7043,"Abstract":7044,"Range":7045,"Static":7046,"Toolbar":7047,"duplicates":7048,"float":7049,"ii":7050,"jinja":7051,"votes":7052,"Ã¦":7053,"Ġna":7054,"enk":7055,"Ġog":7056,"verted":7057,"---":7058,"oneoff":7059,"izai":7060,"requests":7061,"Ġ144":7062,"BoundedBigIntegerField":7063,"\"></":7064,"ĠFlag":7065,"ĠĠĠĠĠĠĠĠĠĠĠĠĠĠĠĠĠĠĠĠĠĠĠĠĠĠĠĠĠĠĠĠĠĠĠĠĠĠĠĠĠĠĠĠĠĠ":7066,"strict":7067,"Ġadds":7068,"available":7069,"Ġchecking":7070,"Ġchecked":7071,"Ġsubclass":7072,"({\"":7073,"Ġcredentials":7074,"Ġbackground":7075,"mmedi":7076,"homepage":7077,"wikipedia":7078,"packing":7079,"PROPERTY":7080,"APITestCase":7081,"Ġstaticfiles":7082,"nced":7083,"good":7084,"ArticleRevision":7085,"ished":7086,"BACKENDS":7087,"PERMISSIONS":7088,"Ġimg":7089,"ĠRuntime":7090,"moderation":7091,"herited":7092,"Blog":7093,"Pack":7094,"evennia":7095,"give":7096,"padding":7097,"Ġ00":7098,"ini":7099,"alpha":7100,"chain":7101,"like":7102,"')()),":7103,"Ġwrapped":7104,"######":7105,"ĠSpe":7106,"Ġstock":7107,"ĠCount":7108,"Ġtz":7109,"logging":7110,"ticular":7111,"ĠDB":7112,"Ġurlpath":7113,"ENSION":7114,"ĠMenu":7115,"Ġcancel":7116,"csw":7117,"Ġsignup":7118,"Ġcustomize":7119,"Ġdistrict":7120,"Ġteams":7121,"Ġdisable":7122,"Ġrows":7123,"fixtures":7124,"SocialAccount":7125,"pingback":7126,"mysql":7127,"normpath":7128,"CEPT":7129,"ĠALL":7130,"LOCATION":7131,"Ġappropriate":7132,"CC":7133,"Public":7134,"Sy":7135,"driver":7136,"ipt":7137,"rin":7138,"tw":7139,"ump":7140,"your":7141,"ĠQu":7142,"ells":7143,"readed":7144,"orary":7145,"dependency":7146,"ector":7147,"Ġscraper":7148,"edIn":7149,"isc":7150,"ReversionTestModel":7151,"0002":7152,"ĠSQL":7153,"Ġconn":7154,"amble":7155,"Ġdepending":7156,"Ġcomple":7157,"actors":7158,"ĠOther":7159,"ĠLib":7160,"Ġaccepted":7161,"Ġstrftime":7162,"IONS":7163,"postal":7164,"about":7165,"Ġintro":7166,"ternalAccount":7167,"Ġmarkdown":7168,"Ġlocations":7169,"Compressor":7170,"Ġmerge":7171,"avicon":7172,"Ġgeoserver":7173,"Ġproviders":7174,"REGISTRATION":7175,"ecutter":7176,")\")":7177,".\\":7178,"/{}":7179,"ImproperlyConfigured":7180,"Ro":7181,"Size":7182,"Wh":7183,"aster":7184,"frequency":7185,"ij":7186,"same":7187,"uss":7188,"demo":7189,"ctx":7190,"Ġremote":7191,"Ġfailed":7192,"getype":7193,"ching":7194,"Ġsane":7195,"splitext":7196,"pager":7197,"percent":7198,"apply":7199,"Ġdevelopment":7200,"ViewSet":7201,"Ġaccording":7202,"Ġmade":7203,"2000":7204,"Ġparticular":7205,"pended":7206,"Ġloop":7207,"articles":7208,"ĠRule":7209,"ecki":7210,"AuthIdentity":7211,"Permissions":7212,"ĠJson":7213,"ĠTagKey":7214,"livemode":7215,"trols":7216,"Database":7217,"WSGI":7218,"TESTS":7219,"Ġboolean":7220,"Ġcsw":7221,"')])),":7222,"Ġhandled":7223,"napshot":7224,"ĠTEMPLATE":7225,"Ġlibrary":7226,"ATEGORY":7227,"Import":7228,"MAN":7229,"PRI":7230,"UPLOAD":7231,"bulk":7232,"clar":7233,"flush":7234,"king":7235,"kind":7236,"tals":7237,"walk":7238,"Ġnative":7239,"elnet":7240,"ani":7241,"arge":7242,"Ġreview":7243,"urther":7244,"choose":7245,"Ġindent":7246,"Ġimportlib":7247,"look":7248,"unvouched":7249,"constants":7250,"via":7251,"ĠSome":7252,"Ġconnected":7253,"Ġ_,":7254,"Ġalt":7255,"Ġrf":7256,"portlet":7257,"Checkbox":7258,"wagtaildocs":7259,"announce":7260,"LOAD":7261,"ĠVersion":7262,"9999":7263,"Ġprocessor":7264,"]+)/(?":7265,"djcelery":7266,"Ġitertools":7267,"AccessRequest":7268,"assertIsNone":7269,"relationship":7270,"ĠINSTALLED":7271,"badge":7272,"Ġedited":7273,"NIA":7274,"Ġbottom":7275,"enkins":7276,"'ll":7277,"83":7278,"HI":7279,"LY":7280,"bed":7281,"gcm":7282,"href":7283,"kizai":7284,"rpt":7285,"warnings":7286,"see":7287,"secure":7288,"les":7289,"geditem":7290,"Ġrepr":7291,"urlo":7292,"Ġplayers":7293,"Ġfp":7294,"Ġslash":7295,"coped":7296,"pparam":7297,"Ġdid":7298,"Ġdigit":7299,"ĠSync":7300,"Ġstream":7301,"Ġ18":7302,"authprovider":7303,"coming":7304,"pies":7305,"ATOR":7306,"ĠEmbed":7307,"ĠGlobal":7308,"ARY":7309,"avy":7310,"boolean":7311,"NotFound":7312,"AUTHENT":7313,"Ġendpoint":7314,"queues":7315,"toolbars":7316,"webmaster":7317,"VALID":7318,"Ġflags":7319,"identification":7320,"Ġ123456":7321,"Ġlooking":7322,"submissions":7323,"Ġconfirm":7324,"descendants":7325,"ĠCONFIGURATION":7326,"Policy":7327,"Ġstarting":7328,"ACTIV":7329,"urlopen":7330,")}":7331,"birth":7332,"hierarchy":7333,"sorted":7334,"wrong":7335,"ÅĤ":7336,"ÅĦ":7337,"ĠCharField":7338,"ero":7339,"Ġfocal":7340,"exec":7341,"Ġwon":7342,"pacity":7343,"Ġproperly":7344,"ĠDEL":7345,"ĠFirst":7346,"sku":7347,"Ġgra":7348,"ĠHelp":7349,"directories":7350,"tagged":7351,"2001":7352,"ACCEPT":7353,"modifiers":7354,"Setting":7355,"Ġusage":7356,"ListFilter":7357,">[-\\":7358,"Ġsetuptools":7359,"plans":7360,"Ġiterable":7361,"Ġtim":7362,"Ġdepth":7363,"Ġbootstrap":7364,"Ġdownload":7365,"LINE":7366,"HOLDER":7367,"=\\\"":7368,"Button":7369,"nobody":7370,"srf":7371,"wizard":7372,"Ġuni":7373,"ĠVirtualFolder":7374,"ilite":7375,"unction":7376,"001":7377,"Ġequal":7378,")).":7379,"ollar":7380,"Ġtre":7381,"authidentity":7382,"erics":7383,"quiet":7384,"ĠFIL":7385,"URCE":7386,"ift":7387,"0144":7388,"Ġunless":7389,"DELE":7390,"Ġvouch":7391,"ARK":7392,"Ġshouldn":7393,"changes":7394,"tokens":7395,"hashes":7396,"beta":7397,"Ġxml":7398,"Ġvirtual":7399,"ranted":7400,"RESOL":7401,"LIST":7402,"archives":7403,"MultipleChoiceField":7404,"Ġbetter":7405,"Ġletter":7406,"YYYY":7407,"Ġthemes":7408,"ĠCharge":7409,"Ġoccurrence":7410,"savedsearch":7411,"parameters":7412,"PLACEHOLDER":7413,");":7414,"65":7415,":])":7416,"Business":7417,"Cri":7418,"DD":7419,"DP":7420,"EQUAL":7421,"IMPORT":7422,"LA":7423,"Mux":7424,"RUN":7425,"REST":7426,"Snippet":7427,"Tex":7428,"Tags":7429,"VI":7430,"bur":7431,"olu":7432,"push":7433,"rs":7434,"Ġlazy":7435,"Ġ''.":7436,"recover":7437,"another":7438,"device":7439,"mem":7440,"ctree":7441,"ĠreST":7442,"Ġpush":7443,"Ġpeople":7444,"Ġinlines":7445,"loop":7446,"']]":7447,"ppage":7448,"Ġdeletion":7449,"ĠCre":7450,"poch":7451,"ago":7452,"Ġresponses":7453,"Ġdescri":7454,"ffective":7455,"0142":7456,"Ġlogic":7457,"Ġmoder":7458,"helppage":7459,"maps":7460,"Ġconfigured":7461,"stener":7462,"SearchTest":7463,"funcname":7464,"returns":7465,"gression":7466,"SOC":7467,"****":7468,"channels":7469,"explore":7470,"ĠTranslationProject":7471,"Ġwait":7472,"HelpPage":7473,"Spider":7474,"bably":7475,"nbsp":7476,"BUIL":7477,"\"^":7478,")(":7479,"67":7480,":-":7481,"=<":7482,"Description":7483,"MOTE":7484,"Oc":7485,"Ph":7486,"Sentry":7487,"VO":7488,"bal":7489,"hr":7490,"ported":7491,"Ġmptt":7492,"Ġcare":7493,"Ġrestriction":7494,"Ġpl":7495,"ceed":7496,"ills":7497,"Channel":7498,"raise":7499,"Ġhandling":7500,"Ġdot":7501,"Ġduplicate":7502,"ĠSave":7503,"##########":7504,"ĠDAT":7505,"aya":7506,"mozilla":7507,"ĠOption":7508,"ĠFake":7509,"0160":7510,"synced":7511,"UTC":7512,"trade":7513,"signature":7514,"Ġemails":7515,"Expected":7516,"malink":7517,"menus":7518,"Ġautogenerated":7519,"MessageIndex":7520,"disconnect":7521,"hosts":7522,"copes":7523,"releasefile":7524,"locations":7525,"NodeField":7526,"Ġsending":7527,"Ġpacket":7528,"which":7529,"EXP":7530,"cepting":7531,"skipUnless":7532,"ĠCalendar":7533,"Ġscopes":7534,"timeline":7535,"ĠPaymentMethod":7536,"#'":7537,":\"":7538,"BE":7539,"BRO":7540,"EK":7541,"MI":7542,"ZONE":7543,"emp":7544,"flat":7545,"gte":7546,"lon":7547,"px":7548,"san":7549,"xp":7550,"resolution":7551,"tional":7552,"urable":7553,"sertion":7554,"sired":7555,"dium":7556,"formfield":7557,"Ġconstruct":7558,"codes":7559,"Ġuid":7560,"ERER":7561,"messageindex":7562,"ENER":7563,"ĠLe":7564,"ĠFR":7565,"ĠFind":7566,"ffff":7567,"updates":7568,"ANCE":7569,"Ġsubprocess":7570,"Ġauthenticated":7571,"Section":7572,"tsdb":7573,"Resolu":7574,"Ġrou":7575,"Ġ'/'":7576,"ĠKW":7577,"statement":7578,"ĠTemplateSyntaxError":7579,"RevisionPlugin":7580,"Ġhandles":7581,"partment":7582,"AuthenticationMiddleware":7583,"UMER":7584,"CURREN":7585,"Ġconfirmation":7586,"Ġpurge":7587,"Ġ[{'":7588,"Ġcookie":7589,"purge":7590,"sibling":7591,"$'":7592,"92":7593,"EP":7594,"OC":7595,"Pet":7596,"TS":7597,"Use":7598,"UMB":7599,"duration":7600,"fil":7601,"yy":7602,"Ġlower":7603,"Ġlayout":7604,"tid":7605,"atri":7606,"Ġph":7607,"eyk":7608,"mac":7609,"lies":7610,"Ġbug":7611,"')]),":7612,"verage":7613,"control":7614,"ĠTEST":7615,"uting":7616,"Ġstates":7617,"ĠPayPal":7618,"ĠISO":7619,"TestView":7620,"ĠMan":7621,"Ġansi":7622,"based":7623,"prefetch":7624,"ĠNew":7625,"renderers":7626,"Ġvalidators":7627,"Ġhelpdesk":7628,"ĠHttpResponseForbidden":7629,"UND":7630,"Ġ'%(":7631,"HOUR":7632,"MessageCountByMinute":7633,"CONFIG":7634,"QUE":7635,"ĠTemplateResponse":7636,"HEAD":7637,"ĠChoice":7638,">[\\":7639,"ĠDefaults":7640,"hared":7641,"Ġlookups":7642,"sampleapp":7643,"Ġgood":7644,"Ġletters":7645,"Ġphotos":7646,"DIRECTORY":7647,"Ġcsrf":7648,"Ġbuiltins":7649,"cccccccc":7650,"attname":7651,"xxxxxxxxxxxx":7652,"Ġbehavior":7653,"Ġsimply":7654,"PostalCodeField":7655,"87":7656,";</":7657,"CLO":7658,"Hub":7659,"PAY":7660,"SING":7661,"WAGTAIL":7662,"gb":7663,"muni":7664,"pad":7665,"ĠJS":7666,"ellow":7667,"Ġ'+":7668,"inclusion":7669,"Ġimplemented":7670,"Ġrespon":7671,"Ġreversion":7672,"Ġpc":7673,"igher":7674,"()'":7675,"()).":7676,"expr":7677,"Ġtogether":7678,"viter":7679,"Ġhaving":7680,"ĠAs":7681,"ĠPort":7682,"mbo":7683,"(\"\\":7684,"captcha":7685,"Ġnick":7686,"Ġsessid":7687,"Ġdeal":7688,"ProjectCountByMinute":7689,"Ġlid":7690,"SToolbar":7691,"ĠEdit":7692,"Ġglob":7693,"taggeditem":7694,"ĠBu":7695,"Ġlorem":7696,"Ġmaximum":7697,"moderate":7698,"Checker":7699,"msgid":7700,"Tagged":7701,"\")))":7702,"SIGN":7703,"ĠAttachment":7704,"Ġchannels":7705,"000000":7706,"structure":7707,"Ġimported":7708,"Ġspace":7709,"Head":7710,"Ġtsdb":7711,"ĠDELIVERY":7712,"!\")":7713,"'{{":7714,">\",":7715,"Gre":7716,"GES":7717,"Mark":7718,"XML":7719,"az":7720,"dot":7721,"jok":7722,"sider":7723,"tor":7724,"wer":7725,"was":7726,"Ġ40":7727,"anon":7728,"stat":7729,"dependent":7730,"Ġfurther":7731,"illow":7732,"until":7733,"ĠSh":7734,"ĠAC":7735,"Ġproper":7736,"Ġuserprofile":7737,"trial":7738,"Ġ-=":7739,"INS":7740,"ĠGiven":7741,"Ġgallery":7742,"ĠHow":7743,"Ġapplied":7744,"Ġweek":7745,"Ġprices":7746,"\"][\"":7747,"Ġauthors":7748,"Ġbasestring":7749,"accessing":7750,"grade":7751,"ĠDeprecationWarning":7752,"Ġpose":7753,"reports":7754,"There":7755,"ĠSettings":7756,"MMY":7757,"Ġwhole":7758,"Ġsubscribe":7759,"Registered":7760,"Ġappear":7761,"HttpRequest":7762,"=\"\",":7763,"COMMENT":7764,"postgresql":7765,"Tracked":7766,"Ġclone":7767,"ĠGCMDevice":7768,"Ġchangelist":7769,"Ġinserted":7770,"RESOLVED":7771,"Textarea":7772,"63":7773,"?)":7774,"Calcul":7775,"Embed":7776,"Food":7777,"IST":7778,"NZ":7779,"ODE":7780,"We":7781,"_,":7782,"cu":7783,"every":7784,"udience":7785,"Ã¶":7786,"Ġturn":7787,"dem":7788,"third":7789,"Ġrepe":7790,"services":7791,"Ġsqs":7792,"Ġscale":7793,"Ġsphinx":7794,"exempt":7795,"')])":7796,"ational":7797,"under":7798,"projectcountbyminute":7799,"Ġ->":7800,"Grouped":7801,"Ġvery":7802,"aystack":7803,"Ġfieldname":7804,"ProjectMember":7805,"Ġgre":7806,"admins":7807,"subdir":7808,"sources":7809,"Ġprev":7810,"avascript":7811,"Ġcause":7812,"Ġprivacy":7813,"apon":7814,"(?:":7815,"Ġinteractive":7816,"TYPECLASS":7817,"regions":7818,"ordin":7819,"Allowed":7820,"Ġclose":7821,"introspection":7822,"ĠRuntimeError":7823,"Occurs":7824,"!\",":7825,"/.":7826,"DT":7827,"GROUP":7828,"Sync":7829,"TAG":7830,"aware":7831,"business":7832,"oted":7833,"xed":7834,"ino":7835,"Ġiss":7836,"atory":7837,"Ġresolution":7838,"Ġplain":7839,"lias":7840,"listener":7841,"lugs":7842,"__()":7843,"visi":7844,"Ġhigher":7845,"ital":7846,"Reverse":7847,"ĠSwitch":7848,"Ġmen":7849,"party":7850,"prev":7851,"Ġattached":7852,"ĠUSE":7853,"ĠUsed":7854,"PLICATION":7855,"mensions":7856,"agination":7857,"epcopy":7858,"stinction":7859,"ĠAny":7860,"positions":7861,"closure":7862,"ReleaseFile":7863,"ĠApplication":7864,"overall":7865,"UNITS":7866,"Ġpopulate":7867,"WEB":7868,"CallbackView":7869,"AEAEAEAE":7870,"TRANSLATED":7871,"separated":7872,"velopers":7873,"ĠStripe":7874,"autodiscover":7875,"COOKIE":7876,"ACTIVATION":7877,"joki":7878,"/{":7879,"Ang":7880,"BL":7881,"Bel":7882,"NAM":7883,"UZZ":7884,"WAR":7885,"fresh":7886,"jane":7887,"ude":7888,"ĠQuery":7889,"Ġuri":7890,"Ġquality":7891,"resize":7892,"retry":7893,"iny":7894,"inary":7895,"Ġ\"-":7896,"Ġcore":7897,"Ġthree":7898,"oud":7899,"Ġsm":7900,"Ġslot":7901,"Ġinherited":7902,"notes":7903,"ĠTRAN":7904,"escal":7905,"ĠApi":7906,"ĠCO":7907,"ĠReport":7908,"ska":7909,"Ġtrying":7910,"Ġparty":7911,"Ġentities":7912,"ASKET":7913,"Objects":7914,"PermissionPolicy":7915,"accessor":7916,"deliver":7917,"runtime":7918,"Ġtruncate":7919,"ĠVariable":7920,"configs":7921,"Ġadapter":7922,"Ġoverridden":7923,"Ġreceive":7924,"Ġportlet":7925,"Ġbox":7926,"~~~~~~~~~~~~~~~~~~~~~~~~":7927,"escaped":7928,"ChooserPanel":7929,"Creation":7930,"Compiler":7931,"1234567890":7932,"recogn":7933,"ritten":7934,"speakers":7935,"Ġassume":7936,"yperlinked":7937,"ĠMatchType":7938,"ÅĦski":7939,".)":7940,"150":7941,"BadRequest":7942,"Dis":7943,"GNU":7944,"Manage":7945,"RST":7946,"Sample":7947,"SUMER":7948,"Variant":7949,"[\\":7950,"dashboard":7951,"failed":7952,"gmail":7953,"ima":7954,"rm":7955,"rsplit":7956,"uals":7957,"zon":7958,"ret":7959,"reet":7960,"ines":7961,"sty":7962,"allation":7963,"odified":7964,"Ġreg":7965,"Ġreally":7966,"__\":":7967,"fish":7968,"Ġhidden":7969,"Ġda":7970,"pair":7971,"Ġproduction":7972,"entral":7973,"pture":7974,"ipchat":7975,"Ġdirective":7976,"Ġlarge":7977,"START":7978,"ĠĠĠĠĠĠĠĠĠĠĠĠĠĠĠĠĠĠĠĠĠĠĠĠĠĠĠĠĠĠĠĠĠĠĠĠĠĠĠĠĠĠĠĠĠĠĠĠ":7979,"cia":7980,"Ġlists":7981,"checkbox":7982,"URLPath":7983,"orderable":7984,"Ġpartial":7985,"Ġloaded":7986,"Ġprevent":7987,"Ġvalidates":7988,"searchdocument":7989,"PLAY":7990,"Ġfunctionality":7991,"matching":7992,"CONSUMER":7993,"SearchToken":7994,"CMSTestCase":7995,"receipt":7996,"Ġlooks":7997,"OLDER":7998,"ĠDocuments":7999,"Ġsupports":8000,"ĠNOTE":8001,"Ġcalculate":8002,"eaeaeaea":8003,"Ġfooter":8004,"ĠDJANGO":8005,"balance":8006,"UZZY":8007,",<":8008,"51":8009,"74":8010,"96":8011,"Body":8012,"Pas":8013,"SP":8014,"Save":8015,"Send":8016,"Shipping":8017,"cz":8018,"have":8019,"omain":8020,"tty":8021,"uu":8022,"wrapped":8023,"Ġhol":8024,"records":8025,"ork":8026,"sessid":8027,"roy":8028,"rich":8029,"Ġbook":8030,"itor":8031,"ĠSend":8032,"ĠSavedSearch":8033,"Ġprocessed":8034,"utoff":8035,"Province":8036,"Ġurljoin":8037,"uperuser":8038,"Ġalpha":8039,"REG":8040,"REMOTE":8041,"ĠUserModel":8042,"ames":8043,"Ġprepare":8044,"Ġentity":8045,"MessageFilterValue":8046,"Ġtaggit":8047,"PROCESS":8048,"positive":8049,"FIELDS":8050,"langs":8051,"Ġready":8052,"Ġfinder":8053,"AccessToken":8054,"drafts":8055,"SessionMiddleware":8056,"Ġelem":8057,"jobs":8058,"myshop":8059,"ĠMoney":8060,"Ġdescendants":8061,"Browse":8062,"Ġcorresponding":8063,"Ġissubclass":8064,"$')":8065,":{":8066,"CN":8067,"NING":8068,"SR":8069,"bb":8070,"drop":8071,"nick":8072,"}</":8073,"ĠBoo":8074,"ongs":8075,"orer":8076,"titem":8077,"tions":8078,"Ġajax":8079,"Ġsqlite":8080,"sisted":8081,"timeout":8082,"atable":8083,"Ġdt":8084,"async":8085,"ĠCM":8086,"lso":8087,"ĠRefer":8088,"ĠRegion":8089,"FormSet":8090,"erify":8091,"Ġchanging":8092,"ORDER":8093,"partial":8094,"translator":8095,"UTE":8096,"searchtoken":8097,"calls":8098,"collector":8099,"ASH":8100,"ĠGroupStatus":8101,"Ġpercent":8102,"resolver":8103,"ĠChecks":8104,"populated":8105,"icsearch":8106,"Radio":8107,"cmds":8108,"Ġvisi":8109,"Ġlocalflavor":8110,"ĠNotification":8111,"gnore":8112,"Ġskill":8113,"Ġreferences":8114,"ADDR":8115,"PASSING":8116,"Signal":8117,"sumer":8118,"receivers":8119,"DATABASE":8120,"featured":8121,"Ġcalculated":8122,"ĠSkip":8123,"EXTENSION":8124,"ACTOR":8125,"Ġcombin":8126,"onents":8127,"Ġogc":8128,"'ve":8129,"And":8130,"French":8131,"FACTOR":8132,"Jinja":8133,"NG":8134,"OF":8135,"WR":8136,"fee":8137,"ners":8138,"oob":8139,"rup":8140,"tate":8141,"uck":8142,"zed":8143,"Ġ80":8144,"reg":8145,"analy":8146,"tili":8147,"Ġpip":8148,"lacing":8149,"getvalue":8150,"lose":8151,"\"\",":8152,"projectmember":8153,"Ġcontact":8154,"Ġemit":8155,"mbol":8156,"Ġprobably":8157,"ĠCity":8158,"socket":8159,"Format":8160,"ĠOr":8161,"Ġmemory":8162,"={}):":8163,"Ġ(\"#":8164,"Ġbasename":8165,"notate":8166,"ĠInvite":8167,"accessible":8168,"TaggableManager":8169,"Active":8170,"atings":8171,"Ġmoduleauthor":8172,"QUERY":8173,"Subject":8174,"Ġactstream":8175,"Ġdefines":8176,"recent":8177,"ularInline":8178,"offline":8179,"Ġreplacement":8180,"AuditLogEntryEvent":8181,"shared":8182,"ville":8183,"UniqueTogether":8184,"bottom":8185,"ĠUnique":8186,"Ġtimeline":8187,"GroupedMessage":8188,"=_":8189,"Failed":8190,"Facebook":8191,"License":8192,"PON":8193,"WID":8194,"World":8195,"break":8196,"fuzzy":8197,"ju":8198,"must":8199,"pdt":8200,"utable":8201,"watch":8202,"totals":8203,"()(":8204,"dix":8205,"pest":8206,"additional":8207,"connected":8208,"ĠTP":8209,"oom":8210,"Info":8211,"Username":8212,"ĠLoad":8213,"ĠĠĠĠĠĠĠĠĠĠĠĠĠĠĠĠĠĠĠĠĠĠĠĠĠĠĠĠĠĠĠĠĠĠĠĠĠĠĠĠĠĠĠĠĠĠĠĠĠĠĠ":8214,"ĠĠĠĠĠĠĠĠĠĠĠĠĠĠĠĠĠĠĠĠĠĠĠĠĠĠĠĠĠĠĠĠĠĠĠĠĠĠĠĠĠĠĠĠĠĠĠĠĠĠĠĠĠĠĠĠ":8215,"Ġalert":8216,"Confir":8217,"Ġatt":8218,"reshold":8219,"ĠUserObjectPermission":8220,"Ġcurator":8221,"=[],":8222,"Security":8223,"approved":8224,"plorer":8225,"EmailThread":8226,"gravatar":8227,"ISO":8228,"popular":8229,"mocked":8230,"loggers":8231,"Ġinstanti":8232,"ĠChild":8233,"ĠListView":8234,"RESPON":8235,"UPDATE":8236,"LIMIT":8237,"TreeItem":8238,"Ġseparator":8239,"BOX":8240,"scenarios":8241,"calculate":8242,"calculator":8243,"howto":8244,"ĠSkill":8245,"Ġappended":8246,"Ġtwisted":8247,"METHOD":8248,"Displays":8249,"TabularInline":8250,"Packet":8251,"GNUP":8252,"RESPONSE":8253,"\"',":8254,"$\",":8255,"57":8256,"68":8257,"=(\"":8258,"CI":8259,"Csrf":8260,"It":8261,"NER":8262,"OM":8263,"Rating":8264,"Variable":8265,"car":8266,"ics":8267,"lte":8268,"tod":8269,"yr":8270,"zh":8271,"Ġancestors":8272,"Ġkwarg":8273,"els":8274,"redeemer":8275,"ansp":8276,"tio":8277,"alice":8278,"always":8279,"Ġ\"\":":8280,"attached":8281,"Ġregular":8282,"'}))":8283,"Ġbundle":8284,"discussion":8285,"valu":8286,"']},":8287,"defaultfilters":8288,"Ġdf":8289,"Ġdry":8290,"pas":8291,"permalink":8292,"Ġstderr":8293,"ĠAuto":8294,"typeclasses":8295,"olymorphic":8296,"ĠDoc":8297,"Ġfilebrowser":8298,"ĠMark":8299,"ĠĠĠĠĠĠĠĠĠĠĠĠĠĠĠĠĠĠĠĠĠĠĠĠĠĠĠĠĠĠĠĠĠĠĠĠĠĠĠĠĠĠĠĠĠĠĠĠĠ":8300,"Ġgranted":8301,"statuscheck":8302,"Ġbytes":8303,"area":8304,"APPLICATION":8305,"metaclass":8306,"ĠUUID":8307,"USERS":8308,"Ġmanually":8309,"CreateView":8310,"alogue":8311,"CLU":8312,"Ġinitialize":8313,"Sitemap":8314,"Ġ123":8315,"TIMEOUT":8316,"Ġportlets":8317,"ĠCache":8318,"evant":8319,"LoginRequiredMixin":8320,"Ġdjstripe":8321,"HttpResponse":8322,"Ġbelongs":8323,"YourMUD":8324,"alternative":8325,"Success":8326,"RegexField":8327,">[^/":8328,"rollup":8329,"Ġediting":8330,"scrub":8331,"ĠCurrent":8332,"ĠGlobalPagePermission":8333,"demosite":8334,"/'.":8335,"71":8336,"LC":8337,"LT":8338,"Plan":8339,"Smart":8340,"Tur":8341,"`)":8342,"bold":8343,"gd":8344,"rvi":8345,"xhtml":8346,"you":8347,"Ġ$":8348,"Ġ):":8349,"orig":8350,"inherit":8351,"tition":8352,"roker":8353,"Ġcer":8354,"tock":8355,"national":8356,"ormally":8357,"lis":8358,"Ġinactive":8359,"contains":8360,"console":8361,"testimage":8362,"hours":8363,"Memory":8364,"Ġconstants":8365,"ĠPa":8366,"Ġorig":8367,"Ġnone":8368,"elems":8369,"tries":8370,"Ġdesired":8371,"ffee":8372,"ĠHelper":8373,"credit":8374,"portlets":8375,"Ġcreates":8376,"ĠReyk":8377,"ĠGrouping":8378,"Ġidx":8379,"buffer":8380,"Ġrelevant":8381,"Ġbackends":8382,"Ġusually":8383,"ĠURLPath":8384,"configure":8385,"Ġmanuals":8386,"TemplateView":8387,"Ġcompatibility":8388,"ĠGenerate":8389,"DELIVERY":8390,"Ġserved":8391,"failIf":8392,"ArticlePlugin":8393,"Ġmailer":8394,"crapy":8395,"ĠAppConfig":8396,"Ġnotifications":8397,"CSV":8398,"appendices":8399,"ĠTry":8400,"linkedin":8401,"itize":8402,"ĠAccessToken":8403,"Ġappendix":8404,"ĠPUBLISHED":8405,"ÃŃk":8406,"jarvi":8407,"MuxCommand":8408,"ĠBuild":8409,"53":8410,">%":8411,"Basic":8412,"Fail":8413,"KB":8414,"MARK":8415,"Rate":8416,"SCRIP":8417,"VEL":8418,"West":8419,"but":8420,"hand":8421,"itable":8422,"alth":8423,"uess":8424,"jangor":8425,"Ġfew":8426,"Ġste":8427,"Ġinvitation":8428,"comple":8429,"setter":8430,"Ġwraps":8431,"']):":8432,"Ġ({":8433,"testuser":8434,"testcases":8435,"urlconf":8436,"Ġnose":8437,"ĠToken":8438,"Ġdynamic":8439,"ĠSH":8440,"Ġconsider":8441,"ĠAp":8442,"ĠAlso":8443,"ĠCall":8444,"Ġtutorial":8445,"shor":8446,"counts":8447,"ĠIMC":8448,"Ġsever":8449,"pie":8450,"FormView":8451,"pks":8452,"creen":8453,"organizationaccess":8454,"ĠWorld":8455,"sym":8456,"ROSETT":8457,"ogc":8458,"={},":8459,"Ġcaches":8460,"Ġsitemap":8461,"OrganizationAccessRequest":8462,"plur":8463,"([('":8464,"ĠGenre":8465,"dajaxice":8466,"Ġklass":8467,"Ġmoved":8468,"Ġsignature":8469,"RequestFactory":8470,"Ġprocessing":8471,"paginated":8472,"varname":8473,"variable":8474,"weight":8475,"Ġvals":8476,"expire":8477,"kaans":8478,"RESULT":8479,"Ġbuilder":8480,"osen":8481,"sorting":8482,"STRING":8483,"Ġsociallogin":8484,"ĠCached":8485,"Ġwebhook":8486,"routable":8487,"java":8488,"Ġplaces":8489,"ĠCmdSet":8490,"ĠPROPERTY":8491,"ĠPropertyOption":8492,"Doe":8493,"moderator":8494,"ĠDisplayField":8495,"ĠPasswordReset":8496,"NEW":8497,"refunded":8498,"ĠSTATIC":8499,"optgroup":8500,"BUILDER":8501,"ĠDATAB":8502,"Resolution":8503,"PROCESSORS":8504,"ĠCMSToolbar":8505,"ĠDocSection":8506,"organizationaccessrequest":8507,"ROSETTA":8508,")})":8509,"+/":8510,",)),":8511,">{%":8512,"FIN":8513,"KW":8514,"KER":8515,"LFS":8516,"borg":8517,"effective":8518,"imi":8519,"oth":8520,"slice":8521,"tre":8522,"vg":8523,"wargs":8524,"ĠMedia":8525,"elf":8526,"indent":8527,"route":8528,"('.',":8529,"atural":8530,"Ġpid":8531,"ulation":8532,"ceeded":8533,"Ġface":8534,"Ġfont":8535,"upscale":8536,"chan":8537,"Ġinner":8538,"coin":8539,"Ġbrow":8540,"peg":8541,"Ġforward":8542,"ĠTHE":8543,"Invoice":8544,"persistent":8545,"Ġeg":8546,"ĠPUBLIC":8547,"prio":8548,"olver":8549,"Ġnice":8550,"poc":8551,"pyflakes":8552,"Ġverified":8553,"Ġmodeladmin":8554,"ĠME":8555,"ĠOF":8556,"Ġchunks":8557,"\">%":8558,"ĠFROM":8559,"URI":8560,"ffline":8561,"REPORT":8562,"manifest":8563,"DEX":8564,"LEVEL":8565,"transform":8566,"ĠProvider":8567,"Ġendi":8568,"\"][":8569,"callsign":8570,"collect":8571,"AdminMixin":8572,"ĠHttpRequest":8573,"Exp":8574,"cleanup":8575,"Ġformatted":8576,"rontab":8577,"discover":8578,"extract":8579,"released":8580,"ultipart":8581,"Ġcompiler":8582,"SIGNUP":8583,"Ġtaken":8584,"Ġeditor":8585,"generics":8586,"customers":8587,"findall":8588,"Ġworkspace":8589,"Ġcriterion":8590,"ĠOpenID":8591,"ĠShop":8592,"Ġimplements":8593,"CSS":8594,"ragment":8595,"Ġoccurrences":8596,"tracking":8597,"SimplePage":8598,"ĠResourceDoesNotExist":8599,"support":8600,"unauth":8601,"ZipCodeField":8602,"announcements":8603,"ĠTRANSL":8604,"jangoratings":8605,")')":8606,"City":8607,"Clipboard":8608,"DUL":8609,"Geo":8610,"SUGG":8611,"bi":8612,"since":8613,"tart":8614,"ĠXX":8615,"rename":8616,"orized":8617,"ania":8618,"('')":8619,"attemp":8620,"Ġrestricted":8621,"ura":8622,"Ġfake":8623,"Ġthrow":8624,"Ġsce":8625,"ung":8626,"testing":8627,"isdigit":8628,"Ġdeleting":8629,"Ġgetting":8630,"Ġstoring":8631,"ĠAD":8632,"Ġproc":8633,"Ġ17":8634,"(\"{":8635,"Ġtc":8636,"Ġnodelist":8637,"appable":8638,"Ġ23":8639,"ĠOutput":8640,"ĠExtra":8641,"\"><":8642,"Ġgit":8643,"Ġclassname":8644,"loaddata":8645,"ANSI":8646,"Ġaren":8647,"organizations":8648,"hasattr":8649,"dence":8650,"orders":8651,"syntax":8652,"foot":8653,"sessionhandler":8654,"Directory":8655,"MOVE":8656,"Ġ%}',":8657,"Ġpermanent":8658,"tinymce":8659,"Ġdoing":8660,"Templates":8661,"PROV":8662,"Ġsenders":8663,"ĠCreates":8664,"rfc":8665,"Notification":8666,"ERRORS":8667,"Ġfinished":8668,"ĠExampleSerializer":8669,"AlterUniqueTogether":8670,"Ġrepresenting":8671,"ENABLE":8672,"Ġpanels":8673,"thumbnails":8674,"IMAGES":8675,"Ġsubmitter":8676,"defined":8677,"Ġexecuted":8678,"HOLD":8679,"ĠRelated":8680,"Ġfeatures":8681,"ĠPrice":8682,"Ġattachments":8683,"Ġproblems":8684,"nouncement":8685,"ĠJsonResponse":8686,"AUTHENTICATION":8687,"Ġ12345678":8688,"ĠFILTER":8689,"DULES":8690,"!\"":8691,")['":8692,"43":8693,"GO":8694,"So":8695,"]'":8696,"dst":8697,"just":8698,"ligh":8699,"pu":8700,"sTest":8701,"Ġ~":8702,"Ġ##":8703,"Ġzero":8704,"Ġ'\"":8705,"stand":8706,"throttle":8707,"gested":8708,"Ġreply":8709,"Ġpuppe":8710,"FieldMixin":8711,"Ġaffected":8712,"Ġflush":8713,"idx":8714,"obile":8715,"chunk":8716,"copied":8717,"Ġwindow":8718,"constance":8719,"hour":8720,"Ġdat":8721,"Ġdouble":8722,"ublin":8723,"(\"<":8724,"olor":8725,"ĠCR":8726,"ĠClass":8727,"aggregate":8728,"nders":8729,"Ġsecurity":8730,"ModelChoiceField":8731,"ĠRegex":8732,"FormPlugin":8733,"ĠMO":8734,"ĠOver":8735,"ĠFacebook":8736,"ĠHe":8737,"ĠHandle":8738,"keting":8739,"Ġaddr":8740,"rendition":8741,"USD":8742,"POINT":8743,"IDENT":8744,"'^(\\":8745,"translationproject":8746,"MODE":8747,"Ġoutputs":8748,"sociallogin":8749,"Ġ500":8750,"ocialaccount":8751,"numbers":8752,"PROFILE":8753,"removed":8754,"ĠOrganizationOnboardingTask":8755,"Ġexpect":8756,"DetailsEndpoint":8757,"organizationmemberteam":8758,"(\"%.":8759,"Ġselectable":8760,"Ġframes":8761,"Ġdjcelery":8762,"topseller":8763,"Ġrights":8764,"Ġsubmitted":8765,"ĠTranslationAction":8766,"Ġelement":8767,"Ġprovides":8768,"ĠRenderer":8769,"SESSIONS":8770,"waiting":8771,"Current":8772,"MESSAGE":8773,"MESSAGES":8774,"Ġreplacing":8775,"untranslated":8776,"IGNORE":8777,"rpc":8778,"Calculator":8779,"NAMES":8780,"Passes":8781,"Ġendif":8782,"07":8783,":**":8784,"Delivery":8785,"Local":8786,"Za":8787,"horizontal":8788,"tt":8789,"tx":8790,"vin":8791,"zen":8792,"|%":8793,"Ġhostname":8794,"rejected":8795,"dea":8796,"descript":8797,"FieldValues":8798,"Ġfig":8799,"ingFilter":8800,"ili":8801,"pet":8802,"Ġwri":8803,"Ġoembed":8804,"vile":8805,"ray":8806,"pagate":8807,"Retrieve":8808,"Ġconditions":8809,"Ġeffect":8810,"istan":8811,"\")[":8812,"ĠDollar":8813,"Ġdistinction":8814,"pyc":8815,"Ġcome":8816,"titles":8817,"ĠRedis":8818,"```":8819,"ĠGu":8820,"cient":8821,"loading":8822,"Ġrand":8823,"Ġsocket":8824,"ĠRange":8825,"=[('":8826,"Ġshell":8827,"charset":8828,"myflag":8829,"workspace":8830,"enable":8831,"MessageMiddleware":8832,"numchild":8833,"2011":8834,"Ġcleanup":8835,"ĠAPITestCase":8836,"OKEN":8837,"Codes":8838,"Ġidentify":8839,"scores":8840,"ADDRESS":8841,"followup":8842,"ĠEnvironment":8843,"ragma":8844,"Ġpoints":8845,"Ġmerged":8846,"Ġseparate":8847,"Saint":8848,"Domain":8849,"Ġissues":8850,"IFICATION":8851,"WEEK":8852,"Ġextends":8853,"ĠAuditLogEntryEvent":8854,"tistics":8855,"Ġdistutils":8856,"ĠLibrary":8857,"ProvinceSelect":8858,"27":8859,"Be":8860,"Bay":8861,"BAD":8862,"Css":8863,"Max":8864,"Ne":8865,"Rich":8866,"Schedule":8867,"Tor":8868,"Voucher":8869,"ZIL":8870,"affected":8871,"dele":8872,"misc":8873,"ws":8874,"wraps":8875,"zowski":8876,"ĠIntegerField":8877,"Ġ':":8878,"Ġ''),":8879,"states":8880,"odule":8881,"Ġimmedi":8882,"Ġ[%":8883,"Ġ[[\"":8884,"Ġcross":8885,"Ġrect":8886,"Ġautod":8887,"Ġfill":8888,"lap":8889,"lave":8890,"rip":8891,"Ġsnippet":8892,"lify":8893,"nose":8894,"Ġban":8895,"terms":8896,"__',":8897,"Ġmigration":8898,"Ġnotify":8899,"Charge":8900,"Ġdal":8901,"Read":8902,"amo":8903,"UserForm":8904,"Ġdeclared":8905,"ĠLet":8906,"ĠLock":8907,"ĠTestView":8908,"Ġrenderers":8909,"ĠWith":8910,"Ġparagraph":8911,"Ġenti":8912,"Debug":8913,"Ġpublication":8914,"wagtailusers":8915,"myapp":8916,"ELP":8917,"Ġsourcemap":8918,"csv":8919,"IString":8920,"Ġdates":8921,"Ġoutside":8922,"Ġless":8923,"AGIN":8924,"genre":8925,"ĠFormat":8926,"THRES":8927,"activated":8928,"SOLETE":8929,"Ġtasks":8930,"1234567":8931,"Ġargv":8932,"embedly":8933,"Ġmanagers":8934,"poll":8935,"Ġrequirements":8936,"something":8937,"'''":8938,"ĠSELECT":8939,"PriceCalculator":8940,"Origin":8941,"Parameter":8942,"SHOP":8943,"ĠOtherwise":8944,"HEADER":8945,"Ġmenus":8946,"ĠApiKey":8947,"THRESHOLD":8948,"(':":8949,"([\"":8950,"234":8951,"58":8952,"BIN":8953,"Dak":8954,"Feature":8955,"HES":8956,"Issue":8957,"NL":8958,"OVER":8959,"Pootle":8960,"UCH":8961,"ao":8962,"fj":8963,"fk":8964,"hipchat":8965,"kb":8966,"pants":8967,"xhr":8968,"}{":8969,"Ã°":8970,"Ġfk":8971,"Ġfavorite":8972,"costs":8973,"Ġimportant":8974,"assertJinja":8975,"ppv":8976,"Ġhint":8977,"ĠTask":8978,"ĠTenant":8979,"esome":8980,"utdown":8981,"Rece":8982,"marketing":8983,"Ġeasy":8984,"ĠPIL":8985,"Ġ%%":8986,"optional":8987,"ilembed":8988,"UserReport":8989,"ĠImple":8990,"ures":8991,"Ġsen":8992,"pygments":8993,"ĠMUD":8994,"ORITY":8995,"ĠFe":8996,"ĠFUZZY":8997,"formatter":8998,"ĠĠĠĠĠĠĠĠĠĠĠĠĊ":8999,"tence":9000,"profiles":9001,"Ġlimited":9002,"Ġfiltering":9003,"beard":9004,"Ġcoming":9005,"Ġ/>'":9006,"Ġheading":9007,"uctBlock":9008,"treeitem":9009,"successful":9010,"ĠFormView":9011,"finder":9012,"ĠObjectDB":9013,"SLUG":9014,"ĠAuthentication":9015,"ĠAccept":9016,"ĠActiv":9017,"Ġresolved":9018,"expand":9019,"Ġqueues":9020,"operations":9021,"router":9022,"UpdateView":9023,"Ġdepends":9024,"Money":9025,"recipients":9026,"Ġswitches":9027,"Ġcandidate":9028,"ĠAssertionError":9029,"Interface":9030,"Operating":9031,"VARIANTS":9032,"Ġhighligh":9033,"FUNCT":9034,"ilembeds":9035,"180":9036,":',":9037,">\")":9038,"As":9039,"BY":9040,"Ber":9041,"BASKET":9042,"English":9043,"Score":9044,"SSL":9045,"_.":9046,"dp":9047,"hits":9048,"ici":9049,"sForm":9050,"south":9051,"xpath":9052,"zki":9053,"erce":9054,"revert":9055,"anish":9056,"tially":9057,"that":9058,"roid":9059,"alKey":9060,"selves":9061,"('{":9062,"Ġcatch":9063,"angular":9064,"Ġpix":9065,"Ġpragma":9066,"ula":9067,"lah":9068,"ens":9069,"Ġsyntax":9070,"Ġsaving":9071,"()}":9072,"')],":9073,"conditions":9074,"isation":9075,"Ġhard":9076,"ĠTakes":9077,"uba":9078,"Restriction":9079,"ĠSample":9080,"ĠSESSION":9081,"ĠPer":9082,"ĠPublish":9083,"Ġprompt":9084,"Ġexam":9085,"oly":9086,"ĠCHO":9087,"datadict":9088,"ialized":9089,"ENANT":9090,"ĠMa":9091,"Ġchain":9092,"ĠGoogle":9093,"Ġclassifiers":9094,"Ġwhitespace":9095,"Condition":9096,"ConcreteModel":9097,"rstrip":9098,"SECUR":9099,"ĠBar":9100,"translated":9101,"Ġmaking":9102,"readouter":9103,"PageForm":9104,"searchable":9105,"modindex":9106,"publishing":9107,"Ġmodifier":9108,"254":9109,"wagtailforms":9110,"Ġoptionally":9111,"([],":9112,"Ġperformed":9113,"Unknown":9114,"Start":9115,"Stats":9116,"gines":9117,"Ġauthorize":9118,"fullname":9119,"Ġtranslated":9120,"opensearch":9121,"Ġinstallation":9122,"Ġ'.'.":9123,"CASE":9124,"PATHS":9125,"nica":9126,"Ġhashes":9127,"ĠSerializer":9128,"rowsable":9129,"Ġtempfile":9130,"CustomField":9131,"Ġdeploy":9132,"SHOT":9133,"ChangeForm":9134,"Ġelements":9135,"Suite":9136,"ĠRegister":9137,"LINK":9138,"supported":9139,"StreamBlock":9140,"HERE":9141,"Ġcapfd":9142,"ĠRegistrationProfile":9143,"CommonMiddleware":9144,"ĠContentFile":9145,"CachedMethods":9146,"pagere":9147,"RUNNER":9148,"ĠCHOICES":9149,"readouterr":9150,"95":9151,"?%":9152,"CP":9153,"CATEGORY":9154,"Fi":9155,"Fla":9156,"From":9157,"FOLDER":9158,"GD":9159,"Items":9160,"NC":9161,"NN":9162,"Py":9163,"Paginator":9164,"Pagination":9165,"_{":9166,"edi":9167,"echo":9168,"gif":9169,"hit":9170,"here":9171,"jack":9172,"nl":9173,"rd":9174,"sz":9175,"tb":9176,"Ġ?":9177,"Ġ''})":9178,"annotate":9179,"stan":9180,"getitem":9181,"atever":9182,"atter":9183,"Ġrecover":9184,"Ġfiler":9185,"series":9186,"english":9187,"userbar":9188,"Ġdeferred":9189,"Ġbirth":9190,"cks":9191,"une":9192,"Ġocc":9193,"propagate":9194,"dates":9195,"=''):":9196,"ĠTex":9197,"ĠTwitter":9198,"Intended":9199,"ĠSince":9200,"ĠAb":9201,"ĠAudience":9202,"accepting":9203,"filetype":9204,"cable":9205,"ĠCSS":9206,"aging":9207,"TestBase":9208,"ĠLookup":9209,"ViewMiddleware":9210,"ĠHAS":9211,"REVIS":9212,"ressed":9213,"ledge":9214,"eep":9215,"articleplugin":9216,"aries":9217,"ĠUN":9218,"OTO":9219,"Ġ%}')":9220,"sudo":9221,"irc":9222,"imgs":9223,"Ġrosetta":9224,"Ġ/>":9225,"ashes":9226,"Ġprefixes":9227,"Ġstyles":9228,"ĠModelAdmin":9229,"AlertPlugin":9230,"{}'.":9231,"minutes":9232,"~~~~~~~~~~~~~~~~~~~~":9233,"termine":9234,"Ġoblast":9235,"Ġticker":9236,"Ġphotosize":9237,"Ġbelong":9238,"HOSTS":9239,"ĠOrganizationMemberTeam":9240,"FOO":9241,"canceled":9242,"descendant":9243,"Ensure":9244,"Ġhappens":9245,"Mozillians":9246,"TRANSLATION":9247,"Operation":9248,"constraints":9249,"swappable":9250,"fficient":9251,"HERIT":9252,"voke":9253,"Ġfeel":9254,"Ġtzinfo":9255,"Ġrouter":9256,"CreationForm":9257,"Ġholds":9258,"Ġcertain":9259,"(.*":9260,".{":9261,".'],":9262,"/'),":9263,"91":9264,"Bah":9265,"Central":9266,"Easter":9267,"GCM":9268,"GENER":9269,"HELP":9270,"Lock":9271,"MN":9272,"Note":9273,"Pass":9274,"SY":9275,"TW":9276,"Tax":9277,"TOKEN":9278,"]):":9279,"]*)":9280,"bn":9281,"dw":9282,"double":9283,"hack":9284,"high":9285,"iy":9286,"square":9287,"wner":9288,"Ġ')":9289,"thumbs":9290,"dbid":9291,"Ġclipboard":9292,"Ġthrottle":9293,"idont":9294,"eni":9295,"Ġsheet":9296,"listed":9297,"licable":9298,"')).":9299,"keyword":9300,"unct":9301,"union":9302,"ignment":9303,"hot":9304,"ĠTime":9305,"ĠAng":9306,"ĠPo":9307,"Ġprot":9308,"ONT":9309,"Ġ22":9310,"ModelMixin":9311,"ĠEX":9312,"Ġmetrics":9313,"Ġrating":9314,"parsed":9315,"denied":9316,"ĠWill":9317,"Ġvouched":9318,"cachekey":9319,"ĠREST":9320,"Ġprivate":9321,"modal":9322,"ĠGroupTagValue":9323,"ĠInvoice":9324,"ĠIndependent":9325,"accessories":9326,"ĠConcreteModel":9327,"DictEqual":9328,"library":9329,"wagtailembeds":9330,"Ġconfigure":9331,"versing":9332,"KEYWORD":9333,"ĠGenerated":9334,"webhook":9335,"OPEN":9336,"ĠAccount":9337,"namespaced":9338,"Ġreplaced":9339,"legal":9340,"ĠOSError":9341,"gotiation":9342,"gives":9343,"CURRENCY":9344,"HOURS":9345,"Ġseveral":9346,"ĠADMIN":9347,"/*":9348,"=',":9349,"Affected":9350,"Batch":9351,"BAN":9352,"Int":9353,"Ku":9354,"Msg":9355,"Pool":9356,"Row":9357,"Spa":9358,"Style":9359,"])),":9360,"kely":9361,"lng":9362,"migrate":9363,"olog":9364,"rhs":9365,"single":9366,"Ã¡":9367,"Ġ'$":9368,"reason":9369,"tenders":9370,"inviter":9371,"declared":9372,"lex":9373,"Ġrev":9374,"ouse":9375,"getsentry":9376,"ility":9377,"ris":9378,"upation":9379,"Ġintern":9380,"Ġbreadcrumbs":9381,"Ġostring":9382,"spam":9383,"lus":9384,"Ġmuch":9385,"='%":9386,"Ġdump":9387,"asset":9388,"Ġcontrols":9389,"Ġexcluded":9390,"ĠCMD":9391,"ĠClose":9392,"Autocomplete":9393,"UserManager":9394,"UserBy":9395,"##############":9396,"lint":9397,"strategy":9398,"screen":9399,"Ġ21":9400,"Ġdevice":9401,"Ġfileobject":9402,"Ġfieldsets":9403,"actual":9404,"~~~":9405,"ĠMay":9406,"Ġ{}).":9407,"INE":9408,"INNIA":9409,"Ġalternate":9410,"ĠTestTable":9411,"portal":9412,"IClient":9413,"within":9414,"never":9415,"needed":9416,"Ġ31":9417,"ILD":9418,"traverse":9419,"Ġvalidator":9420,"Defin":9421,"searchtest":9422,"Checks":9423,"FileSystem":9424,"ĠExport":9425,"ĠConfig":9426,"aker":9427,"EmailBackend":9428,"aily":9429,"ISPY":9430,"Ġautospec":9431,"alertplugin":9432,"Ġknown":9433,"MPTT":9434,"UGSHOT":9435,"RequestContext":9436,"Ġmarked":9437,"ĠANS":9438,"overrides":9439,"TRA":9440,"Ġrecent":9441,"micro":9442,"Ġflake":9443,"SERIAL":9444,"555":9445,"Ġdirs":9446,"LIANS":9447,"Ġframework":9448,"CRISPY":9449,"/?%":9450,"ĠPlayerDB":9451,"Ġpaypal":9452,"Ġoptim":9453,"ĠArguments":9454,"RemoveField":9455,"CMDSET":9456,">[^\\/]+)/":9457,"candidate":9458,"ĠUserenaSignup":9459,"ReverseMatch":9460,"Management":9461,"CsrfViewMiddleware":9462,"Failure":9463,"Ġscenari":9464,"ĠCRUD":9465,"ZILLIANS":9466,"Ġ[[\"#":9467,"AffectedUserBy":9468,"AffectedUserByGroup":9469,":\\":9470,">'.":9471,"Dummy":9472,"FK":9473,"Ge":9474,"LS":9475,"More":9476,"OFF":9477,"ShippingMethod":9478,"XY":9479,"][\"":9480,"bing":9481,"cline":9482,"clip":9483,"don":9484,"gative":9485,"jan":9486,"kt":9487,"uation":9488,"vc":9489,"win":9490,"restore":9491,"ston":9492,"align":9493,"ges":9494,"Ġ\"@":9495,"Ġcdict":9496,"Ġfall":9497,"Ġbest":9498,"Ġom":9499,"Ġ(.":9500,"conn":9501,"contain":9502,"continue":9503,"rab":9504,"rade":9505,"Ġhide":9506,"Ġhandlers":9507,"izer":9508,"ĠSouth":9509,"Ġecho":9510,"=\"{":9511,"mically":9512,"mailer":9513,"Ġtelnet":9514,"shp":9515,"ĠIO":9516,"ites":9517,"addon":9518,"umans":9519,"scribe":9520,"ĠĠĠĠĠĠĠĠĠĠĠĠĠĠĠĠĠĠĠĠĠĠĠĠĠĠĠĠĠĠĠĠĠĠĠĠĠĠĠĠĠĠĠĠĠĠĠĠĠĠĠĠ":9521,"skills":9522,"URE":9523,"Ġalter":9524,"Control":9525,"Ġviewset":9526,"versioning":9527,"Ġsubpage":9528,"Ġsubclasses":9529,"Development":9530,"fixed":9531,"MAG":9532,"ĠInstance":9533,"taskset":9534,"Ġmatched":9535,"beat":9536,"Ġcommented":9537,"Ġjinja":9538,"paypal":9539,"icTask":9540,"MPLE":9541,"ĠKwargs":9542,"aterialized":9543,"Ġdeliver":9544,"ĠProjectOption":9545,"EntryPage":9546,"SubIndex":9547,"Transaction":9548,"webhooks":9549,"ĠAPIView":9550,"THUMB":9551,"expiry":9552,"ĠStandard":9553,"Ġtemporary":9554,"LinkPlugin":9555,"Ġgoing":9556,"SocialSecurity":9557,"Ġsubscriptions":9558,"digests":9559,"Month":9560,"ĠFilterSet":9561,"Ġstacktrace":9562,"eriodicTask":9563,"starting":9564,"bitrary":9565,"ĠCompressor":9566,"Ġcharges":9567,"````````````````":9568,"ĠBasicModel":9569,"README":9570,"AFTER":9571,"GHT":9572,"ĠPygments":9573,"DELETION":9574,"Ġmoderation":9575,"SOCIAL":9576,"Header":9577,"stypie":9578,"ĠReykjav":9579,"descriptor":9580,"Ġhighlighting":9581,"clipbo":9582,"/\"],":9583,"370":9584,"456":9585,"98":9586,"FACE":9587,"Hook":9588,"IR":9589,"Iter":9590,"IVE":9591,"LD":9592,"MATCH":9593,"MUGSHOT":9594,"Na":9595,"Old":9596,"PM":9597,"PS":9598,"Pod":9599,"PayPal":9600,"RA":9601,"TABLE":9602,"Write":9603,"emote":9604,"fa":9605,"fti":9606,"mk":9607,"qn":9608,"smart":9609,"uc":9610,"wn":9611,"yn":9612,"yph":9613,"Äį":9614,"Å¡":9615,"ĠDate":9616,"ĠROOT":9617,"Ġlatex":9618,"Ġancestor":9619,"Ġquiet":9620,"tection":9621,"indi":9622,"alternate":9623,"Ġcm":9624,"Ġprin":9625,"deferred":9626,"Ġfb":9627,"ensitive":9628,"Ġsale":9629,"coffee":9630,"Ġbob":9631,"quit":9632,"sper":9633,"processed":9634,"ands":9635,"Ġhack":9636,"ĠTax":9637,"ĠToolbar":9638,"asca":9639,"Reply":9640,"Ġevil":9641,"ĠAR":9642,"ĠPY":9643,"Ġnormally":9644,"tics":9645,"ĠDis":9646,"ONG":9647,"ONTH":9648,"Ġdisc":9649,"ĠMany":9650,"ĠOSI":9651,"ĠLANG":9652,"INHERIT":9653,"skaya":9654,"cision":9655,"administ":9656,"ĠBut":9657,"conflict":9658,"uggested":9659,"Ġprepended":9660,"Ġenviron":9661,"wagtailsites":9662,"ĠHttpResponseBadRequest":9663,"Ġsuitable":9664,"JSONEncoder":9665,"configured":9666,"ListSerializer":9667,"Ġsigned":9668,"ĠpartB":9669,"Ġquote":9670,"CHOICE":9671,"Ġtrailing":9672,"TRACK":9673,"DBFactory":9674,"Ġ...\"":9675,"Ġidentity":9676,"Ġ}}'":9677,"Ġdifference":9678,"ĠTransaction":9679,"craped":9680,"operation":9681,"PropertyMock":9682,"Runtime":9683,"Ġbuttons":9684,"NOTE":9685,"Updated":9686,"egn":9687,"(\"/\")":9688,"IMC":9689,"LOGG":9690,"Ġpopulated":9691,"readcrumb":9692,"BOOK":9693,"externalaccount":9694,"normalize":9695,"Environment":9696,"FRAME":9697,"groupemailthread":9698,"RegistrationProfile":9699,"ĠStatusCheck":9700,"Spec":9701,"VISIB":9702,"Ġproblem":9703,"capfd":9704,"SCOPES":9705,"Ġtreated":9706,"VOUCH":9707,"RadioSelect":9708,"ĠApproved":9709,"plurals":9710,"ĠTranslationActionCodes":9711,"SERIALIZ":9712,"ĠCRUDTestView":9713,"250":9714,"CENT":9715,"Dom":9716,"Flag":9717,"GC":9718,"Ha":9719,"Line":9720,"Net":9721,"NECT":9722,"PC":9723,"Sal":9724,"[^":9725,"\\-":9726,"ared":9727,"em":9728,"eq":9729,"fus":9730,"font":9731,"jpeg":9732,"prom":9733,"psycopg":9734,"patri":9735,"rss":9736,"Ġ'&":9737,"restricted":9738,"increment":9739,"Ġio":9740,"Ġ\"--":9741,"Ġremember":9742,"Ġrestart":9743,"Ġretrie":9744,"Ġax":9745,"Ġaware":9746,"taff":9747,"entities":9748,"nother":9749,"exico":9750,"pep":9751,"Ġopt":9752,"prototype":9753,"races":9754,"Ġmdata":9755,"='')":9756,"Ġhad":9757,"Ġdashes":9758,"utree":9759,"Ġev":9760,"Ġoften":9761,"olk":9762,"ĠClean":9763,"TimeField":9764,"GroupEmailThread":9765,"answer":9766,"Ġlight":9767,"ĠMax":9768,"INPUT":9769,"Ġmean":9770,"Contact":9771,"ĠNg":9772,"ĠNested":9773,"ĠBit":9774,"://%":9775,"ordered":9776,"ĠWHERE":9777,"2009":9778,"Ġparsing":9779,"Ġprepopulated":9780,"Ġcaptcha":9781,"signin":9782,"BaseTestCase":9783,"Ġshare":9784,"MODULES":9785,"ĠExternalAccount":9786,"characters":9787,"FilterBackend":9788,"Ġpermitted":9789,"ĠDevelopers":9790,"345":9791,"authorized":9792,"Ġloading":9793,"Ġdelta":9794,"Ġpks":9795,"ĠAPIRequestFactory":9796,"Ġminutes":9797,"ĠThat":9798,"Ġseries":9799,"Ġreadonly":9800,"Alternative":9801,"ĠDirect":9802,"ĠArticleRevision":9803,"ĠGeoServer":9804,"ĠSimpleTable":9805,"skipIf":9806,"Ġnormalize":9807,"CustomUser":9808,"FolderPermission":9809,"ĠSourceMap":9810,"Ġobsolete":9811,"ĠCharacter":9812,"Ġseparated":9813,"AttributeError":9814,"--------------":9815,"ĠSignup":9816,"Ġ2016":9817,"ĠSessionStore":9818,"ĠResourceBase":9819,"Ġclosed":9820,"Ġstarted":9821,"Ġcoverage":9822,"Ġgives":9823,"ACTIVE":9824,"Modifier":9825,"ĠEmptyPage":9826,"Ġoobfuncname":9827,"burg":9828,"filled":9829,"ĠManufacturer":9830,"CLOSE":9831,"Ġdajaxice":9832,"WRITE":9833,"footnote":9834,"ĠANSIString":9835,"ĠIOError":9836,"ascade":9837,"+'":9838,"69":9839,">,":9840,"Bound":9841,"BUC":9842,"Deleted":9843,"Evennia":9844,"Mac":9845,"Por":9846,"RU":9847,"Shop":9848,"TASK":9849,"WSER":9850,"]}":9851,"bg":9852,"bundle":9853,"dObject":9854,"epoch":9855,"favicon":9856,"ga":9857,"ically":9858,"lg":9859,"oembed":9860,"pm":9861,"small":9862,"voc":9863,"wms":9864,"ĠBoundedPositiveIntegerField":9865,"Ġlineno":9866,"Ġ'@":9867,"repe":9868,"oro":9869,"inclu":9870,"annotation":9871,"memory":9872,"Ġ('-":9873,"Ġcfg":9874,"Ġpool":9875,"FieldPanel":9876,"Ġthough":9877,"getlist":9878,"ength":9879,"chosen":9880,"userreport":9881,"Ġinp":9882,"Ġincrement":9883,"Ġinspect":9884,"copies":9885,"()])":9886,"Ġwrap":9887,"unch":9888,"unpublish":9889,"protected":9890,"__':":9891,"assertDictEqual":9892,"ism":9893,"raceback":9894,"Ġnotice":9895,"Ġnopyflakes":9896,"Character":9897,"Ġdst":9898,"ĠSensitive":9899,"Ġconsi":9900,"Ġconven":9901,"(\"_":9902,"databases":9903,"Properties":9904,"apphooks":9905,"endor":9906,"ĠIssue":9907,"comms":9908,"Ġmodelform":9909,"ĠLi":9910,"ĠEl":9911,"ĠEv":9912,"Ġgreen":9913,"calc":9914,"Ġyes":9915,"ower":9916,"===":9917,"Ġlisting":9918,"Ġungettext":9919,"Ġrenders":9920,"tential":9921,"[\"/":9922,"Ġserialized":9923,"Ġendb":9924,"CHILD":9925,"Ġcallsign":9926,"translations":9927,"buil":9928,"Ġ%}</":9929,"irt":9930,"Ġchoo":9931,"ĠDetail":9932,"Ġothers":9933,"Ġstarts":9934,"Ġstamp":9935,"tickets":9936,"Ġ\"%(":9937,"ĠTemplateDoesNotExist":9938,"auti":9939,"mergetype":9940,"2222":9941,"Ġ'.'":9942,"goto":9943,"789":9944,"binary":9945,"Ġcmdhandler":9946,"__(**":9947,"ĠJSONField":9948,"DATED":9949,"SOURCE":9950,"Ġdirname":9951,"ynamically":9952,"Ġexpire":9953,"TOCOL":9954,"COMPLETE":9955,"Ġtickets":9956,"RunPython":9957,"SocialApp":9958,"ĠLogEntry":9959,"DeleteView":9960,"awesome":9961,"tracked":9962,"vfolders":9963,"DESC":9964,"Ġaccepts":9965,"realpath":9966,"Modified":9967,"UUIDField":9968,"ĠUnicode":9969,"Ġbehaviour":9970,"stylesheet":9971,"ĠParse":9972,"Authorization":9973,"Criterion":9974,"BROWSER":9975,"TaggedItem":9976,"Ġregard":9977,"CLUDE":9978,"ĠParent":9979,"AGINATION":9980,"patrick":9981,"BUCKET":9982,"\".\"":9983,"132":9984,"Aware":9985,"Empty":9986,"FC":9987,"MES":9988,"MCE":9989,"NOR":9990,"PDT":9991,"TM":9992,"TED":9993,"ZINNIA":9994,"bs":9995,"blue":9996,"ham":9997,"imal":9998,"iPh":9999,"niki":10000,"tn":10001,"tumblr":10002,"ya":10003,"}$',":10004,"Ã¥":10005,"elog":10006,"ern":10007,"':'":10008,"tile":10009,"ros":10010,"Ġident":10011,"ryp":10012,"ormbases":10013,"encoded":10014,"enclosure":10015,"Ġsw":10016,"Ġscreen":10017,"loven":10018,"()``":10019,"sizes":10020,"unregister":10021,"anda":10022,"Ġmcs":10023,"Ġhierarchy":10024,"ĠTer":10025,"Invite":10026,"Replace":10027,"Refer":10028,"ĠSlug":10029,"ĠScraper":10030,"Ġcondition":10031,"Ġconverted":10032,"ĠPL":10033,"Ġprotected":10034,"mime":10035,"Metaclass":10036,"ialog":10037,"nowledge":10038,"ĠIden":10039,"ONODE":10040,"ĠRead":10041,"Ġ\"((":10042,"ĠFollow":10043,"Ġgd":10044,"ANY":10045,"contributor":10046,"slugify":10047,"URLS":10048,"ĠWE":10049,"ITIES":10050,"sourcemap":10051,"penners":10052,"Ġprefetch":10053,"renthe":10054,"firstname":10055,"ĠRich":10056,"ObjectDB":10057,"Expi":10058,"Files":10059,"EventUser":10060,"Ġ%}{{":10061,"points":10062,"Ġjwt":10063,"Ġxrange":10064,"Ġ\\\"":10065,"Ġheadings":10066,"Throttle":10067,"confirmed":10068,">'''":10069,"DjangoModel":10070,"Genre":10071,"Ġsuccessful":10072,"MISSING":10073,"ANDARD":10074,"Ġerrmsg":10075,"CustomPK":10076,"operator":10077,"Ġshorter":10078,"Ġskipped":10079,"ĠTextPlugin":10080,"ansition":10081,"Ġrelationships":10082,"fficial":10083,"letterpaper":10084,"candidates":10085,"SCOPE":10086,"clarations":10087,"TrackedUser":10088,"Ġsteps":10089,"CssParameter":10090,"BINARY":10091,"Ġpixels":10092,"SECURE":10093,"Flavor":10094,"ĠTexinfo":10095,"Ġendblock":10096,"CHILDREN":10097,"autiful":10098,"iPhvoc":10099,"rentheses":10100,"!',":10101,"*',":10102,"112":10103,"8010":10104,"AK":10105,"Alias":10106,"Cat":10107,"Has":10108,"Lookup":10109,"May":10110,"Obj":10111,"PP":10112,"PUBLISH":10113,"Rio":10114,"SW":10115,"Show":10116,"Snooze":10117,"Twitter":10118,"Usage":10119,"bor":10120,"dz":10121,"dsym":10122,"jenkins":10123,"nes":10124,"sig":10125,"uccess":10126,"xs":10127,"zA":10128,"}\\":10129,"Ġselection":10130,"information":10131,"anian":10132,"lev":10133,"Ġ[('":10134,"Ġcenter":10135,"urcel":10136,"Ġping":10137,"Ġpositive":10138,"law":10139,"ilio":10140,"orman":10141,"tailed":10142,"Ġsmall":10143,"lol":10144,"Ġblob":10145,"Ġbilling":10146,"dion":10147,"directive":10148,"advanced":10149,"Ġwarning":10150,"isa":10151,"urllib":10152,"asdf":10153,"ĠSingle":10154,"Ġexpression":10155,"-----":10156,"ĠCH":10157,"\")]":10158,"soa":10159,"poses":10160,"posted":10161,"ĠIS":10162,"aga":10163,"ĠDebug":10164,"cessor":10165,"validator":10166,"Ġurlconf":10167,"Ġurlresolvers":10168,"ĠRefresh":10169,"ĠMixin":10170,"ĠOGC":10171,"\">'":10172,"\">',":10173,"Ġmechan":10174,"Ġgraph":10175,"Ġacross":10176,"preamble":10177,"ĠBadRequest":10178,"Ġunpublished":10179,"Ġenough":10180,"Ġengines":10181,"company":10182,"cordion":10183,"})/(?":10184,"Ġpassing":10185,"tified":10186,"tifiers":10187,"Ġclients":10188,"ĠConvert":10189,"ĠContact":10190,"([(":10191,"VERSE":10192,"works":10193,"Ġchoose":10194,"Ġjavascript":10195,"MessageMixin":10196,"Ġxterm":10197,"Ġbuffer":10198,"Resolver":10199,"Ġleg":10200,"204":10201,"IPPING":10202,"Raw":10203,"Ġloads":10204,"Ġacts":10205,"ĠUncomment":10206,"ĠJava":10207,"Ġminimum":10208,"0003":10209,"cmdsets":10210,"ĠTagValue":10211,"ĠTaggableManager":10212,"ometry":10213,"ĠNoReverseMatch":10214,"DjangoTemplates":10215,"invoices":10216,"nie":10217,"ARED":10218,"assertIsNot":10219,"ĠOpenSearch":10220,"Ġspider":10221,"/?$',":10222,"Encoding":10223,"Ġmaintain":10224,"FOUND":10225,"trackback":10226,"jection":10227,"Ġ'''<":10228,"sisten":10229,"ĠLazy":10230,"SimpleTestCase":10231,"ĠReleaseFile":10232,"REQUESTED":10233,"ĠLinkedIn":10234,"Ġcookiecutter":10235,"sitemaps":10236,"separator":10237,"ĠInlineTest":10238,"Absolute":10239,"video":10240,"RegionSelect":10241,"Generator":10242,"Locale":10243,"StructBlock":10244,"RangeField":10245,"BlogEntryPage":10246,"ĠOptional":10247,"RevisionPluginRevision":10248,"XMLHttpRequest":10249,"escalation":10250,"Ġdirectives":10251,"Ġdflt":10252,"FINDER":10253,"ology":10254,"ĠLANGU":10255,"(\"\"":10256,")],":10257,"-{":10258,"033":10259,"94":10260,"Entries":10261,"First":10262,"Ga":10263,"Har":10264,"Ju":10265,"MAL":10266,"Place":10267,"Pants":10268,"SCHE":10269,"TN":10270,"Unable":10271,"WA":10272,"WW":10273,"]\\":10274,"`:":10275,"bio":10276,"djangoratings":10277,"gates":10278,"hd":10279,"lstrip":10280,"wri":10281,"will":10282,"|$":10283,"|,":10284,"|\\":10285,"âĢ":10286,"ĠMe":10287,"ĠEND":10288,"ĠMethod":10289,"eli":10290,"oral":10291,"decessor":10292,"ticker":10293,"medium":10294,"Ġ\"[":10295,"Ġcar":10296,"uris":10297,"Ġpm":10298,"ectWidget":10299,"cend":10300,"center":10301,"enforce":10302,"noklass":10303,"exis":10304,"extended":10305,"')):":10306,"gshot":10307,"ĠTop":10308,"Insertion":10309,"ĠSITE":10310,"marty":10311,"ĠAWS":10312,"ĠPack":10313,"Ġprototype":10314,"Ġexm":10315,"fileblob":10316,"aml":10317,"estroy":10318,"Ġ102":10319,"caches":10320,"ĠCri":10321,"ĠCAC":10322,"ĠCelery":10323,"Ġord":10324,"elected":10325,"Ġbecome":10326,"ialization":10327,"imports":10328,"INDEX":10329,"lastname":10330,"ĠHello":10331,"mandatory":10332,"Ġunknown":10333,"DEV":10334,"postgis":10335,"transfer":10336,"Ġmath":10337,"'))\"},":10338,"Ġpreamble":10339,"Ġcaching":10340,"\"]),":10341,"searchtests":10342,"'^%":10343,"Ġ]),":10344,"ĠGroupObjectPermission":10345,"worker":10346,"ISESSION":10347,"ĠDetermine":10348,"Ġquerystring":10349,"Ġxframe":10350,"CreateAPIView":10351,"dsn":10352,"Ġorganizationmember":10353,"Ġleave":10354,"IPS":10355,"Ġlabels":10356,"Ġpkg":10357,"Ġpacking":10358,"alex":10359,"partB":10360,"asticsearch":10361,"ĠOrderItem":10362,"Ġmaybe":10363,"ĠModelForm":10364,"ĠExamples":10365,"PasswordInput":10366,"ĠMockView":10367,"Ġ}}',":10368,"xmlrpc":10369,"Ġworking":10370,"{{/":10371,"nik":10372,"Ġthroughout":10373,"Ġexpiration":10374,"buttons":10375,"bilities":10376,"Privacy":10377,"dtuple":10378,"Ġwhose":10379,"following":10380,"ĠAlways":10381,"Ġpossib":10382,"switches":10383,"charges":10384,"Attributes":10385,"ĠPhotoSize":10386,"Ġsubmissions":10387,"bitbucket":10388,"Ġexecfile":10389,".*')":10390,"OnboardingTaskStatus":10391,"123456789":10392,"Ġtrim":10393,"OGLE":10394,"graphically":10395,"Ġtypo":10396,"Ġattempt":10397,"speaker":10398,"recursive":10399,"ĠPUBLISHER":10400,"(',')":10401,"Design":10402,"nyt":10403,"ARGS":10404,"Published":10405,"Ġâĺ":10406,"MANAG":10407,"TSDB":10408,"visibility":10409,"recognised":10410,"ExpectWidget":10411,"Ġ1234567890":10412,"icious":10413,"ĠAbsolute":10414,"unctuation":10415,"Definition":10416,"SERIALIZER":10417,"ĠElse":10418,"assertIsNotNone":10419,"noklassniki":10420,"8000":10421,"?'),":10422,"FE":10423,"GU":10424,"IME":10425,"Kal":10426,"NAIL":10427,"PG":10428,"Pipeline":10429,"SC":10430,"]\"":10431,"apest":10432,"bart":10433,"cid":10434,"gr":10435,"jcelery":10436,"ky":10437,"lhs":10438,"ple":10439,"scheduler":10440,"slugs":10441,"uer":10442,"van":10443,"Ã´":10444,"Ġsel":10445,"Ġ'()'":10446,"lected":10447,"Ġrecom":10448,"too":10449,"urli":10450,"Ġpin":10451,"ilink":10452,"Ġsizes":10453,"excluded":10454,"dimensions":10455,"Ġwizard":10456,"Ġwillow":10457,"Ġol":10458,"Ġ(),":10459,"['%":10460,"Ġtoctree":10461,"Christmas":10462,"assertPasses":10463,"assertExpectWidget":10464,"urly":10465,"Ġhistory":10466,"Ġhilite":10467,"parentheses":10468,"pabilities":10469,"formsets":10470,"ĠSTR":10471,"ĠSmart":10472,"ĠAfter":10473,"Ġexits":10474,"caching":10475,"Metadata":10476,"sourcel":10477,"ĠIBAN":10478,"GroupMembership":10479,"exts":10480,"TestSuite":10481,"Ġurlparams":10482,"htmlhelp":10483,"ĠReversionTestModel":10484,"ProjectDomain":10485,"ĠMAX":10486,"ĠOOB":10487,"INVALID":10488,"ĠFix":10489,"Ġpair":10490,"sko":10491,"cie":10492,"Ġgross":10493,"partition":10494,"ĠNE":10495,"ĠBack":10496,"posts":10497,"ITS":10498,"Ġ3600":10499,"ACTER":10500,"Ġobjs":10501,"Ġprefer":10502,"kipping":10503,"phan":10504,"Sets":10505,"ĠGroupMeta":10506,"oursquare":10507,"Ġ2008":10508,"ĠInitial":10509,"selectable":10510,"aka":10511,"headline":10512,"Ġaccessible":10513,"releases":10514,"Ġclsname":10515,"versation":10516,"[:]":10517,"ĠAttemp":10518,"ĠJust":10519,"building":10520,"EXCEP":10521,"DUMMY":10522,"elling":10523,"Ġcmds":10524,"AlterModel":10525,"ĠSets":10526,"ĠSetup":10527,"LIB":10528,"Ġrepresents":10529,"\\\\/":10530,"evil":10531,"cooki":10532,"Ġgenre":10533,"WORDCOUNT":10534,"ĠSearchForm":10535,"Editor":10536,"ĠGenericForeignKey":10537,"AttachmentRevision":10538,"ĠCartItem":10539,"Ġconflict":10540,"Ġexactly":10541,"ĠQuerySetSequence":10542,"Ġreceivers":10543,"sidebars":10544,"Ġfixed":10545,"Ġtyp":10546,"cloud":10547,"ArchiveView":10548,"FLAGS":10549,"ĠSTATUS":10550,"Ġremaining":10551,"OpenID":10552,"TargetModel":10553,"ĠAllows":10554,"ĠMPTTModel":10555,"Ġ14484":10556,"CheckboxSelectMultiple":10557,"relationships":10558,"Ġplural":10559,"xxxxxxxxxxxxxxx":10560,"xedk":10561,"ansport":10562,"Ġautodoc":10563,"Dakota":10564,"ĠCRUDTestViewWith":10565,"ĠBadRequestError":10566,"Ġ1024":10567,".')),":10568,"401":10569,"93":10570,"?',":10571,"Br":10572,"Ki":10573,"SU":10574,"VK":10575,"YPE":10576,"]\",":10577,"blow":10578,"dn":10579,"dont":10580,"during":10581,"han":10582,"har":10583,"iecki":10584,"kra":10585,"lc":10586,"lid":10587,"mor":10588,"mat":10589,"pend":10590,"sal":10591,"tely":10592,"xframe":10593,"yellow":10594,"|:":10595,"ĠON":10596,"ĠBoolean":10597,"Ġ'(":10598,"rev":10599,"orker":10600,"inen":10601,"developer":10602,"dbclass":10603,"Ġredis":10604,"Ġreduce":10605,"Ġredeemer":10606,"Ġpoc":10607,"Ġplease":10608,"nauth":10609,"ulu":10610,"Ġaway":10611,"Ġfmt":10612,"Ġfavicon":10613,"ouche":10614,"taken":10615,"Ġsur":10616,"Ġsay":10617,"Ġincorrect":10618,"Ġimporting":10619,"Ġborder":10620,"dish":10621,"assoc":10622,"proble":10623,"testcase":10624,"typants":10625,"ison":10626,"='<":10627,"Ġduplicates":10628,"izards":10629,"Incorrect":10630,"Recipient":10631,"ĠSafe":10632,"ĠStacktrace":10633,"(\"--":10634,"Userena":10635,"posed":10636,"agic":10637,"ptured":10638,"Ġchapter":10639,"ĠEach":10640,"INCE":10641,"ORG":10642,"ĠĠĠĠĠĠĠĠĠĠĠĠĠĠĠĠĠĠĠĠĠĠĠĠĠĠĠĠĠĠĠĠĠĠĠĠĠĠĠĠĠĠĠĠĠĠĠĠĠĠĠĠĠĠĠ":10643,"Ġpaid":10644,"Ġpaper":10645,"eventuser":10646,"ĠHook":10647,"REGE":10648,"REMOVE":10649,"placements":10650,"ĠNav":10651,"ALI":10652,"Ġprece":10653,"Ġcheckbox":10654,"ĠRating":10655,"phab":10656,"Ġlisted":10657,"'^\\":10658,"servers":10659,"corator":10660,"MSG":10661,"PLA":10662,"AdminView":10663,"({})":10664,"Ġorders":10665,"BaseTest":10666,"money":10667,"mended":10668,"ĠExtension":10669,"Ġ456":10670,"splitlines":10671,"ĠCheckout":10672,"Ġdocumenting":10673,"DoesNotPass":10674,"Ġcommuni":10675,"docname":10676,"20150":10677,"spaces":10678,"Ġleading":10679,"frikaans":10680,"Ġcollect":10681,"CONNECT":10682,"Ġroots":10683,"Ġcompatible":10684,"Ġpoin":10685,"Ġ|=":10686,"Ġtastypie":10687,"ĠpartA":10688,"ProviderAccount":10689,"TERN":10690,"Ġprefixed":10691,"TRY":10692,"senders":10693,"ITEMS":10694,"::).":10695,"Ġidentical":10696,"ĠFileObject":10697,"Ġsupply":10698,"ĠAuthProvider":10699,"instagram":10700,"Ġmonkey":10701,"Ġtoplevel":10702,"ĠIsland":10703,"vouches":10704,"Ġtex":10705,"awson":10706,"(\"/\",":10707,"IMIT":10708,"LOGUE":10709,"ĠOnboardingTask":10710,"MenuItem":10711,"Ġoauthlib":10712,"cancelled":10713,"ĠTopic":10714,"SequenceEqual":10715,"guy":10716,"Ġsectionauthor":10717,"spector":10718,"usablePlugin":10719,"legacy":10720,"smartypants":10721,"Summary":10722,"/{}/'.":10723,"avySelect":10724,"rmtree":10725,"PLAYER":10726,"ĠMEDIA":10727,"GOOGLE":10728,"Ġimmediately":10729,"FUNCTION":10730,"rowsableAPI":10731,"OTOLOGUE":10732,"Ġsheets":10733,"ĠCloseSpider":10734,"SocialSecurityNumberField":10735,"FlavorTests":10736,"Ġmechanism":10737,"martyPants":10738,"Designates":10739,"sourcelink":10740,"cookiecutter":10741,"blowfish":10742,"agicMock":10743,"Ġchapters":10744,"!')":10745,",\\":10746,",)))":10747,"->":10748,"BA":10749,"Ba":10750,"Don":10751,"El":10752,"Fa":10753,"HASH":10754,"IGIN":10755,"Length":10756,"Ng":10757,"Override":10758,"Rou":10759,"SG":10760,"Single":10761,"Snapshot":10762,"Ter":10763,"TENANT":10764,"Va":10765,"[@":10766,"ade":10767,"big":10768,"blink":10769,"cert":10770,"gy":10771,"hilite":10772,"isper":10773,"kn":10774,"pip":10775,"ptests":10776,"utation":10777,"erpt":10778,"infile":10779,"stant":10780,"room":10781,"Ġ\"\"),":10782,"Ġcd":10783,"Ġren":10784,"Ġrevert":10785,"Ġpull":10786,"Ġpsycopg":10787,"ria":10788,"riti":10789,"mapper":10790,"Ġsays":10791,"Ġslice":10792,"Ġbasket":10793,"Ġbulk":10794,"Ġbroken":10795,"()[:":10796,"sic":10797,"disk":10798,"assertDoesNotPass":10799,"Ġmys":10800,"Ġhuman":10801,"Ġdele":10802,"Ġduration":10803,"izing":10804,"Redis":10805,"projectdomain":10806,"ĠSup":10807,"ĠSmartyPants":10808,"ĠPORT":10809,"olski":10810,"Ġtries":10811,"Ġnamedtuple":10812,"UserDefault":10813,"Ġdivision":10814,"scal":10815,"ĠReset":10816,"archar":10817,"ĠMust":10818,"ĠManager":10819,"ĠMultiple":10820,"\">')":10821,"ORIGIN":10822,"ĠFrame":10823,"321":10824,"pardir":10825,"SEPAR":10826,"Ġsuperusers":10827,"dicts":10828,"PageItem":10829,"Ġcaption":10830,"Ġenglish":10831,"marks":10832,"Separ":10833,"ĠGroupCollection":10834,"COD":10835,"ExternalAccount":10836,"books":10837,"Uploaded":10838,"Diff":10839,"ĠPageLink":10840,"sgid":10841,"302":10842,"FilterKey":10843,"Ġ42":10844,"Ġextracted":10845,"Ġsuc":10846,"Ġdocumentclass":10847,"Ġseems":10848,"Ã¸r":10849,"ENDANT":10850,"Ġconfigurable":10851,"CONTA":10852,"Ġtransform":10853,"ĠTemplates":10854,"ĠAPP":10855,"ĠAPIClient":10856,"Submit":10857,"functions":10858,"offi":10859,"Ġdefining":10860,"partA":10861,"Ġdiscover":10862,"ĠTagged":10863,"Ġbuilding":10864,"Ġlevels":10865,"cabot":10866,"DataMigration":10867,"ForObject":10868,"ĠSimpleTestCase":10869,"Ġreferring":10870,"County":10871,"NOMATCH":10872,"lickr":10873,"Ġresolver":10874,"Ġdjadmin":10875,"Ġdjng":10876,"Ġmergetype":10877,"UMENTS":10878,"slack":10879,"mutable":10880,"ĠDataMigration":10881,"compressors":10882,"passing":10883,"Guad":10884,"Versioning":10885,"PlayerDB":10886,"Ġthreading":10887,"Ġentered":10888,"ĠInlinePanel":10889,"ĠSubmissionTypes":10890,"refund":10891,"ĠServerConfig":10892,">[^\\/]+)/(?":10893,"ARGUMENTS":10894,"Directories":10895,"Brazil":10896,"goods":10897,"PRIORITY":10898,"haredMemory":10899,"ĠShort":10900,"inyMCE":10901,"REGION":10902,"Ġbrowser":10903,"ĠTRANSLATED":10904,"deleter":10905,"Fixture":10906,"ĠManyToMany":10907,"LOGGING":10908,"Ġchooser":10909,"Ġregardless":10910,"ĠJavaScript":10911,"Ġtypographically":10912,"rowsableAPIRenderer":10913,"/(\\":10914,";'":10915,"Destroy":10916,"Fg":10917,"GRE":10918,"Home":10919,"Kar":10920,"MX":10921,"MONTH":10922,"Mexico":10923,"Nested":10924,"OOB":10925,"Red":10926,"Stacktrace":10927,"Tuple":10928,"]')":10929,"bc":10930,"bre":10931,"cle":10932,"cutoff":10933,"dating":10934,"gzip":10935,"ji":10936,"lru":10937,"pub":10938,"written":10939,"Ãĸ":10940,"Ġ99":10941,"Ġhold":10942,"Ġquick":10943,"erk":10944,"reject":10945,"inner":10946,"tively":10947,"ley":10948,"Ġcra":10949,"Ġfactor":10950,"Ġthird":10951,"Ġscrapy":10952,"lorem":10953,"extent":10954,"sian":10955,"Ġwatch":10956,"unc":10957,"unresolved":10958,"progress":10959,"concrete":10960,"consumer":10961,"Chi":10962,"Ġhis":10963,"Ġdriver":10964,"classname":10965,"ubject":10966,"Inst":10967,"Regi":10968,"ĠSSL":10969,"=\"#":10970,"fileobject":10971,"esting":10972,"olve":10973,"ĠCore":10974,"Ġusernames":10975,"Ġttype":10976,"elements":10977,"Progress":10978,"there":10979,"thern":10980,"ĠIgnore":10981,"ĠDoes":10982,"ĠDrop":10983,"filtering":10984,"Ġdedent":10985,"ModelResource":10986,"wordcount":10987,"ENCOD":10988,"ĠMX":10989,"ĠMin":10990,"ĠOffline":10991,"Ġ{}))":10992,"Ġguess":10993,"Ġrpt":10994,"0101":10995,"precompiler":10996,"ĠNon":10997,"ĠBlock":10998,"ditCard":10999,"checked":11000,"LEASE":11001,"Ġweight":11002,"UTES":11003,"reement":11004,"searching":11005,"compare":11006,"inea":11007,"Exit":11008,"wagtailredirects":11009,"ĠInsert":11010,"ĠPages":11011,"menutree":11012,"Ġformatting":11013,"'.\"":11014,"UNIC":11015,"staticmethod":11016,"Ġpublisher":11017,"Ġsearchdata":11018,"Star":11019,"Ġaccessor":11020,"AddForm":11021,"+)/(?":11022,"ĠVAL":11023,"ENDERER":11024,"Ġcarts":11025,"Ġ'/')":11026,"uids":11027,"Ġsomeone":11028,"Ġmarkers":11029,"initialize":11030,"United":11031,"general":11032,"BACKS":11033,"alian":11034,"Ġminimal":11035,"finite":11036,"simplepage":11037,"Ġlocalize":11038,"CACHES":11039,"00000000":11040,"Ġflatten":11041,"Ġflatatt":11042,"WORK":11043,"feeds":11044,"Ġactivated":11045,"elisting":11046,"FFFF":11047,"ĠWhere":11048,"ociation":11049,"ĠOrderedInsertion":11050,"Ġoccur":11051,"Ġcsv":11052,"ĠSETT":11053,"IFY":11054,"ĠRenders":11055,"ĠLinkBlock":11056,"('^(?":11057,"Santa":11058,"difference":11059,"SignupForm":11060,"Ġdescendant":11061,"SAMPLE":11062,"Ġ'*'":11063,"quickstart":11064,"favorites":11065,"capital":11066,"REFERER":11067,"Ġnetwork":11068,"FollowUp":11069,"virtualfolder":11070,"CHARACTER":11071,"ĠInstagram":11072,"ussian":11073,"LAST":11074,"tradehandler":11075,"completed":11076,"shorten":11077,"imiter":11078,"ĠProviderAccount":11079,"vinces":11080,"Ġentire":11081,"jacking":11082,"DESCENDANT":11083,"sistency":11084,"TestSuiteRunner":11085,"DESCENDANTS":11086,"+|":11087,"420":11088,"Ban":11089,"Call":11090,"Cay":11091,"EE":11092,"IFI":11093,"Job":11094,"Ko":11095,"Mer":11096,"NEL":11097,"Pay":11098,"Soup":11099,"Stock":11100,"]',":11101,"ei":11102,"earch":11103,"fast":11104,"gz":11105,"lur":11106,"multipart":11107,"nal":11108,"sProperties":11109,"uit":11110,"ugettext":11111,"vad":11112,"war":11113,"who":11114,"window":11115,"Ġder":11116,"Ġkw":11117,"Ġarchive":11118,"Ġ'#":11119,"reorder":11120,"ined":11121,"sey":11122,"sekizai":11123,"leaf":11124,"fieldsets":11125,"ulates":11126,"Ġafrikaans":11127,"Ġflow":11128,"Ġthus":11129,"illa":11130,"ended":11131,"Ġsile":11132,"Ġsld":11133,"nop":11134,"Ġbasi":11135,"'))),":11136,"Ġwish":11137,"']],":11138,"quot":11139,"vited":11140,"Ġforget":11141,"isdir":11142,"asily":11143,"Ġdjangocms":11144,"ĠSI":11145,"ĠSpa":11146,"ĠSER":11147,"ĠScheduler":11148,"Ġstory":11149,"Ġconditional":11150,"Ġeasily":11151,"ĠPAGE":11152,"ĠPoll":11153,"mbia":11154,"xim":11155,"Ġprofiles":11156,"acls":11157,"(\"#":11158,"ĠCode":11159,"ĠCalcul":11160,"Ġ*@":11161,"Ġnor":11162,"health":11163,"tpar":11164,"agre":11165,")._":11166,"occ":11167,"Ġdisk":11168,"Ġdirection":11169,"Ġsense":11170,"Ġdeepcopy":11171,"Ġfilesystem":11172,"ĠReplace":11173,"FormDefinition":11174,"Ġlat":11175,"ĠMIDDLEWARE":11176,"ĠLast":11177,"ĠEnglish":11178,"ĠĠĠĠĠĠĠĠĠĠĠĠĠĠĠĠĠĠĠĠĠĠĠĠĠĠĠĠĠĠĠĠĠĠĠĠĠĠĠĠĠĠĠĠĠĠĠĠĠĠĠĠĠĠĠĠĠĠĠĠ":11179,"REL":11180,"Ġacc":11181,"crease":11182,"Ġsoft":11183,"ĠTheme":11184,"GEONODE":11185,"tenance":11186,"ACTIONS":11187,"Ġprecision":11188,"rence":11189,"Ġsubdir":11190,"Ġlikely":11191,"compatibility":11192,"storeType":11193,"Authenticated":11194,"ASSIGN":11195,"CODES":11196,"Ġjsonify":11197,"Ġchars":11198,"Ġaccessory":11199,"ĠVerify":11200,"Argument":11201,"earer":11202,"2016":11203,"Ġaddition":11204,"Ġlinked":11205,"Ġcollector":11206,"epub":11207,"Ġmoment":11208,"oauthlib":11209,"ĠAPNS":11210,"Ġpyflakes":11211,"whitespace":11212,"EXPORT":11213,"ChoiceFilter":11214,"Ġapplications":11215,"3333":11216,"extends":11217,"DJSTRIPE":11218,"Ġinclusive":11219,"Ġ&=":11220,"TreeTestCase":11221,"ĠViews":11222,"AssertionError":11223,"MTP":11224,"ĠPropertyGroup":11225,"Ġsummary":11226,"ĠAssign":11227,"Ġsymmetrical":11228,"Short":11229,"Ġvarname":11230,"vides":11231,"ĠBusinessChild":11232,"Ġattempts":11233,"ĠErrorList":11234,"Ġrecogn":11235,"ĠRedirectView":11236,"SKIP":11237,"strumented":11238,"Ġ--------------------------------------------":11239,"Parameters":11240,"bobby":11241,"Ġ1448":11242,"Ġdidn":11243,"ĠFRAME":11244,"Greater":11245,"Ġpercentage":11246,"inheritance":11247,"IGNORECASE":11248,"affecteduser":11249,"edited":11250,"ĠSensitiveData":11251,"NORMAL":11252,"DjangoModelFactory":11253,"lawrence":11254,"UploadedFile":11255,"sPropertiesRelation":11256,"'\")":11257,"Bearer":11258,"CES":11259,"Categories":11260,"Celery":11261,"Gallery":11262,"Google":11263,"HR":11264,"Jer":11265,"NON":11266,"Router":11267,"SV":11268,"SCR":11269,"Step":11270,"ami":11271,"border":11272,"black":11273,"ech":11274,"ght":11275,"lft":11276,"lators":11277,"slo":11278,"uous":11279,"}|":11280,"Å½":11281,"Ġss":11282,"Ġzone":11283,"elasticsearch":11284,"Ġ''))":11285,"regression":11286,"tener":11287,"insensitive":11288,"deserialize":11289,"tick":11290,"mend":11291,"than":11292,"arison":11293,"Ġcell":11294,"Ġpat":11295,"Ġplay":11296,"Ġage":11297,"ilers":11298,"Ġsb":11299,"Ġsit":11300,"userdata":11301,"Ġintended":11302,"quen":11303,"quent":11304,"Ġbcc":11305,"Ġbank":11306,"Ġwidont":11307,"prop":11308,"assertQueryset":11309,"assertSequenceEqual":11310,"isable":11311,"raven":11312,"Ġmk":11313,"Ġmce":11314,"ĠTags":11315,"ĠTumblr":11316,"Ġ}]":11317,"ĠAvatar":11318,"=\"_":11319,"amel":11320,"ĠCard":11321,"Ġng":11322,"tric":11323,"Ġdev":11324,"ModelSelect":11325,"Ġassertion":11326,"Ġverb":11327,"ĠLO":11328,"ĠLFS":11329,"ĠFin":11330,"URAL":11331,"ViewRestriction":11332,"REDIS":11333,"ardown":11334,"ĠBound":11335,"reader":11336,"fours":11337,"ĠRect":11338,"ValueHiddenInput":11339,"ĠGroupTagKey":11340,"External":11341,"FIRST":11342,"monitor":11343,"Ġshall":11344,"folderpermission":11345,"([^":11346,"Ġpersistent":11347,"workflow":11348,"Ġrespect":11349,"flake":11350,"Ġyourself":11351,"HOOK":11352,"Ġsaves":11353,"Ġruntime":11354,"FAIL":11355,"carts":11356,"TemplateResponseMixin":11357,"SearchField":11358,"Ġsends":11359,"DOC":11360,"thead":11361,"Translate":11362,"factor":11363,"Ġhours":11364,"ĠJan":11365,"EXTRA":11366,"ĠJSONRenderer":11367,")]]":11368,"Ġoverrides":11369,"Ġiterator":11370,"Ġworker":11371,"Ġeveryone":11372,"Ġnormalise":11373,"8859":11374,"Updates":11375,"SHIPPING":11376,"ĠCharFilter":11377,"koski":11378,"Ġindic":11379,"Ġcatalogue":11380,"ĠAdvert":11381,"Saver":11382,"SettingsForm":11383,"Ġinheritance":11384,"Preview":11385,"Processor":11386,"ĠMySQL":11387,"('.//":11388,"rollback":11389,"guide":11390,"failures":11391,"loggedin":11392,"ĠRaises":11393,"SHOW":11394,"ĠACCESS":11395,"ĠACCOUNT":11396,"WARNING":11397,"passes":11398,">[^/]*)":11399,"Turk":11400,"SCRIPT":11401,"REVISIONS":11402,"enium":11403,"FACEBOOK":11404,"existent":11405,"ALIAS":11406,"PLAIN":11407,"ĠGroupCollectionPermission":11408,"DirectoriesFinder":11409,"ĠSETTINGS":11410,"assertQuerysetEqual":11411,"foursquare":11412,")[:":11413,"/$\",":11414,"AMA":11415,"Avatar":11416,"Clo":11417,"Day":11418,"DeliveryTime":11419,"East":11420,"Extra":11421,"FER":11422,"How":11423,"JK":11424,"Live":11425,"MEN":11426,"Mix":11427,"Missing":11428,"Non":11429,"OURCE":11430,"Pop":11431,"Scoped":11432,"UA":11433,"Ug":11434,"WH":11435,"]*":11436,"_)":11437,"air":11438,"cn":11439,"easy":11440,"fro":11441,"filing":11442,"ibo":11443,"kok":11444,"nr":11445,"nicki":11446,"pdf":11447,"rat":11448,"rgin":11449,"Å¾":11450,"ĠDateTime":11451,"ĠVi":11452,"ĠValues":11453,"ĠURI":11454,"rep":11455,"inbound":11456,"seq":11457,"seek":11458,"deepcopy":11459,"roke":11460,"routes":11461,"Ġ\")":11462,"dbobj":11463,"Ġremoving":11464,"Ġrecie":11465,"Ġpg":11466,"lim":11467,"Ġinsert":11468,"Ġintegration":11469,"Ġbinary":11470,"sively":11471,"ckeditor":11472,"disp":11473,"direction":11474,"Ġwild":11475,"verb":11476,"proc":11477,"assertView":11478,"race":11479,"Ġhello":11480,"ĠTemp":11481,"Ġdraw":11482,"Integration":11483,"ĠScore":11484,"Ġcontin":11485,"filesystem":11486,"codeError":11487,"Ġbeh":11488,"listdir":11489,"ĠDU":11490,"Ġ\"'%":11491,"Ġsecure":11492,"scmd":11493,"attrname":11494,"lyr":11495,"ATTR":11496,"Ġdatastore":11497,"ENCE":11498,"Ġgoes":11499,"125":11500,"Ġwhy":11501,"Contrib":11502,"Ġresulting":11503,"ĠNor":11504,"ĠNeed":11505,"Ġunregister":11506,"Ġunpublish":11507,"Ġunquote":11508,"Ġraises":11509,"Ġmask":11510,"statistics":11511,"ICT":11512,"Ġnewly":11513,"={})":11514,"ĠRandom":11515,"renders":11516,"components":11517,"compressed":11518,"compilers":11519,"collation":11520,"colors":11521,"PLY":11522,"icker":11523,"apns":11524,"MODI":11525,"([])":11526,"EmailForm":11527,"EmailAddress":11528,"UNI":11529,"automatic":11530,"Ġsearching":11531,"runtests":11532,"ĠVAR":11533,"Configuration":11534,"Ġadvanced":11535,"Ġcompile":11536,"Ġ|-":11537,"templated":11538,"QUANT":11539,"StatusSnapshot":11540,"opengis":11541,"ĠOrganizationOption":11542,"factories":11543,"uploads":11544,"STATES":11545,"Ġtraversing":11546,"ĠSequence":11547,"12345":11548,"0006":11549,"customfield":11550,"ibling":11551,"letters":11552,"tcard":11553,"rtd":11554,"djng":11555,"Ġ}}')":11556,"Ġsku":11557,"makedirs":11558,"NODE":11559,"Ġreflection":11560,"Ġwebsite":11561,"PROJECTS":11562,"ĠSearchFilter":11563,"Compress":11564,"egal":11565,"ĠPOOTLE":11566,"music":11567,"discounts":11568,"bitcoin":11569,"Sao":11570,"GRATION":11571,"Preprocessor":11572,"DISABLE":11573,"Ġavatars":11574,"Ġmixins":11575,"riding":11576,"8601":11577,"Tracking":11578,"ĠTreeForeignKey":11579,"ĠVoucherGroup":11580,"Ġ--------------------------------------------------":11581,"recurring":11582,"autodoc":11583,"Ġshared":11584,"METHODS":11585,"ĠScriptDB":11586,"ĠCounty":11587,"Role":11588,"********":11589,"AEAEAEAEAEAEAEAE":11590,"SampleApp":11591,"ĠMoneyField":11592,"WIDTH":11593,"ĠCurrentSubscription":11594,"ĠDATABASE":11595,"Ġfigure":11596,"GDC":11597,"administrate":11598,"VISIBLE":11599,"FINDERS":11600,"MANAGERS":11601,"ouchee":11602,"ĠPORTAL":11603,"QUANTITY":11604,"!'":11605,"(\",":11606,")`":11607,",\\\\":11608,";\"":11609,"CU":11610,"Cg":11611,"Cal":11612,"Col":11613,"CIM":11614,"GAME":11615,"Hyperlinked":11616,"Lat":11617,"MG":11618,"Mart":11619,"MASK":11620,"NT":11621,"Ni":11622,"Pin":11623,"SIT":11624,"Ta":11625,"Vector":11626,"Wiki":11627,"Wizard":11628,"czy":11629,"dam":11630,"ef":11631,"eta":11632,"fc":11633,"gar":11634,"given":11635,"iro":11636,"isplay":11637,"ience":11638,"jor":11639,"nan":11640,"natural":11641,"ptime":11642,"rk":11643,"rumb":11644,"tstamp":11645,"vendor":11646,"varchar":11647,"wb":11648,"}?":11649,"era":11650,"Ġ'|":11651,"Ġ'..":11652,"Ġ'').":11653,"rec":11654,"tearDown":11655,"onboarding":11656,"incomplete":11657,"anc":11658,"ante":11659,"',))":11660,"deconstruct":11661,"thed":11662,"threshold":11663,"alive":11664,"gend":11665,"('.'))":11666,"odies":11667,"ango":11668,"Ġpv":11669,"nada":11670,"Ġfragment":11671,"getter":11672,"upgrade":11673,"Ġsuggested":11674,"notice":11675,"Ġblack":11676,"vertical":11677,"Choose":11678,"ismatch":11679,"ĠTABLE":11680,"groupmembership":11681,"asa":11682,"asc":11683,"permanent":11684,"ĠSto":11685,"ĠStr":11686,"ĠSuperuser":11687,"Ġepoch":11688,"Ġevalu":11689,"ĠAS":11690,"ĠArab":11691,"capture":11692,"Ġum":11693,"ĠCHE":11694,"viewname":11695,"tripe":11696,"trize":11697,"indexed":11698,"ĠDynamic":11699,"ĠDescription":11700,"arts":11701,"strup":11702,"scor":11703,"pically":11704,"Ġfilepath":11705,"Ġcopies":11706,"ENNIA":11707,"STEP":11708,"ĠEnd":11709,"ĠFGDC":11710,"ĠGive":11711,"atorModel":11712,"Ġgod":11713,"129":11714,"Ġrp":11715,"RED":11716,"Ġannotation":11717,"Ġtemplatetag":11718,"##############################":11719,"Ġ@@":11720,"ĠNe":11721,"ĠBlog":11722,"DECIM":11723,"Ġapplicable":11724,"bygroup":11725,"ableItem":11726,"Ġabs":11727,"Ġenforce":11728,"Department":11729,"ĠUP":11730,"compose":11731,"Ġ``````````````````":11732,"Ġanymore":11733,"COE":11734,"appro":11735,"ĠExp":11736,"EventID":11737,"Ġ401":11738,"Ġcodecs":11739,"ĠDevelopment":11740,"Ġredirects":11741,"Optional":11742,"ongo":11743,"Ġroute":11744,"PROTOCOL":11745,"Ġdelay":11746,"Ġmoving":11747,"tends":11748,"Ġcounts":11749,"Ġcountries":11750,"monthly":11751,"Ġhour":11752,"THON":11753,"ranch":11754,"AddressForm":11755,"Ġcmdname":11756,"signalcommand":11757,"ufacturers":11758,"periods":11759,"ĠArticleBlock":11760,"Ordered":11761,"Ġtopseller":11762,"ceptable":11763,"FILEBROWSER":11764,"NOINPUT":11765,"MBED":11766,"depends":11767,"Ġspam":11768,"NOTIFICATION":11769,"RIDE":11770,"ĠXML":11771,"ĠPRODUCT":11772,"Ġ'''{%":11773,"Ġyears":11774,"ĠCompiler":11775,"GRANT":11776,"Regexp":11777,"CANCEL":11778,"Processing":11779,"qualitycheck":11780,"Ġoptpar":11781,"Ġ---------------------------------------------------":11782,"parametrize":11783,"Limit":11784,"respond":11785,"OGC":11786,"randint":11787,"SubmissionTypes":11788,"CRIPTION":11789,"Browser":11790,"Ġsimilarity":11791,"quotas":11792,"Ġcompletely":11793,"LOADERS":11794,"siblings":11795,"Markdown":11796,"ordinate":11797,"Confirmation":11798,"Ġconsidered":11799,"unauthorized":11800,"GeoNode":11801,"PROVID":11802,"lapse":11803,"FileSystemFinder":11804,"Ġscenario":11805,"clipboards":11806,"Porto":11807,"AwareS":11808,"pennersr":11809,"autifulSoup":11810,"Ġrecommended":11811,"problems":11812,"Ġrendition":11813,"CountySelect":11814,"haredMemoryModel":11815,"ximum":11816,"affecteduserbygroup":11817,"thedocs":11818,"ĠCHECK":11819,"DECIMAL":11820,"Ġoptparse":11821,"-]+":11822,"144":11823,"?\\":11824,"AU":11825,"BB":11826,"Bot":11827,"DK":11828,"Dj":11829,"Dar":11830,"HH":11831,"Host":11832,"Mad":11833,"Mount":11834,"OD":11835,"SEND":11836,"Switch":11837,"Scraped":11838,"Tok":11839,"Tenant":11840,"UI":11841,"aid":11842,"ather":11843,"bum":11844,"csp":11845,"coder":11846,"dv":11847,"due":11848,"ez":11849,"hu":11850,"ipe":11851,"ku":11852,"ox":11853,"pwd":11854,"vrules":11855,"Ð°":11856,"à®":11857,"elon":11858,"repo":11859,"regular":11860,"retries":11861,"orse":11862,"orry":11863,"inv":11864,"anspa":11865,"sto":11866,"detect":11867,"timer":11868,"mes":11869,"metrics":11870,"('#":11871,"fieldname":11872,"Ġretry":11873,"Ġrespec":11874,"Ġpic":11875,"Ġpolymorphic":11876,"Ġfood":11877,"ingo":11878,"ouban":11879,"mazon":11880,"chbox":11881,"limited":11882,"Ġincoming":11883,"cos":11884,"Ġba":11885,"Ġbind":11886,"\",)":11887,"extenders":11888,"uncached":11889,"']).":11890,"['_":11891,"__'":11892,"____":11893,"Ġtopics":11894,"vik":11895,"Ġmiddle":11896,"Ġmigrate":11897,"Ġhaystack":11898,"Ġhyph":11899,"ĠTab":11900,"Initial":11901,"alleries":11902,"ĠPin":11903,"ĠPut":11904,"ĠPath":11905,"mentation":11906,"Ġextended":11907,"acc":11908,"Ġutili":11909,"ĠCss":11910,"ĠCATEGORY":11911,"viewset":11912,"Ġns":11913,"ERARCH":11914,"soft":11915,"ĠDa":11916,"ĠDublin":11917,"Ġdistinct":11918,"Ġdiscussion":11919,"strptime":11920,"Ġ)[":11921,"ĠMsg":11922,"ĠMain":11923,"ĠOB":11924,"Vien":11925,"ĠGROUP":11926,"ĠĠĠĠĠĠĠĠĠĠĠĠĠĠĠĠĠĠĠĠĠĠĠĠĠĠĠĠĠĠĠĠĠĠĠĠĠĠĠĠĠĠĠĠĠĠĠĠĠĠĠĠĠ":11927,"ĠĠĠĠĠĠĠĠĠĠĠĠĠĠĠĠĠĠĠĠĠĠĠĠĠĠĠĠĠĠĠĠĠĠĠĠĠĠĠĠĠĠĠĠĠĠĠĠĠĠĠĠĠĠĠĠĠĠ":11928,"skill":11929,"clients":11930,"Ġguar":11931,"Conf":11932,"Ġanaly":11933,"ford":11934,"prefer":11935,"ĠNul":11936,"subtitle":11937,"ICAL":11938,"ĠUsers":11939,"ĠUserOption":11940,"ĠUserSettings":11941,"symbol":11942,"ACH":11943,"PageAdmin":11944,"Ġencoded":11945,"arian":11946,"CHED":11947,"PLURAL":11948,"ĠGroupResolution":11949,"Ġmodifiers":11950,"PluginModel":11951,"orgia":11952,"suite":11953,"UNK":11954,"TEMP":11955,"begin":11956,"Accept":11957,"criptor":11958,"Ġadvert":11959,"Copy":11960,"IPEL":11961,".\").":11962,"atermark":11963,"QueryDict":11964,"These":11965,"----------------------------------------------":11966,"AppDirectoriesFinder":11967,"shown":11968,"ĠUnknown":11969,"STATS":11970,"iterable":11971,"ĠOrderingFilter":11972,"Carousel":11973,"OAuthAdapter":11974,"ĠPermissions":11975,"netloc":11976,"FILER":11977,"Ġ90":11978,"ĠCMSTestCase":11979,"5555":11980,"ResourceBase":11981,"Releases":11982,"Paris":11983,"parsers":11984,"tesIO":11985,"Advert":11986,"ĠFieldDoesNotExist":11987,"excerpt":11988,"deploy":11989,"connections":11990,"vouchers":11991,"ĠWagtailAdmin":11992,"SHARED":11993,"\\.\\":11994,"Ġ'?'":11995,"MappingType":11996,"ĠCompatibility":11997,"Height":11998,"DESCRIPTION":11999,"ikilink":12000,"Urls":12001,"ĠCannot":12002,"restrictions":12003,"Ġassumed":12004,"Descriptor":12005,"smartcard":12006,"Ġbeginning":12007,"Ġfeatured":12008,"ĠFakeRequest":12009,"pairs":12010,"eaeaeaeaeaeaeaea":12011,"ĠBootstrap":12012,"CII":12013,"txn":12014,"ĠFeder":12015,"ĠAngular":12016,"THUMBNAIL":12017,"fuscate":12018,"ĠNestedSerializer":12019,"ĠDUMMY":12020,"ansparent":12021,"ERARCHY":12022,"'(?":12023,"(-":12024,"-/_":12025,".'.":12026,"/+/":12027,"044":12028,"101":12029,":],":12030,"?\")":12031,"BN":12032,"FY":12033,"Go":12034,"Hol":12035,"Kra":12036,"Kent":12037,"Mont":12038,"Moder":12039,"OS":12040,"Of":12041,"Other":12042,"Owner":12043,"PT":12044,"Stack":12045,"Ver":12046,"cards":12047,"crontab":12048,"eu":12049,"each":12050,"gm":12051,"gn":12052,"human":12053,"isi":12054,"jÃ¤":12055,"mith":12056,"nski":12057,"ove":12058,"|{":12059,"Ã±":12060,"Ñģ":12061,"Ġends":12062,"ĠERROR":12063,"ervice":12064,"reusable":12065,"inski":12066,"inica":12067,"','":12068,"Ġ[[":12069,"mpo":12070,"Ġpear":12071,"Ġfr":12072,"Ġthumb":12073,"takes":12074,"Ġslave":12075,"Ġsibling":12076,"setattr":12077,"exif":12078,"exits":12079,"')[:":12080,"Ġwants":12081,"Ġwritten":12082,"protect":12083,"ewski":12084,"ĠTH":12085,"ĠTIME":12086,"ĠStep":12087,"Ġconsole":12088,"Ġconsistency":12089,"ĠAjax":12090,"ĠPRI":12091,"pageuser":12092,"Ġuids":12093,"Ġtup":12094,"Ġtell":12095,"Ġnargs":12096,"elephone":12097,"etc":12098,"GroupStatus":12099,"GroupCountByMinute":12100,"filterable":12101,"strument":12102,"Ġsess":12103,"ModelBackend":12104,"ĠMac":12105,"ĠOper":12106,"ĠLOG":12107,"ĠEg":12108,"ĠEvery":12109,"ĠFun":12110,"ĠĠĠĠĠĠĠĠĠĠĠĠĠĠĠĠĠĠĠĠĠĠĠĠĠĠĠĠĠĠĠĠĠĠĠĠĠĠĠĠĠĠĠĠĠĠĠĠĠĠĠĠĠĠ":12111,"ĠHACK":12112,"Ġrace":12113,"partials":12114,"SED":12115,"ĠBasket":12116,"Ġunvouched":12117,"Ġunhilite":12118,"Ġcanonical":12119,"ĠWiki":12120,"Ġweapon":12121,"Ġvfti":12122,"ACES":12123,"readthedocs":12124,"reek":12125,"ĠProxy":12126,"ĠRo":12127,"rendering":12128,"Ġtypeclasses":12129,"NotAllowed":12130,"SetMeta":12131,"Ġgender":12132,"ourg":12133,"...\"":12134,"infos":12135,"zeug":12136,"mond":12137,"MAIN":12138,"refetch":12139,"Quick":12140,"ĠConcrete":12141,"suid":12142,"Ġsystems":12143,"Ġpersisted":12144,"Ġposts":12145,"nodetext":12146,"Adds":12147,"ĠVote":12148,"Ġdoctree":12149,"Ġ'/',":12150,"Ġgenerally":12151,"Ġcompare":12152,"allows":12153,"ImageRevision":12154,"RequestError":12155,"ĠBaseManager":12156,"PEG":12157,"Ġquoted":12158,"photosize":12159,"atis":12160,"ĉĉĉĉ":12161,"THER":12162,"crud":12163,"Ġfinders":12164,"CREATED":12165,"ĠObjectList":12166,"ArticleMixin":12167,"environment":12168,"RelatedLink":12169,"Ġexpand":12170,"Ġdirty":12171,"ĠArticleMixin":12172,"Forum":12173,"XXXXXXXX":12174,"NOWN":12175,"browserid":12176,"Ġ'-'":12177,"Ġpreviously":12178,"ĠKeyword":12179,">.*)":12180,"IDDEN":12181,"Ġgenres":12182,"Deletes":12183,"followers":12184,"awski":12185,"Ġsignalcommand":12186,"pingbacks":12187,"Ġoccurs":12188,"ĠPROJECT":12189,"ignored":12190,"descending":12191,"ĠVERSIONS":12192,"DATASTORE":12193,"StringIO":12194,"Move":12195,"MENTS":12196,"ĠDisplays":12197,"Ġ-----------------------------------------------------":12198,"FORMATS":12199,"Ġtwice":12200,"}.{":12201,"Ġproviding":12202,"oupon":12203,"ĠStaticPlaceholder":12204,"ĠDummyModel":12205,"Ġtablib":12206,"FileBlobIndex":12207,"MULTISESSION":12208,"FUNC":12209,"General":12210,"Ġmimetype":12211,"readedcomments":12212,"PRIV":12213,"HIERARCHY":12214,"EXPIRE":12215,"sanitize":12216,"cccccccccccccccc":12217,"/./+/":12218,"ĠQueryDict":12219,"Discount":12220,"discussions":12221,"Successfully":12222,"RateThrottle":12223,"attempt":12224,"IDENTIFI":12225,"pagerefs":12226,"dwf":12227,"OFFLINE":12228,"radesh":12229,"Ġalternative":12230,"INHERITANCE":12231,"scalation":12232,"VectorBuilder":12233,"Ġ@@@":12234,"Ġguarante":12235,"/./+/-/_":12236,"%}":12237,"'{%":12238,")\"\"\"":12239,"816":12240,"97":12241,"Bog":12242,"DOT":12243,"Drop":12244,"Fact":12245,"Green":12246,"Imm":12247,"JAX":12248,"LONG":12249,"Lower":12250,"Nou":12251,"Nonce":12252,"OO":12253,"Pol":12254,"PID":12255,"PIPE":12256,"PeriodicTask":12257,"PAGINATION":12258,"Sho":12259,"Suggestion":12260,"Scheduler":12261,"Superuser":12262,"Tutorial":12263,"Verify":12264,"YE":12265,"ache":12266,"aven":12267,"clock":12268,"dnoklassniki":12269,"lj":12270,"latable":12271,"omp":12272,"ostring":12273,"offer":12274,"pid":12275,"rv":12276,"svg":12277,"tbody":12278,"wski":12279,"{'":12280,"ÄĻ":12281,"Ġlow":12282,"Ġ64":12283,"orcid":12284,"intern":12285,"included":12286,"inymce":12287,"sess":12288,"declarations":12289,"tif":12290,"tian":12291,"rozen":12292,"gender":12293,"Ġidea":12294,"cture":12295,"Ġ\"+":12296,"Ġ\".\"":12297,"Ġ\"\"))":12298,"attrib":12299,"Ġcut":12300,"Ġcutoff":12301,"Ġrename":12302,"anger":12303,"Ġaffect":12304,"Ġfname":12305,"Ġthreshold":12306,"may":12307,"maSepar":12308,"Ġsdist":12309,"Ġslugs":12310,"lizer":12311,"usersettings":12312,"logs":12313,"Ġblog":12314,"Ġwalk":12315,"unsigned":12316,"Ġopp":12317,"Ġ(?":12318,"provi":12319,"luster":12320,"fied":12321,"timetuple":12322,"ounties":12323,"ratio":12324,"Ġmud":12325,"Ġhence":12326,"Ġhpos":12327,"Ġdynamically":12328,"ubmit":12329,"formdefinition":12330,"0013":12331,"ĠSUGG":12332,"ĠAfri":12333,"ĠPK":12334,"captured":12335,"Ġunt":12336,"DateInput":12337,"shirt":12338,"endly":12339,"ĠItem":12340,"Ġask":12341,"Ġdice":12342,"Ġdimensions":12343,"Ġdead":12344,"Ġdeci":12345,"Ġverification":12346,"Ġlxml":12347,"ĠMail":12348,"STE":12349,"STACK":12350,"STANCE":12351,"STANDARD":12352,"pkg":12353,"Bootstrap":12354,"Ġclassnames":12355,"REVIEW":12356,"Ġraven":12357,"paragraph":12358,"prepare":12359,"curdir":12360,"ĠUserAdmin":12361,"Ġ34":12362,"uglify":12363,"Ġ`~":12364,"Ġreversed":12365,"Ġlogs":12366,"ĠProduction":12367,"APH":12368,"dirpath":12369,"ĠUr":12370,"Ġ[]))":12371,"Ġtypename":12372,"modifier":12373,"ValueValidator":12374,"criterion":12375,"DIG":12376,"Ġcredit":12377,"ValidOrigin":12378,"appear":12379,"Alpha":12380,"hashers":12381,"Ġupper":12382,"akers":12383,"Ġpostgres":12384,"UNRESOLVED":12385,"Ġsuite":12386,"oolkit":12387,"Ġuniqueness":12388,"doe":12389,"Ġruns":12390,"Ġbucket":12391,"Ġtagging":12392,"Args":12393,"Ġkill":12394,"Ġauthorized":12395,"Ġcompany":12396,"Ġcomponent":12397,"Ġcomponents":12398,"localize":12399,"Images":12400,"interactive":12401,"readyRegistered":12402,"MODELS":12403,"ĠOrderBy":12404,"Ġstatement":12405,"ranc":12406,"Ġdont":12407,"offers":12408,"IndexPage":12409,"CREATE":12410,"ĠObjects":12411,"Ġlocalhost":12412,"failUnless":12413,"ĠSubscribe":12414,"ĠCustomerMock":12415,"InlineAdmin":12416,"Ġdirnames":12417,"stdkwargs":12418,"Ġnegative":12419,"ĠSerializ":12420,"3600":12421,"Weblog":12422,"evo":12423,"Ġqn":12424,"RequiredView":12425,"centroid":12426,"Ġtick":12427,"Ġzipfile":12428,"PhoneField":12429,"sented":12430,"raphite":12431,"includes":12432,"ĠSTATE":12433,"('-',":12434,"Ġpurposes":12435,"CardNumberField":12436,"Ġcookies":12437,"COMMAND":12438,"ADMINS":12439,"tectedResource":12440,"ĠSocialAccount":12441,"CHECKBOX":12442,"reviewed":12443,"Ġtrial":12444,"iscoverRunner":12445,"ĠActions":12446,"ĠEventPageForm":12447,"napshots":12448,"Ġdiscounts":12449,"PHOTOLOGUE":12450,"ParentModel":12451,"Ġremainder":12452,"struction":12453,"Ġfilelisting":12454,"ĠQuality":12455,"bedInterface":12456,"ĠSyncMock":12457,"ĠCreditCard":12458,"SOCKET":12459,"Ġwaiting":12460,"ffffffff":12461,"ĠTESTLANG":12462,"QUEUE":12463,"ĠPortlet":12464,"mbolizer":12465,"Ġrepeated":12466,"Ġgreater":12467,"ĠCOMP":12468,"ucky":12469,"Confirm":12470,"todo":12471,"MARKUP":12472,"ĠSHA":12473,"LEVELS":12474,"Eastern":12475,"hackpad":12476,"ĠTerrit":12477,"|$)":12478,"AlterModelOptions":12479,"DestroyAPIView":12480,"ProgressBar":12481,"ENCODING":12482,"ĠAPNSDevice":12483,"mendations":12484,"quences":12485,"MENU":12486,"UNIQUE":12487,"ScrapedObj":12488,"IPELINE":12489,"maSeparated":12490,"!!":12491,"\"[":12492,"\"(%":12493,")()":12494,",%":12495,"/[":12496,"/$'":12497,"301":12498,"360":12499,"550":12500,"825":12501,";',":12502,"AVE":12503,"Another":12504,"Blan":12505,"Billing":12506,"Car":12507,"Duration":12508,"EG":12509,"EAD":12510,"Fr":12511,"Function":12512,"Global":12513,"GRESS":12514,"HM":12515,"LV":12516,"Les":12517,"Look":12518,"PA":12519,"PF":12520,"Sing":12521,"Stable":12522,"Safe":12523,"Sale":12524,"ULE":12525,"Wai":12526,"Yak":12527,"_',":12528,"bian":12529,"broker":12530,"btn":12531,"cust":12532,"cross":12533,"cfg":12534,"cascade":12535,"even":12536,"fine":12537,"iat":12538,"ired":12539,"kowski":12540,"mc":12541,"nel":12542,"nplurals":12543,"oaded":12544,"rw":12545,"sin":12546,"sby":12547,"uy":12548,"uay":12549,"vailable":12550,"vÃŃk":12551,"Ãĺ":12552,"ãģ":12553,"ĠUS":12554,"ĠYYYY":12555,"eld":12556,"elou":12557,"elli":12558,"Ġ''}":12559,"incorrect":12560,"integration":12561,"seo":12562,"('__":12563,"ars":12564,"Ġirc":12565,"Ġ\"?":12566,"Ġ\"\".":12567,"Ġrenamed":12568,"Ġrestrict":12569,"tok":12570,"uru":12571,"Ġpuppet":12572,"nactive":12573,"Ġfrozen":12574,"ingTestCase":12575,"ida":12576,"iday":12577,"ils":12578,"obr":12579,"chal":12580,"Ġinv":12581,"cost":12582,"setype":12583,"Ġbans":12584,"exchange":12585,"')())":12586,"spac":12587,"Ġ(_('":12588,"prompt":12589,"andatory":12590,"Ġmu":12591,"CharTestModel":12592,"Ġdtype":12593,"KeyRelatedField":12594,"Req":12595,"transition":12596,"Ġeasi":12597,"ĠPass":12598,"ĠPER":12599,"ĠPlayers":12600,"mbourg":12601,"Ġexplorer":12602,"filepath":12603,"Ġ150":12604,"came":12605,"oldest":12606,"ĠCOL":12607,"maryKeyRelatedField":12608,"Ġtinymce":12609,"share":12610,"agos":12611,"comma":12612,"scan":12613,"Ġ28":12614,"Ġfilesize":12615,"ĠRegular":12616,"ĠMIT":12617,"ĠMissing":12618,"ĠEV":12619,"ĠEMAIL":12620,"\">{":12621,"ORIES":12622,"ĠFoursquare":12623,"Ġgzip":12624,"ĠHost":12625,"ĠHEAD":12626,"holm":12627,"124":12628,"Connection":12629,"TextBlock":12630,"ows":12631,"owicki":12632,"015":12633,"0119":12634,"contributors":12635,"ĠBad":12636,"ĠBatch":12637,"subtotal":12638,"subclasses":12639,"dense":12640,"Ġweak":12641,"ĠUserReport":12642,"Ġvotes":12643,"readonly":12644,"Ġprepend":12645,"ToCart":12646,"Ġversioning":12647,"traces":12648,"Ġprior":12649,"Ġ(\"/":12650,"ValueDict":12651,"ObjectList":12652,"apore":12653,"ĠPageUser":12654,"ĠExit":12655,"Ġadmins":12656,"Ġadminist":12657,"(?=":12658,"Ġautomatic":12659,"TEAM":12660,"ymFile":12661,"Ġindexed":12662,"population":12663,"Ġmsgobj":12664,"configuration":12665,"configurable":12666,"Ġ56":12667,"onga":12668,"ENDPOINT":12669,"localtime":12670,"Ġ600":12671,"queued":12672,"DOWN":12673,"FORCE":12674,"Ġquit":12675,"ĠImages":12676,"Ġpygments":12677,"nippets":12678,"Ġ'./":12679,"Ġminute":12680,"ĠThumbnail":12681,"',)}":12682,"ĠAnnouncement":12683,"EXIST":12684,"Ġpositions":12685,"Ġservices":12686,"lookups":12687,"ĠOAuthError":12688,"Ġretval":12689,"djadmin":12690,"Ġidentification":12691,"Ġlocked":12692,"1500":12693,"ĠAuthIdentity":12694,"{}.":12695,"OrderItem":12696,"Renders":12697,"ĠSimpleUploadedFile":12698,"Ġerrno":12699,"Ġdocstring":12700,"ĠApply":12701,"explicit":12702,"evt":12703,"ĠEmailMulti":12704,"Any":12705,"polls":12706,"Label":12707,"Assignment":12708,"xembourg":12709,"NOTICE":12710,"UpdateDestroyAPIView":12711,"ĠWARNING":12712,"slava":12713,"ĠPhotoFactory":12714,"scheduled":12715,"Ġpurpose":12716,"Ġ','.":12717,"AAA":12718,"ĠValidate":12719,"ĠPersonTable":12720,"Ġsymbol":12721,"ProxyModel":12722,"Ġarbitrary":12723,"Ġlaunch":12724,"utcnow":12725,"globals":12726,"QUALITY":12727,"clone":12728,"Ġrecursive":12729,"Ġmimetypes":12730,"inique":12731,"readedComment":12732,"Rosetta":12733,"Ġvouchers":12734,"Ġlowercase":12735,"'{{#":12736,"ĠBool":12737,"EXTENSIONS":12738,"WorldApplication":12739,"vileged":12740,"amoa":12741,"ĠSESSIONS":12742,"ĠADMINS":12743,"microsecond":12744,"indicator":12745,"Alternatives":12746,"ĠParentalKey":12747,"Ġlegacy":12748,"ĠLazyEncoder":12749,"ĠHelloWorldApplication":12750,"DEVSERVER":12751,"ĠSERVER":12752,"Ġrecieved":12753,"ĠOBSOLETE":12754,"CHEDULE":12755,"Kentucky":12756,"jÃ¤rvi":12757,"strumentation":12758,"QuickElement":12759,"internet":12760,"eloupe":12761,"ĠEmailMultiAlternatives":12762,")\\":12763,"/\">":12764,";\\":12765,"AZ":12766,"Bad":12767,"Bit":12768,"BSD":12769,"CG":12770,"CZ":12771,"CIES":12772,"Gal":12773,"Good":12774,"ISE":12775,"JO":12776,"Json":12777,"Jama":12778,"LB":12779,"MK":12780,"Mid":12781,"NA":12782,"Next":12783,"Pe":12784,"Pr":12785,"Pon":12786,"Patterns":12787,"RM":12788,"Random":12789,"RGB":12790,"Sw":12791,"Tells":12792,"Vel":12793,"Wa":12794,"]])":12795,"aco":12796,"bul":12797,"bank":12798,"dc":12799,"dIn":12800,"evision":12801,"eks":12802,"gly":12803,"hi":12804,"hal":12805,"hrules":12806,"humans":12807,"jub":12808,"jquery":12809,"moc":12810,"middle":12811,"pw":12812,"tling":12813,"}]":12814,"}\",":12815,"}).":12816,"Ã¨":12817,"Ġ//":12818,"Ġjoe":12819,"rebuilder":12820,"teardown":12821,"stuff":12822,"dependencies":12823,"thumb":12824,"roe":12825,"ald":12826,"geon":12827,"('{{":12828,"ssary":12829,"ctxt":12830,"Ġ\":":12831,"Ġcf":12832,"Ġcnt":12833,"Ġrefun":12834,"Ġpp":12835,"Ġpadding":12836,"'}},":12837,"Ġthing":12838,"outi":12839,"riatch":12840,"chron":12841,"Ġsan":12842,"Ġsim":12843,"lossary":12844,"Ġbusiness":12845,"Ġbranch":12846,"exi":12847,"explorer":12848,"pei":12849,"Ġ(@":12850,"province":12851,"lub":12852,"lutils":12853,"Ġtouch":12854,"Ġ\"\"\"<":12855,"isValidOrigin":12856,"urlparse":12857,"Ġnotes":12858,"Ġhorizontal":12859,"atedPage":12860,"KeyError":12861,"permitted":12862,"truncate":12863,"ĠSa":12864,"ĠSp":12865,"ĠShipping":12866,"ĠSyntax":12867,"Ġconsumer":12868,"ĠAlias":12869,"=\"?":12870,"Ġexi":12871,"roration":12872,"Ġ1999":12873,"ĠCol":12874,"ĠCmdset":12875,"Ġtxt":12876,"Ġformsets":12877,"shutdown":12878,"agad":12879,"agua":12880,"ctionaries":12881,"ipn":12882,"addQuickElement":12883,"commendations":12884,"responses":12885,"Ġdeni":12886,"otte":12887,"Ġcoerce":12888,"ATA":12889,"ATER":12890,"Ġvertical":12891,"ĠRequired":12892,"FormMixin":12893,"contextmanager":12894,"STER":12895,"ĠOf":12896,"Ġchr":12897,"Ġchance":12898,"ĠEXP":12899,"jski":12900,"ĠFeature":12901,"ĠFavorite":12902,"ĠGame":12903,"lastic":12904,"tagging":12905,"imagekit":12906,"serialized":12907,"Ġcontextmanager":12908,"ĠNULL":12909,"Ġarea":12910,"subtype":12911,"subregion":12912,"background":12913,"ĠUsername":12914,"Ġviewname":12915,"ROP":12916,"ograph":12917,"four":12918,"Ġpretty":12919,"Ġsubregion":12920,"revisionplugin":12921,"ĠUsing":12922,"NotAn":12923,"modify":12924,"Ġauthentic":12925,"Setup":12926,"Checkout":12927,"ĠGroupAssignee":12928,"Dictionary":12929,"PermissionTest":12930,"Ġ\\'":12931,"payments":12932,"ListField":12933,"ListBlock":12934,"ListAPIView":12935,"ccp":12936,"Ġgeneral":12937,"AGER":12938,"locals":12939,"Ġoperating":12940,"Ġinternational":12941,"Ġunderstand":12942,"ĠImageField":12943,"TIES":12944,"Ġoverriding":12945,"Products":12946,"receive":12947,"Thumbs":12948,"0004":12949,"Ġstrict":12950,"crub":12951,"149":12952,"Resources":12953,"Ġlooker":12954,"QuerySetWrapper":12955,"Ġfully":12956,"Ġfullname":12957,"DataForm":12958,"Ġaggregate":12959,"ForDate":12960,"Ġreports":12961,"_%(":12962,"Results":12963,"ĠStart":12964,"Ġmailbox":12965,"dispatcher":12966,"ĠTypeclass":12967,"AnonymousUser":12968,"SocialAuth":12969,"WORDS":12970,"rottling":12971,"8888":12972,"ĠMessageBuilder":12973,"ĠRemoves":12974,"Ġmonths":12975,"ĠSECUR":12976,"Guy":12977,"CHANNEL":12978,"Ġ2015":12979,"TRANS":12980,"ĠValidates":12981,"Ġdetermined":12982,"COMMENTS":12983,"FrameOptions":12984,"imilarUser":12985,"doesnt":12986,"Level":12987,"ĠDeletes":12988,"ĠSocialLogin":12989,"clickjacking":12990,"Ġtracking":12991,"Ġreferenced":12992,"ĠPrivacy":12993,"ĠForeignKeySource":12994,"ratings":12995,"voked":12996,"ĠMove":12997,"ĠBeautifulSoup":12998,"COOKIES":12999,"ĠGeoNodeException":13000,"========================================":13001,"EVENTS":13002,"EVENNIA":13003,"INTERVAL":13004,"(\"-\")[":13005,"When":13006,"BROKER":13007,"Ã¶r":13008,"SyncMock":13009,"ĠVariables":13010,"Saves":13011,"BrowseView":13012,"Ġcombination":13013,"ĠInviteFactory":13014,"Ġattname":13015,"Ġinstantiated":13016,"rontabSchedule":13017,"ClipboardItem":13018,"ĠRegexField":13019,"OVERRIDE":13020,"Ã°ur":13021,"Bahia":13022,"Ġoptimization":13023,"MAGIC":13024,"Ġprinting":13025,"including":13026,"annotations":13027,"EXCEPTION":13028,"Ġcommunication":13029,"brevi":13030,"ĠOfflineCompress":13031,"capitalize":13032,"}?{":13033,"ĠUPDATED":13034,"ĠNulla":13035,"ĠFunFact":13036,"Singapore":13037,"Yakut":13038,"Ġdenied":13039,"NotAnInteger":13040,")[-":13041,"012":13042,":]:":13043,"Aq":13044,"Ala":13045,"BIT":13046,"Core":13047,"Dialog":13048,"Dawson":13049,"Free":13050,"Ho":13051,"Her":13052,"Hong":13053,"II":13054,"JA":13055,"Ke":13056,"Lis":13057,"Mari":13058,"Mak":13059,"Nme":13060,"Pago":13061,"Ru":13062,"SN":13063,"Sur":13064,"Vince":13065,"Wal":13066,"XFrameOptions":13067,"Year":13068,"ZIP":13069,"[/":13070,"]*-":13071,"bers":13072,"bcd":13073,"dts":13074,"gon":13075,"gmd":13076,"hua":13077,"iqu":13078,"ira":13079,"imb":13080,"lje":13081,"loud":13082,"mcs":13083,"nja":13084,"norman":13085,"ozillians":13086,"plus":13087,"rq":13088,"tu":13089,"tup":13090,"uel":13091,"vector":13092,"wkt":13093,"xls":13094,"ĠInteger":13095,"ĠES":13096,"ĠYour":13097,"elcome":13098,"erg":13099,"Ġ';":13100,"Ġ'^":13101,"Ġ''}),":13102,"tea":13103,"inbox":13104,"security":13105,"anded":13106,"street":13107,"tislava":13108,"aring":13109,"Ġide":13110,"Ġcent":13111,"Ġreserved":13112,"urlutils":13113,"Ġposi":13114,"Ġpep":13115,"Ġpipe":13116,"defer":13117,"FieldRenderer":13118,"Ġfact":13119,"ortals":13120,"oba":13121,"chunks":13122,"Ġslow":13123,"romo":13124,"comb":13125,"lour":13126,"fromtimestamp":13127,"\"\"\",":13128,"Ġbig":13129,"Ġbroker":13130,"()['":13131,"exclusion":13132,"')}":13133,"disc":13134,"Ġ#@":13135,"five":13136,"assertForm":13137,"isobsolete":13138,"Ġmxp":13139,"Ġmatter":13140,"Ġdts":13141,"groupcountbyminute":13142,"allRating":13143,"ReusablePlugin":13144,"gerevision":13145,"ĠSQ":13146,"Ġetree":13147,"ĠPick":13148,"ĠPrint":13149,"Ġproceed":13150,"))))":13151,"uski":13152,"ests":13153,"Ġua":13154,"ĠCat":13155,"datastore":13156,"Ġtalk":13157,"istart":13158,"eless":13159,"\":[":13160,"UserData":13161,"ettings":13162,"Groups":13163,"ĠDI":13164,"ĠDelivery":13165,"Ġdictionaries":13166,"Ġ27":13167,"Ġdecoded":13168,"Ġdeactivate":13169,"Ġurlquote":13170,"pypi":13171,"Ġonline":13172,"erifi":13173,"ĠLI":13174,"ĠLocation":13175,"INCLUDE":13176,"ĠFoo":13177,"Ġmess":13178,"Ġalphab":13179,"Views":13180,"lastmod":13181,"Ġgram":13182,"Ġ01":13183,"yped":13184,"ANIZATION":13185,"forbidden":13186,"preserve":13187,"Ġ@/./+/-/_":13188,"ĠNull":13189,"Ġdbid":13190,"subprocess":13191,"LETT":13192,"URLBlock":13193,"://*.":13194,"ICK":13195,"GED":13196,"ostok":13197,"Ġloc":13198,"Ġ<<":13199,"PageRevision":13200,"cachefiles":13201,"ĠProcess":13202,"boot":13203,"ĠRSS":13204,"ĠRFC":13205,"Ġlit":13206,"DecodeError":13207,"ResponseView":13208,"'^([":13209,"rowski":13210,"colno":13211,"funcs":13212,"ops":13213,"Ġidf":13214,"Ġcreator":13215,"PermissionDenied":13216,"Ġshor":13217,"ĠInclude":13218,"tificate":13219,"MOZILLIANS":13220,"Ġupdating":13221,"ĠConfir":13222,"EventCondition":13223,"anning":13224,"Ġpublishing":13225,"LOOK":13226,"headings":13227,"beverage":13228,"JSONRenderer":13229,"socialapp":13230,"tinent":13231,"Ġjane":13232,"+)/',":13233,"ginx":13234,"Ġcols":13235,"steps":13236,"Ġgenerating":13237,"Ġpolicy":13238,"ngine":13239,"localflavor":13240,"Ġcustomized":13241,"8080":13242,"Ġremoves":13243,"Ġdisplays":13244,"222":13245,"VERSIONS":13246,"Ġparsers":13247,"4444":13248,"ibral":13249,"Ġplayername":13250,"PATTERN":13251,"Ġfinish":13252,"ĠOAuthLib":13253,"ĠTagField":13254,"flagger":13255,"flagged":13256,"IndexView":13257,"Ġopenid":13258,"herits":13259,"Ġmanaged":13260,"ĠFileBlob":13261,"ĠAttributeObject":13262,"ĠDict":13263,"WithThumbs":13264,"MINUTES":13265,"ĠTransfer":13266,"ĠStates":13267,":`~":13268,"requirements":13269,"PostCodeField":13270,"ĠShow":13271,"bloggs":13272,"ChooserModel":13273,"SocialToken":13274,"AuthenticationForm":13275,"AuthenticationBackend":13276,"Register":13277,"orphan":13278,"ĠMessageRecipient":13279,"MenuNode":13280,"Ġpopular":13281,"Ġsimplejson":13282,"slash":13283,"somewhere":13284,"mugshot":13285,"ĠCommon":13286,"ĠTranslations":13287,"ĠCompress":13288,"StateSelect":13289,"OBSOLETE":13290,"TitleExtension":13291,"Ġroles":13292,"fees":13293,"lightly":13294,"Ġhappened":13295,"SIZES":13296,"ĠAuthorization":13297,"Split":13298,"ĠORDER":13299,"CONTACT":13300,"ĠALLOW":13301,"different":13302,"Ġtried":13303,"ĠMonth":13304,"locmem":13305,"RegistrationForm":13306,"'{[":13307,"Perm":13308,"LOCAL":13309,"TranslationOptions":13310,"untyped":13311,"zeski":13312,"'|[":13313,"('.')[-":13314,"Bratislava":13315,"ĠXXXXX":13316,"RangeFilter":13317,"Ġintroduce":13318,"Ġslashes":13319,"Ġgravatar":13320,"Ġrespond":13321,"Ġresponsible":13322,"everyone":13323,"ationalError":13324,"BLACK":13325,"~~~~~~~~~~~~~~~~~~~~~~~~~~~~":13326,"imagerevision":13327,"nicks":13328,"analyzer":13329,"ĠDATABASES":13330,"LocalFlavorTests":13331,"Ġrandint":13332,"lahti":13333,"ĠUNTRANSLATED":13334,"highlight":13335,"MPTTModel":13336,"OldView":13337,"Ġmeaning":13338,"urlize":13339,"ĠSTRICT":13340,"ĠAttempt":13341,"Ġmonkeypatch":13342,"Ġwildcards":13343,"ĠVARIANT":13344,"DepartmentSelect":13345,"Mountain":13346,"CarouselItem":13347,"IDENTIFIER":13348,"Ġfrozenset":13349,"Ġeasier":13350,"(?=\\\\":13351,"ĠSECURITY":13352,"XFrameOptionsMiddleware":13353,"]*-*":13354,"iquelon":13355,"ibraltar":13356,"WithThumbsField":13357,"+\\":13358,"+')":13359,"-'":13360,"232":13361,"512":13362,":\",":13363,">{":13364,"BI":13365,"Bur":13366,"BRE":13367,"CD":13368,"DIT":13369,"Ed":13370,"Ev":13371,"Fe":13372,"Full":13373,"Fij":13374,"FACES":13375,"Ger":13376,"Gab":13377,"Holder":13378,"Imple":13379,"Ignore":13380,"JP":13381,"King":13382,"MZ":13383,"Over":13384,"RF":13385,"Scope":13386,"SORT":13387,"TP":13388,"Tai":13389,"broken":13390,"bÃ¦":13391,"bodies":13392,"cron":13393,"dom":13394,"fname":13395,"fragment":13396,"gic":13397,"iv":13398,"ires":13399,"kk":13400,"kl":13401,"llegal":13402,"mup":13403,"nn":13404,"oto":13405,"rght":13406,"sf":13407,"sur":13408,"snapshots":13409,"tk":13410,"tshirt":13411,"vouchee":13412,"wan":13413,"yri":13414,"|[":13415,"Ð¸":13416,"Ġnav":13417,"ĠUSERNAME":13418,"ĠUTF":13419,"elines":13420,"Ġ':'":13421,"ression":13422,"remain":13423,"ond":13424,"orra":13425,"tit":13426,"tius":13427,"also":13428,"arily":13429,"Ġice":13430,"Ġ\"{%":13431,"Ġclash":13432,"tomany":13433,"Ġpub":13434,"Try":13435,"cean":13436,"Ġfri":13437,"chor":13438,"Ġsuggest":13439,"limb":13440,"lisa":13441,"Ġinfinite":13442,"Ġdefer":13443,"noinput":13444,"exe":13445,"dictionary":13446,"valign":13447,"']}":13448,"quoted":13449,"__)))":13450,"Chica":13451,"isfile":13452,"Ġmtime":13453,"='-":13454,"pache":13455,"unitid":13456,"=\"{%":13457,"ĠClear":13458,"heel":13459,"Protocol":13460,"poli":13461,"ticl":13462,"etched":13463,"GroupResolution":13464,"ipython":13465,"TestForm":13466,"Ġdecrement":13467,"Ġonto":13468,"ATORS":13469,"anski":13470,"ĠRece":13471,"FormEntry":13472,"Ġlhs":13473,"ĠOP":13474,"ĠOc":13475,"ĠLocal":13476,"INAX":13477,"ĠFailed":13478,"ĠĠĠĠĠĠĠĠĠĠĠĠĠĠĠĠĠĠĠĠĠĠĠĠĠĠĠĠĠĠĠĠĠĠĠĠĠĠĠĠĠĠĠĠĠĠĠĠĠĠ":13479,"Ġalign":13480,"ĠHidden":13481,"admindocs":13482,"Ġwhite":13483,"SECON":13484,"Ġcontextlib":13485,"Ġunescaped":13486,"ĠTestPage":13487,"Ġmach":13488,"Ġvary":13489,"Ġ300":13490,"ARGET":13491,"oga":13492,"Ġpredecessor":13493,"avana":13494,"Ġabort":13495,"eeks":13496,"aba":13497,"searchdata":13498,"'^/":13499,"ĠGroupMember":13500,"ĠGroupHash":13501,"TTYPE":13502,"ObjectDoesNotExist":13503,"Exclusion":13504,"Disp":13505,"BaseView":13506,"BaseSerializer":13507,"ĠInvitation":13508,"OrganizationOption":13509,"rights":13510,"Ġuptod":13511,"Ġ%}\"\"\")":13512,"myarticle":13513,"USERNAMES":13514,"344":13515,"States":13516,"ADATA":13517,"Ġnodetext":13518,"behavi":13519,"disallowed":13520,"Ġtagged":13521,"ListCreateAPIView":13522,"pickled":13523,"Blocked":13524,"Ġfollowed":13525,"localfiletype":13526,"ImageModel":13527,"Ġinterpre":13528,"Ġunderscores":13529,"Attach":13530,"uritius":13531,"cmdname":13532,"Ġcountdown":13533,"months":13534,"Ġmocked":13535,"Transfer":13536,"Ġoverload":13537,"facts":13538,"Ġtraverse":13539,"Ġows":13540,"That":13541,"Thumbnail":13542,"whatever":13543,"MethodField":13544,"0005":13545,"crumb":13546,"Ġserialization":13547,"PATCH":13548,"identifiers":13549,"IndexEndpoint":13550,"grees":13551,"hape":13552,"ĠFileSystem":13553,"ĠMockRequest":13554,"structured":13555,"Ġtreebeard":13556,"Accessories":13557,"Ġfailure":13558,"ModelFormMixin":13559,"Orderable":13560,"Ġmonitor":13561,"ĠDocumentForm":13562,"Added":13563,"ĠFields":13564,"Ġreferer":13565,"Ġnormalized":13566,"ighbo":13567,"WebToken":13568,"Ġexcinfo":13569,"Ġconstraints":13570,"terminology":13571,"ĠLogout":13572,"Ġtimer":13573,"invites":13574,"ChildModel":13575,"ĠFilterField":13576,"trackbacks":13577,"Ġplans":13578,"broadcastseen":13579,"PasswordHasher":13580,"unicipalitySelect":13581,"Ġexecution":13582,"Point":13583,"ĠIPython":13584,"Ġfnmatch":13585,"LazyObject":13586,"DSymFile":13587,"Ġscores":13588,"IBER":13589,"Less":13590,"ĠReload":13591,"tzinfo":13592,"Ġtrackback":13593,"ĠTreeItem":13594,"gorith":13595,"PRICE":13596,"Ġhighest":13597,"ĠMapLayer":13598,"SubmissionFields":13599,"ĠBusinessIndex":13600,"Ġzlib":13601,"ĠInterface":13602,"Luxembourg":13603,"invitations":13604,"SUBJECT":13605,"SUBSCR":13606,"PLUGINS":13607,"ĠMozillians":13608,"Ġ------------------------------------------------------------------------------":13609,"INTERFACES":13610,"CHARSET":13611,"ĠInstall":13612,"ussnapshot":13613,"DatabaseWrapper":13614,"Ġgrab":13615,"ĠVirtualFolderTreeItem":13616,"Ġrestrictions":13617,"MIGRATION":13618,"employ":13619,"atrix":13620,"PAYMENT":13621,"statussnapshot":13622,"ĠHowever":13623,"passed":13624,"SmartCard":13625,"SCRIPTION":13626,"trees":13627,"ĠOverallRating":13628,"ĠRangeQuerySetWrapper":13629,"WEEKS":13630,"ĠImplements":13631,"ĠPublisher":13632,"CustomFieldValue":13633,"Spain":13634,"Ġdumps":13635,"Ġbobby":13636,"\\-]+)/(?":13637,"promote":13638,"Ġretrieved":13639,"trackeduser":13640,"Reference":13641,"AbsoluteFilter":13642,"ĠLANGUAGE":13643,"ĠTopseller":13644,"ĠNEW":13645,"ORGANIZATION":13646,"Ġprecedence":13647,"ritish":13648,"SEPARATOR":13649,"CONTAINS":13650,"MONTHS":13651,"Ġcrash":13652,"endedText":13653,"ĠCalculate":13654,"Closed":13655,"TrackingPlugin":13656,"Jamaica":13657,"LETTER":13658,"ĠCompressCommand":13659,"BREAK":13660,"Chicago":13661,"Ġuptodate":13662,"SUBSCRIBER":13663,"$\")":13664,")-":13665,"*\"":13666,".</":13667,"/'})":13668,"900":13669,":\")":13670,">\"\"\"":13671,"Baz":13672,"CV":13673,"Cor":13674,"Cost":13675,"CITIES":13676,"EAGER":13677,"Fill":13678,"GIS":13679,"NET":13680,"Ok":13681,"Pinger":13682,"Som":13683,"Sock":13684,"Selected":13685,"SMTP":13686,"TIC":13687,"WF":13688,"WAY":13689,"Worker":13690,"YA":13691,"Yes":13692,"YES":13693,"ZA":13694,"Zero":13695,"]},":13696,"])))":13697,"_*":13698,"acon":13699,"apt":13700,"bro":13701,"bia":13702,"dal":13703,"dry":13704,"folk":13705,"gma":13706,"ggle":13707,"hint":13708,"imap":13709,"mute":13710,"opic":13711,"pins":13712,"rated":13713,"sword":13714,"srs":13715,"tuser":13716,"uti":13717,"wp":13718,"Ġtail":13719,"Ġ'()":13720,"inp":13721,"inlines":13722,"inquent":13723,"ano":13724,"des":13725,"dentry":13726,"dead":13727,"decoded":13728,"decline":13729,"meth":13730,"leep":13731,"though":13732,"aland":13733,"Ġ=>":13734,"aron":13735,"articl":13736,"dback":13737,"dbox":13738,"Ġ('',":13739,"Ġcir":13740,"Ġrevi":13741,"Ġrebuild":13742,"Ġpoll":13743,"nad":13744,"Ġfour":13745,"'}}":13746,"agent":13747,"idinfo":13748,"male":13749,"maila":13750,"obfuscate":13751,"Ġinfile":13752,"Ġiniti":13753,"Ġbraces":13754,"()})":13755,"district":13756,"']/":13757,"Ġ(_(\"":13758,"lenge":13759,"ounted":13760,"edf":13761,"hood":13762,"Ġhim":13763,"ĠTwo":13764,"uts":13765,"ĠStop":13766,"ĠStock":13767,"Ġconcrete":13768,"ĠAust":13769,"ĠPay":13770,"ĠPipeline":13771,"ĠPAY":13772,"Ġproduce":13773,"Ġexis":13774,"Ġexif":13775,"mir":13776,"Ġoffi":13777,"filenames":13778,"cape":13779,"minimum":13780,"istd":13781,"cheapest":13782,"elena":13783,"therlands":13784,"pointer":13785,"ventory":13786,"ĠIso":13787,"GroupTag":13788,"ipv":13789,"authentic":13790,"communi":13791,"TestMixin":13792,"Ġdemo":13793,"Ġdesigned":13794,"lying":13795,"Ġurlsplit":13796,"ĠMod":13797,"ĠModule":13798,"ĠLu":13799,"ĠLoo":13800,"ĠLook":13801,"ĠFrench":13802,"ĠGit":13803,"lasticsearch":13804,"REJECT":13805,"RELEASE":13806,"parsing":13807,"SEP":13808,"######################":13809,"ĠButton":13810,"Ġunused":13811,"Ġunsubscribe":13812,"manually":13813,"transactions":13814,"erevision":13815,"Ġweeks":13816,"Ġnewunit":13817,"tenants":13818,"fox":13819,"TestCaseMixin":13820,"USH":13821,"ĠRENDERER":13822,"\"]))":13823,"figure":13824,"NotRegistered":13825,"=[])":13826,"AdminModel":13827,"news":13828,"ĠGroupProfile":13829,"Ġanyway":13830,"mala":13831,"zech":13832,"PermissionTests":13833,"Ġorderable":13834,"BaseUser":13835,"Validate":13836,"Ġ2009":13837,"ĠPageNotAnInteger":13838,"ront":13839,"suc":13840,"ABC":13841,"staticpages":13842,"Ġjsonfield":13843,"LOCK":13844,"ĠChecker":13845,"invalidate":13846,"Ġspeed":13847,"runei":13848,"Ġwasn":13849,"ĠVK":13850,"Listing":13851,"Creates":13852,"ENDER":13853,"icate":13854,"Colo":13855,"Ġcolli":13856,"Ġcollected":13857,"implement":13858,"wagtailapi":13859,"navailable":13860,"021":13861,"Ġcontained":13862,"cmdstring":13863,"prefixed":13864,"issubclass":13865,"aleor":13866,"Ġinitialization":13867,"Thing":13868,"Notice":13869,"ĠJob":13870,"ĠJinja":13871,"THAN":13872,"ĠModelSelect":13873,"ibouti":13874,"finish":13875,"Ġ800":13876,"syncdb":13877,"SERT":13878,"gregates":13879,"DefaultObject":13880,"SOL":13881,"Ġidentified":13882,"ĠSetting":13883,"Ġfailures":13884,"nius":13885,"Dataset":13886,"WithHeader":13887,"OrderingFilter":13888,"Ġimplicit":13889,"ĠStats":13890,"Ġerrstring":13891,"igationNode":13892,"PORTAL":13893,"bados":13894,"Ġobtain":13895,"ActivityFeed":13896,"Ġtools":13897,"Ġourselves":13898,"Ġimc":13899,"restframework":13900,"Ġ\"/\"":13901,"Ġsafety":13902,"eggs":13903,"ĠCharBlock":13904,"Ġrequirement":13905,"implicit":13906,"RIGHT":13907,"Ġpayments":13908,"setUpScraper":13909,"ĠRemovedIn":13910,"ĠFilterableItem":13911,"Build":13912,"muda":13913,"anama":13914,"ĠGenericRelation":13915,"SubscriptionMock":13916,"043":13917,"DESK":13918,"Temp":13919,"ĠCartModel":13920,"referer":13921,"Ġ2013":13922,"BroadcastSeen":13923,"nessTogether":13924,"IBAN":13925,"CMSPluginBase":13926,"CHECKS":13927,"Ġsyscmd":13928,"aaa":13929,"ĠForeignKeyTarget":13930,"ĠMultiFieldPanel":13931,"PaymentMethod":13932,"ĠBusinessSubIndex":13933,"ĠProfileForm":13934,"Ġscheduled":13935,"Ġattempting":13936,"ĠEmptyTitle":13937,"Ġcapfirst":13938,"ParentalKey":13939,"EVENT":13940,"features":13941,"Ġfilled":13942,"edInsertion":13943,"Ġcompleted":13944,"Ġreviewer":13945,"CheckboxInput":13946,"ĠEmbedBlock":13947,"ACCEPTED":13948,"BusinessSubIndex":13949,"Ġdotted":13950,"macros":13951,"Ġnicks":13952,"Ġ405":13953,"Embedly":13954,"Angel":13955,"deliverable":13956,"WIDGET":13957,"ĠSkillFactory":13958,"KBCategory":13959,"Ġfacets":13960,"discovered":13961,"Ġ###":13962,"ĠRendererB":13963,"vileges":13964,"Negotiation":13965,"RichTextBlock":13966,"ĠMaximum":13967,"bnicate":13968,"Intro":13969,"ĠReykjavÃŃk":13970,"ĠTransactionTestCase":13971,"Ġconsist":13972,"builtin":13973,"ĠDetailView":13974,"ĠRichTextField":13975,"cending":13976,"Ġpossibly":13977,"Ġpairs":13978,"Ġ1448499":13979,"ĠNavigationNode":13980,"Ġpointing":13981,"UNICODE":13982,"Ġbasis":13983,"ĠSensitiveDataFilter":13984,"frobnicate":13985,"IntegrationTest":13986,"ĠRandomCharTestModel":13987,"ĠEndpoint":13988,"scalationExclusion":13989,"Immortals":13990,"ubmitter":13991,"STEM":13992,"ĠCOMPRESS":13993,"lasticSearch":13994,"ĠDIRECT":13995,"Ġ'()':":13996,"articlerevision":13997,"mailadd":13998,".'])":13999,"155":14000,"230":14001,"211":14002,":/":14003,"=-":14004,"=(),":14005,"Bran":14006,"Bank":14007,"Brad":14008,"Brunei":14009,"Cmdset":14010,"Called":14011,"Cord":14012,"CALL":14013,"CrontabSchedule":14014,"DA":14015,"Dan":14016,"Duplicate":14017,"EC":14018,"Fort":14019,"GER":14020,"Guest":14021,"Gibraltar":14022,"JPEG":14023,"KG":14024,"KM":14025,"Ker":14026,"Kit":14027,"Mor":14028,"Mis":14029,"MUT":14030,"Make":14031,"Now":14032,"PAL":14033,"Position":14034,
[...]
